<unk>	0
<s>	0
</s>	0
COVID-19	0
,	-3.25515
▁the	-3.32696
.	-3.50381
▁of	-3.53033
▁and	-3.71503
▁in	-4.03411
-	-4.16882
▁to	-4.20778
▁(	-4.32499
▁a	-4.51947
▁with	-4.83906
▁for	-4.93854
▁is	-4.9419
)	-4.96332
▁"	-5.09618
▁that	-5.12162
▁.	-5.14013
"	-5.14477
▁were	-5.22892
▁was	-5.22959
▁by	-5.27813
▁as	-5.37229
▁The	-5.43242
▁are	-5.45558
s	-5.48701
▁be	-5.52381
▁or	-5.56898
▁from	-5.58725
▁on	-5.75966
▁et	-5.8619
▁at	-5.86197
▁al	-5.91228
▁cells	-5.97339
▁an	-5.99531
/	-5.99634
▁not	-6.0507
▁have	-6.07401
▁virus	-6.12275
▁this	-6.15919
▁which	-6.21664
1	-6.242
▁been	-6.2821
▁1	-6.29345
▁2	-6.31002
▁In	-6.31458
▁infection	-6.35562
▁has	-6.36435
▁may	-6.37702
▁can	-6.41088
'	-6.41469
▁also	-6.43144
;	-6.44378
▁,	-6.45992
▁A	-6.48372
).	-6.48726
▁these	-6.57556
:	-6.59212
▁	-6.59438
.,	-6.60629
▁viral	-6.61506
▁3	-6.62431
▁protein	-6.63118
▁used	-6.64324
),	-6.64478
▁cell	-6.65442
▁other	-6.66014
▁using	-6.661
2	-6.66245
▁disease	-6.66982
▁patients	-6.6762
▁study	-6.69562
▁it	-6.71864
▁but	-6.74096
▁between	-6.76078
A	-6.76103
▁than	-6.77024
▁we	-6.77413
▁more	-6.78683
▁de	-6.78929
e	-6.83131
C	-6.86843
▁S	-6.8759
▁such	-6.88479
▁their	-6.91242
▁all	-6.92994
The	-6.93268
▁This	-6.95263
▁C	-6.95361
▁viruses	-6.95995
a	-6.96166
▁5	-7.00625
▁two	-7.00771
▁data	-7.01568
▁into	-7.0311
▁RNA	-7.03664
▁4	-7.04077
3	-7.05781
▁after	-7.06684
▁human	-7.07232
▁most	-7.08133
▁one	-7.08944
▁T	-7.10969
▁10	-7.12618
▁studies	-7.138
▁both	-7.14289
▁only	-7.14534
▁proteins	-7.14651
▁results	-7.16144
▁different	-7.17059
▁during	-7.18182
▁high	-7.18207
▁no	-7.20262
▁cases	-7.21849
▁time	-7.24161
▁found	-7.24816
▁B	-7.26126
▁number	-7.26393
▁expression	-7.26816
▁each	-7.27626
▁infected	-7.27664
▁respiratory	-7.27703
▁clinical	-7.28081
▁had	-7.2842
B	-7.2915
▁control	-7.29289
▁health	-7.30093
▁shown	-7.30637
▁its	-7.30813
▁analysis	-7.31256
▁However	-7.31774
▁well	-7.33358
▁reported	-7.33854
▁could	-7.3436
4	-7.34961
▁treatment	-7.35654
▁mice	-7.36039
▁influenza	-7.36389
▁when	-7.36755
▁associated	-7.38409
N	-7.38808
▁=	-7.39553
▁use	-7.3971
▁activity	-7.40134
g	-7.40307
▁H	-7.40311
Fig	-7.41333
▁6	-7.41358
▁response	-7.41421
▁infections	-7.41873
▁samples	-7.42111
▁should	-7.42383
▁group	-7.43511
▁la	-7.43978
▁against	-7.44474
▁gene	-7.44643
▁some	-7.45319
▁observed	-7.45671
▁).	-7.45803
▁including	-7.46618
▁will	-7.47262
CoV	-7.48694
▁first	-7.48788
▁there	-7.48905
▁they	-7.49135
▁E	-7.49225
-1	-7.49609
▁SARS	-7.49921
▁These	-7.50385
▁non	-7.50584
▁within	-7.50779
▁It	-7.51059
▁system	-7.51885
▁our	-7.51967
▁P	-7.52109
b	-7.52364
▁immune	-7.52873
▁days	-7.53367
▁N	-7.54023
▁p	-7.5499
▁host	-7.55089
▁levels	-7.55622
▁model	-7.55659
▁CD	-7.56265
▁through	-7.564
▁important	-7.56692
▁h	-7.5707
▁We	-7.57197
▁M	-7.58264
▁three	-7.58826
5	-7.5913
▁DNA	-7.60197
▁increased	-7.60643
S	-7.60664
▁specific	-7.60929
▁Figure	-7.61588
▁compared	-7.616
▁anti	-7.6205
▁showed	-7.6273
▁those	-7.6292
▁For	-7.64341
▁significant	-7.64509
▁present	-7.65236
▁described	-7.65653
\"	-7.65723
n	-7.67023
▁risk	-7.67039
▁\"	-7.67168
▁sequence	-7.6793
▁positive	-7.68137
▁performed	-7.6883
D	-7.68838
i	-7.69817
▁I	-7.70161
▁species	-7.70625
▁identified	-7.70914
▁antibody	-7.7184
▁vaccine	-7.71848
▁blood	-7.72625
▁animals	-7.72823
▁detected	-7.74161
▁then	-7.74287
▁higher	-7.74945
▁similar	-7.74998
▁diseases	-7.75065
▁Fig	-7.75279
▁replication	-7.75328
▁low	-7.76097
▁addition	-7.76524
▁role	-7.76567
▁effect	-7.77118
▁type	-7.77232
▁due	-7.77937
▁potential	-7.78018
▁many	-7.78604
▁+	-7.7934
▁genes	-7.79429
▁binding	-7.80018
▁same	-7.80021
▁antibodies	-7.80244
In	-7.80476
▁because	-7.80592
▁infectious	-7.8066
▁based	-7.80672
▁7	-7.80935
▁)	-7.81076
▁rate	-7.81127
▁case	-7.81192
▁acid	-7.81272
▁further	-7.81608
▁new	-7.81677
▁IFN	-7.81721
▁strains	-7.82555
L	-7.83541
▁development	-7.84219
▁if	-7.84927
▁transmission	-7.85618
▁common	-7.86438
▁presence	-7.86493
▁several	-7.86929
P	-7.86946
▁years	-7.86957
▁over	-7.87246
▁respectively	-7.87684
▁detection	-7.87776
▁severe	-7.87915
▁-	-7.88138
▁Table	-7.88215
▁0	-7.88248
▁would	-7.88606
▁level	-7.88984
▁PCR	-7.89071
▁IL	-7.89571
▁among	-7.8975
▁population	-7.90009
▁test	-7.90773
H	-7.91042
▁any	-7.91115
▁sequences	-7.91187
▁age	-7.91206
▁groups	-7.91527
E	-7.91592
▁patient	-7.91626
▁effects	-7.91636
▁large	-7.91655
p	-7.92279
▁factors	-7.92458
▁small	-7.9273
▁cause	-7.93125
▁L	-7.93136
▁membrane	-7.93227
▁assay	-7.9344
▁8	-7.94343
▁following	-7.94926
▁available	-7.95022
▁per	-7.95057
▁who	-7.95144
▁production	-7.95202
▁acute	-7.95372
c	-7.95757
▁increase	-7.95988
▁en	-7.97142
▁significantly	-7.97198
▁As	-7.9756
▁result	-7.97563
▁single	-7.9757
▁while	-7.97673
▁G	-7.97975
▁total	-7.98189
▁known	-7.98708
▁genome	-7.99443
▁where	-7.99524
▁information	-8.00057
▁serum	-8.00271
▁l	-8.00483
▁under	-8.00575
ing	-8.00747
▁HIV	-8.00919
▁obtained	-8.01008
▁μ	-8.02141
▁about	-8.02167
▁children	-8.02309
▁previously	-8.02611
▁less	-8.03244
▁R	-8.03482
6	-8.03909
▁without	-8.05323
▁function	-8.05638
▁responses	-8.05642
▁d	-8.06411
▁include	-8.06783
▁lower	-8.07011
7	-8.07058
▁surface	-8.07128
▁care	-8.0728
or	-8.07508
▁50	-8.0753
▁possible	-8.07535
▁did	-8.07549
▁D	-8.07727
▁To	-8.08033
▁likely	-8.08422
▁region	-8.08539
▁structure	-8.09548
▁strain	-8.09555
▁method	-8.09729
(	-8.1003
▁pathogens	-8.1043
specific	-8.105
d	-8.1066
▁changes	-8.11035
▁min	-8.11041
M	-8.11447
▁mg	-8.12594
▁early	-8.1299
▁either	-8.13009
]	-8.13306
▁animal	-8.13321
▁culture	-8.13371
▁tissue	-8.13796
▁out	-8.14007
▁before	-8.14133
▁often	-8.14148
I	-8.14611
▁major	-8.14876
▁public	-8.15343
▁considered	-8.15547
▁developed	-8.15564
▁lung	-8.15848
▁site	-8.16119
▁demonstrated	-8.1613
▁target	-8.16148
▁very	-8.16366
▁negative	-8.16924
8	-8.17201
▁day	-8.17529
▁process	-8.18029
▁20	-8.18063
▁conditions	-8.18311
▁related	-8.18365
▁MERS	-8.18668
▁example	-8.18682
▁might	-8.19188
T	-8.1921
▁antigen	-8.19425
▁evidence	-8.19851
▁being	-8.19882
G	-8.1992
▁period	-8.2001
▁containing	-8.2013
▁30	-8.20184
▁sample	-8.20361
▁complex	-8.20367
based	-8.20845
▁research	-8.21186
▁bacterial	-8.21802
R	-8.22098
▁cellular	-8.22368
▁effective	-8.22507
l	-8.22904
▁outbreak	-8.2299
▁i	-8.23091
▁highly	-8.23272
▁symptoms	-8.23449
▁determined	-8.23602
▁required	-8.23824
▁countries	-8.24097
▁up	-8.24308
▁cats	-8.24486
▁methods	-8.24606
▁receptor	-8.24616
▁concentration	-8.24634
▁antiviral	-8.24892
t	-8.25516
▁multiple	-8.25605
▁e	-8.26154
▁9	-8.27255
▁All	-8.27567
▁Although	-8.27957
▁form	-8.27961
▁provide	-8.28199
▁diagnosis	-8.28497
▁tested	-8.28774
▁collected	-8.29016
▁however	-8.29264
▁involved	-8.29563
▁primary	-8.29813
▁vaccines	-8.29824
▁12	-8.29953
▁activation	-8.30193
▁•	-8.30489
-2	-8.30515
▁caused	-8.30714
▁humans	-8.30797
▁reduced	-8.30935
▁various	-8.31328
▁whether	-8.31913
▁models	-8.32338
▁amino	-8.32578
▁therapy	-8.32821
▁F	-8.33263
▁values	-8.33838
▁pneumonia	-8.339
▁included	-8.33934
▁post	-8.34113
▁via	-8.34211
▁24	-8.34488
▁isolated	-8.34588
▁y	-8.34832
▁occur	-8.35062
▁mM	-8.35227
▁<	-8.35331
▁so	-8.35588
F	-8.35749
▁normal	-8.35771
▁treated	-8.35824
▁factor	-8.35881
▁size	-8.35918
▁even	-8.36502
▁s	-8.36641
▁molecular	-8.36666
▁four	-8.36851
▁do	-8.36936
PCR	-8.37044
infected	-8.37208
▁domain	-8.37208
▁expressed	-8.37213
▁water	-8.37272
▁range	-8.37281
▁long	-8.37284
like	-8.3769
▁growth	-8.37803
and	-8.38159
▁although	-8.38521
▁mortality	-8.38524
▁differences	-8.38654
▁approach	-8.38665
▁followed	-8.38809
▁vitro	-8.39075
▁coronavirus	-8.39497
▁15	-8.39563
▁recent	-8.39935
▁least	-8.40153
▁signs	-8.40409
▁China	-8.40466
▁dogs	-8.40713
▁g	-8.40785
▁given	-8.41043
▁co	-8.41114
▁systems	-8.41557
m	-8.41724
▁There	-8.42514
to	-8.42525
▁sites	-8.4253
▁individual	-8.42779
▁un	-8.42813
▁drug	-8.43021
▁individuals	-8.43226
▁findings	-8.4381
▁bacteria	-8.44175
▁exposure	-8.44194
▁laboratory	-8.443
▁des	-8.44466
▁100	-8.4464
▁'	-8.4471
▁RT	-8.44892
▁spread	-8.45009
▁value	-8.4502
▁agents	-8.45523
▁indicated	-8.45827
▁induced	-8.45966
▁contact	-8.4622
▁hospital	-8.464
▁reaction	-8.46635
▁regions	-8.46891
▁[	-8.47162
▁usually	-8.47244
▁above	-8.4754
▁vaccination	-8.48077
▁show	-8.4819
ed	-8.48192
▁After	-8.48504
▁chronic	-8.48632
▁K	-8.4874
Table	-8.48741
▁order	-8.48771
▁confirmed	-8.4887
▁Thus	-8.48921
▁need	-8.4896
▁temperature	-8.48969
▁mean	-8.49295
▁determine	-8.49451
▁areas	-8.49738
▁does	-8.5009
▁mouse	-8.50143
▁weeks	-8.50456
▁seen	-8.50772
▁made	-8.50805
▁particles	-8.50884
▁assays	-8.51114
▁types	-8.51441
▁fever	-8.51521
▁thus	-8.51599
▁work	-8.51754
▁interaction	-8.51951
▁rates	-8.52084
▁lesions	-8.52141
▁t	-8.52225
9	-8.5234
▁previous	-8.52372
ml	-8.52592
▁Therefore	-8.52849
▁whereas	-8.52857
▁analyzed	-8.52877
▁standard	-8.53061
▁q	-8.53189
es	-8.53699
r	-8.53703
▁n	-8.53832
▁epidemic	-8.53837
▁concentrations	-8.53844
▁family	-8.54276
▁contrast	-8.54288
▁fusion	-8.5429
▁since	-8.54331
▁medical	-8.54556
▁times	-8.54635
▁suggest	-8.54748
▁syndrome	-8.54785
▁mRNA	-8.54795
▁set	-8.54856
▁II	-8.55021
▁pathogen	-8.55187
▁mechanism	-8.5542
▁b	-8.55946
▁active	-8.55977
▁experiments	-8.56109
▁ability	-8.56259
▁genetic	-8.56262
▁second	-8.56314
▁IgG	-8.56434
▁distribution	-8.56508
▁change	-8.5678
▁according	-8.57325
ly	-8.57502
induced	-8.57649
▁them	-8.57775
▁USA	-8.57852
▁months	-8.57989
▁testing	-8.5808
▁formation	-8.58272
▁dose	-8.58509
K	-8.59012
▁resistance	-8.59031
▁tract	-8.59036
▁mechanisms	-8.59309
▁secondary	-8.59309
in	-8.59429
▁limited	-8.59456
▁incubated	-8.59489
▁affected	-8.59633
▁peptide	-8.59837
▁part	-8.60415
▁inflammatory	-8.60504
▁general	-8.60609
▁resulting	-8.60666
▁liver	-8.61607
▁must	-8.61884
▁revealed	-8.61899
▁novel	-8.61984
▁still	-8.62383
▁additional	-8.62423
▁plasma	-8.62448
▁c	-8.62517
▁residues	-8.62735
▁m	-8.62955
o	-8.62968
▁products	-8.63005
▁therefore	-8.6311
▁death	-8.63166
▁pigs	-8.63649
▁interactions	-8.63869
▁local	-8.63896
▁produced	-8.64489
▁identify	-8.64593
▁support	-8.64708
▁direct	-8.64927
▁calves	-8.6505
▁added	-8.6514
▁provided	-8.65281
▁inhibition	-8.65309
▁surveillance	-8.65771
▁diagnostic	-8.66037
▁que	-8.66103
▁recombinant	-8.66161
▁14	-8.6619
▁especially	-8.66697
▁immunity	-8.66716
▁RSV	-8.66802
see	-8.6686
▁loss	-8.66946
▁outbreaks	-8.67078
▁people	-8.67137
▁illness	-8.67154
▁measured	-8.67239
▁occurs	-8.67324
▁initial	-8.67356
▁pre	-8.67383
▁few	-8.67468
▁vivo	-8.68358
▁how	-8.68635
▁diarrhea	-8.68663
▁tests	-8.69007
▁decreased	-8.69366
▁U	-8.69598
▁sensitivity	-8.69642
▁suggested	-8.69908
▁el	-8.70074
▁molecules	-8.70174
▁medium	-8.70249
▁pathway	-8.70282
▁causes	-8.7036
▁tissues	-8.70433
▁another	-8.70485
▁V	-8.70489
▁able	-8.70514
▁greater	-8.70653
▁;	-8.70994
▁impact	-8.71031
▁end	-8.71141
▁11	-8.7182
▁entry	-8.71959
▁current	-8.71981
▁hours	-8.72467
▁transcription	-8.725
▁develop	-8.72564
▁difference	-8.72568
▁wild	-8.7263
▁synthesis	-8.7265
▁Furthermore	-8.72907
▁les	-8.73045
▁1)	-8.73312
▁relative	-8.7335
▁inflammation	-8.73537
▁structures	-8.73604
To	-8.73717
mediated	-8.73865
▁air	-8.73868
▁One	-8.73917
▁particular	-8.74033
▁recently	-8.74237
▁pH	-8.7431
▁reduction	-8.74315
▁incidence	-8.74384
▁body	-8.74783
▁rapid	-8.7486
▁macrophages	-8.75459
▁management	-8.75532
▁area	-8.75638
▁much	-8.75801
▁natural	-8.75884
▁selected	-8.76057
▁16	-8.76355
▁drugs	-8.76435
▁protection	-8.76488
▁vector	-8.76542
▁phase	-8.76645
▁generated	-8.7666
▁le	-8.76672
▁suggesting	-8.77276
▁critical	-8.77529
▁signaling	-8.77614
▁lead	-8.7802
dependent	-8.78154
▁defined	-8.78461
▁compounds	-8.78505
▁particularly	-8.78515
▁Health	-8.78528
▁acids	-8.7858
▁year	-8.78584
▁directly	-8.78736
▁experimental	-8.79104
▁structural	-8.79134
▁isolates	-8.79338
cell	-8.79346
▁events	-8.7935
▁O	-8.79916
▁global	-8.80061
▁à	-8.80298
▁cross	-8.80394
▁absence	-8.80439
▁life	-8.80543
▁At	-8.80697
▁point	-8.80998
▁presented	-8.81045
▁18	-8.81426
▁se	-8.81582
▁numbers	-8.81607
▁report	-8.81736
▁populations	-8.8177
▁weight	-8.82191
▁prior	-8.82251
1,	-8.82394
▁essential	-8.82458
▁detect	-8.82586
▁complete	-8.82602
▁prevalence	-8.82622
▁An	-8.82629
▁lack	-8.83067
▁activities	-8.83104
α	-8.83223
▁approximately	-8.83292
▁biological	-8.83391
▁indicate	-8.83405
▁conducted	-8.83494
▁mutations	-8.83552
▁induce	-8.83689
▁cancer	-8.83729
▁measures	-8.84095
▁ml	-8.84291
We	-8.84356
▁average	-8.84925
▁PEDV	-8.84946
V	-8.85009
▁solution	-8.85026
▁reduce	-8.85042
▁real	-8.85237
▁evaluated	-8.85239
▁increasing	-8.85302
▁better	-8.85333
▁pandemic	-8.8548
▁buffer	-8.85584
▁brain	-8.85658
▁five	-8.85924
▁epithelial	-8.8596
▁state	-8.85999
▁challenge	-8.86299
▁receptors	-8.86348
▁signal	-8.86391
▁If	-8.86778
▁become	-8.86854
▁produce	-8.87025
▁functional	-8.87176
▁calculated	-8.87594
▁They	-8.87627
Figure	-8.88031
▁examined	-8.88231
▁appropriate	-8.8826
▁Moreover	-8.88333
▁13	-8.88349
▁25	-8.88597
▁enzyme	-8.88658
▁association	-8.887
▁prevent	-8.88857
▁fluid	-8.88883
▁shows	-8.88954
▁characterized	-8.88971
▁±	-8.89169
▁derived	-8.89388
▁expected	-8.89504
▁line	-8.89611
▁relatively	-8.90025
▁sequencing	-8.90104
type	-8.90117
10	-8.90179
▁key	-8.90183
▁analyses	-8.903
▁community	-8.9032
▁con	-8.90351
en	-8.90448
▁ratio	-8.90476
▁re	-8.90536
▁necessary	-8.90884
▁across	-8.90916
▁antigens	-8.9105
▁PBS	-8.91146
▁main	-8.91153
▁commonly	-8.91382
▁coli	-8.91407
fold	-8.91495
▁When	-8.91635
▁controls	-8.91745
▁combination	-8.92013
▁administration	-8.92067
▁intestinal	-8.92082
▁functions	-8.92209
▁agent	-8.92335
▁ORF	-8.92346
▁isolation	-8.92357
▁decrease	-8.92515
▁release	-8.92584
mL	-8.92761
▁los	-8.9278
▁No	-8.92905
▁consistent	-8.92907
▁NS	-8.93
▁identification	-8.93165
▁quality	-8.93276
▁inhibitors	-8.93361
associated	-8.93446
▁healthy	-8.93464
▁applied	-8.93491
▁di	-8.93674
▁48	-8.9368
▁suggests	-8.93716
▁resulted	-8.93717
▁X	-8.93778
v	-8.93857
▁pro	-8.93905
▁susceptible	-8.93917
▁knowledge	-8.93921
▁needed	-8.94131
://	-8.94138
▁upon	-8.94205
▁specificity	-8.94225
▁peptides	-8.94244
▁estimated	-8.94352
▁full	-8.94581
▁r	-8.94604
▁pulmonary	-8.94849
▁review	-8.95031
▁established	-8.95343
▁environment	-8.9537
▁occurred	-8.95375
▁Our	-8.95681
▁leading	-8.9597
▁severity	-8.96029
▁until	-8.96111
▁purified	-8.96406
β	-8.96406
▁short	-8.96486
▁network	-8.96759
▁o	-8.96859
▁induction	-8.96871
▁responsible	-8.97034
▁food	-8.97167
▁future	-8.97288
▁generally	-8.97499
▁remains	-8.97706
▁efficacy	-8.97808
▁fact	-8.97935
er	-8.98382
▁hand	-8.98428
▁IBV	-8.98572
▁source	-8.98635
▁37	-8.98639
▁length	-8.98644
▁×	-8.98879
▁later	-8.98991
▁onset	-8.99019
h	-8.99026
▁cycle	-8.99131
-3	-8.9926
▁rather	-8.99574
▁MHV	-8.99669
related	-8.99699
▁titers	-8.99699
▁affect	-8.99864
▁strategies	-8.99949
▁flow	-9.00142
▁field	-9.00145
▁play	-9.00147
▁lines	-9.00519
▁HCV	-9.00554
▁oral	-9.01015
▁volume	-9.01111
▁specimens	-9.01183
▁corresponding	-9.01319
▁together	-9.01411
▁nasal	-9.01457
▁primers	-9.01481
▁useful	-9.0153
▁40	-9.01588
▁cultures	-9.01666
terminal	-9.01744
time	-9.01761
▁incubation	-9.01799
▁product	-9.018
▁cytokines	-9.01901
▁conserved	-9.01994
▁reports	-9.02011
▁parameters	-9.02058
▁importance	-9.02129
▁frequently	-9.02254
▁studied	-9.02257
▁skin	-9.02283
▁ELISA	-9.02318
▁overall	-9.0232
▁À	-9.02498
▁class	-9.02923
▁components	-9.03062
positive	-9.03084
▁pathways	-9.03359
▁2)	-9.03443
kg	-9.03449
▁reference	-9.03455
▁investigated	-9.03477
▁therapeutic	-9.03488
▁hepatitis	-9.03702
O	-9.03858
y	-9.0397
▁media	-9.0401
▁difficult	-9.04078
▁properties	-9.04095
▁amount	-9.04142
▁processes	-9.04171
1)	-9.04239
▁On	-9.04455
▁represent	-9.04685
▁frequency	-9.04846
▁United	-9.04948
▁room	-9.05232
▁comparison	-9.05295
▁pattern	-9.05302
▁polymerase	-9.05378
▁characteristics	-9.0541
▁&	-9.05419
▁damage	-9.05445
▁certain	-9.05502
▁selection	-9.05534
▁tumor	-9.05727
▁subsequent	-9.05741
▁inhibitor	-9.05767
▁like	-9.05883
▁survival	-9.06153
▁carried	-9.06236
▁proposed	-9.06366
▁understanding	-9.06475
▁now	-9.06549
▁features	-9.06582
f	-9.06902
▁nucleotide	-9.06916
▁failure	-9.07
▁contain	-9.07037
▁indicating	-9.07143
▁preprint	-9.07467
▁strong	-9.07617
▁screening	-9.07687
▁capacity	-9.07734
▁protective	-9.07873
▁final	-9.07936
▁stress	-9.08365
1-	-9.08475
▁21	-9.08496
▁free	-9.08882
▁mutant	-9.09103
▁chain	-9.09146
▁history	-9.09534
▁good	-9.09575
▁clear	-9.0973
▁step	-9.09763
▁nsp	-9.09773
▁best	-9.09846
▁genomic	-9.10247
▁asthma	-9.10276
▁status	-9.10298
▁HA	-9.10315
▁genomes	-9.10415
▁reverse	-9.10451
▁design	-9.10633
▁six	-9.10686
▁pressure	-9.11087
▁mainly	-9.11409
▁mutation	-9.11757
▁environmental	-9.11829
▁taken	-9.11947
▁independent	-9.12113
▁mass	-9.12273
▁require	-9.12285
▁strategy	-9.12306
▁10%	-9.12467
▁distinct	-9.12517
▁mild	-9.12682
▁exposed	-9.12688
▁highest	-9.12708
▁17	-9.12709
▁provides	-9.12853
▁membranes	-9.12862
▁around	-9.1287
▁variety	-9.13243
▁innate	-9.13291
▁inhibit	-9.13408
▁social	-9.13427
▁cost	-9.13452
▁60	-9.13493
▁appears	-9.13646
▁pathogenesis	-9.13805
▁patterns	-9.13908
▁2009	-9.13965
▁whole	-9.13994
▁developing	-9.14097
2,	-9.14229
▁une	-9.14362
▁predicted	-9.14487
▁est	-9.14497
▁course	-9.14508
▁milk	-9.14724
▁increases	-9.1481
▁MS	-9.15043
▁unknown	-9.15067
▁cleavage	-9.15146
▁central	-9.15164
the	-9.15202
▁alone	-9.15336
▁contains	-9.15402
▁examination	-9.15573
▁received	-9.15676
▁located	-9.15843
▁side	-9.16093
▁intracellular	-9.16122
▁delivery	-9.1617
▁domains	-9.16212
▁targets	-9.16229
▁cannot	-9.16294
▁members	-9.16312
▁While	-9.16418
▁published	-9.16547
▁cattle	-9.16579
▁bovine	-9.16625
▁transport	-9.16715
▁designed	-9.16753
▁techniques	-9.16765
▁position	-9.16848
▁improve	-9.17119
▁appear	-9.17195
▁plasmid	-9.17286
▁efficiency	-9.17394
▁translation	-9.17445
▁influence	-9.17623
▁prepared	-9.1768
▁washed	-9.17702
▁apoptosis	-9.17789
▁help	-9.17841
▁primer	-9.17883
▁safety	-9.1795
▁organisms	-9.18144
▁adult	-9.18222
▁assessed	-9.1854
▁forms	-9.18578
▁terms	-9.1862
▁yet	-9.18641
▁stage	-9.18672
▁sensitive	-9.18698
▁approaches	-9.18725
▁rapidly	-9.18759
▁variable	-9.18998
▁injury	-9.19127
▁Since	-9.19131
▁enhanced	-9.19243
▁daily	-9.1926
▁means	-9.19427
▁amplification	-9.19442
▁nm	-9.19502
▁adults	-9.19512
▁VP	-9.196
▁currently	-9.19784
▁majority	-9.19829
▁unique	-9.19956
▁CNS	-9.20035
▁ER	-9.20282
▁potentially	-9.20292
▁protease	-9.20536
▁requires	-9.20567
▁prevention	-9.20624
▁close	-9.20679
CD	-9.20692
▁:	-9.20718
▁allow	-9.20783
▁proportion	-9.21011
▁%	-9.21014
▁relationship	-9.21027
▁interest	-9.21034
▁lymphocytes	-9.21044
▁States	-9.21056
▁TLR	-9.21135
▁world	-9.21331
▁make	-9.21569
▁below	-9.21637
▁systemic	-9.21785
▁antibiotics	-9.21896
▁del	-9.21921
X	-9.22033
▁assess	-9.2205
▁every	-9.22057
▁antibiotic	-9.2217
?	-9.22187
▁emergency	-9.22235
▁mL	-9.22394
▁emerging	-9.22411
▁correlation	-9.22489
▁material	-9.22569
▁hospitals	-9.22615
▁along	-9.22756
▁evaluation	-9.22761
▁CA	-9.22861
▁contribute	-9.22904
▁pathogenic	-9.22993
▁basis	-9.23026
▁others	-9.23123
▁duration	-9.23192
▁self	-9.23563
▁relevant	-9.23579
▁rats	-9.23676
▁degree	-9.23852
▁noted	-9.23956
▁neutralizing	-9.23968
▁improved	-9.24013
▁Some	-9.24099
▁nature	-9.24109
▁/	-9.24208
▁recognized	-9.24717
▁der	-9.24736
▁cytokine	-9.24872
▁"•	-9.2494
▁staining	-9.25137
▁light	-9.2524
▁probably	-9.25615
▁young	-9.25976
▁international	-9.2613
▁series	-9.26162
up	-9.26406
▁condition	-9.26426
▁way	-9.26482
▁targeting	-9.26503
▁score	-9.26723
▁authors	-9.26947
▁susceptibility	-9.2698
▁led	-9.2699
▁Because	-9.27128
al	-9.2719
▁19	-9.27209
▁University	-9.27234
binding	-9.27375
▁density	-9.27444
▁expressing	-9.27445
▁software	-9.27482
▁recommended	-9.2755
▁sera	-9.27666
▁bind	-9.27677
▁evaluate	-9.27724
▁plus	-9.27918
▁cDNA	-9.27967
▁lipid	-9.27981
▁larger	-9.28025
▁outcome	-9.28064
▁criteria	-9.28079
▁performance	-9.2835
▁variation	-9.28476
▁action	-9.28517
▁efficient	-9.28724
▁participants	-9.28762
well	-9.28778
▁program	-9.28791
▁live	-9.28804
▁peak	-9.28919
▁Most	-9.29033
▁avian	-9.29223
▁coronaviruses	-9.29246
▁having	-9.29473
▁upper	-9.29685
▁bat	-9.30034
▁β	-9.30056
▁stable	-9.30105
▁50%	-9.30121
▁problem	-9.30255
▁poor	-9.30366
▁subjects	-9.30662
x	-9.30986
org	-9.31009
▁last	-9.31094
▁bats	-9.31109
▁procedures	-9.31138
▁combined	-9.3119
▁mixed	-9.31331
▁administered	-9.31384
▁activated	-9.31589
▁3)	-9.31725
▁>	-9.31738
▁indicates	-9.31793
▁du	-9.31814
▁throughout	-9.31863
▁event	-9.31946
);	-9.3202
▁modified	-9.32053
▁Other	-9.32118
▁collection	-9.32201
▁base	-9.32344
▁variables	-9.32451
▁mucosal	-9.3249
▁national	-9.32494
▁vs	-9.32592
▁28	-9.32629
▁extracted	-9.32675
▁million	-9.32987
▁protocol	-9.32997
▁core	-9.33034
▁next	-9.33047
▁finding	-9.33071
J	-9.33077
▁plates	-9.331
▁removed	-9.33107
▁TNF	-9.3334
▁points	-9.33363
▁PRRSV	-9.33531
▁5%	-9.33639
▁little	-9.33782
▁longer	-9.33815
▁demonstrate	-9.33873
▁immunization	-9.33903
▁week	-9.3415
▁late	-9.34216
term	-9.34263
▁here	-9.34375
▁workers	-9.34392
▁1⁄4	-9.34566
▁healthcare	-9.34647
▁J	-9.3468
▁trials	-9.34745
▁gel	-9.34972
▁reactions	-9.3498
▁nuclear	-9.35007
▁access	-9.35239
▁),	-9.35687
▁recognition	-9.35756
▁vectors	-9.36057
▁staff	-9.36074
▁Interestingly	-9.36096
▁training	-9.36297
▁nucleic	-9.36353
▁resistant	-9.3638
▁horses	-9.36388
▁transfected	-9.36459
▁US	-9.36528
▁generation	-9.36576
▁airway	-9.36577
▁travel	-9.3675
▁k	-9.36753
▁application	-9.36787
▁dependent	-9.36797
▁lungs	-9.3683
▁ACE	-9.37081
▁hosts	-9.37169
▁alternative	-9.3729
▁place	-9.37331
11	-9.374
▁By	-9.37531
▁antimicrobial	-9.3755
▁par	-9.37601
▁pneumoniae	-9.37922
day	-9.38019
▁infants	-9.38171
▁remain	-9.38273
▁transfer	-9.38327
▁red	-9.38428
▁possibility	-9.38483
infection	-9.38593
▁assessment	-9.38702
▁[1]	-9.38788
▁underlying	-9.3882
▁economic	-9.38836
▁''	-9.39094
▁fluorescence	-9.39227
▁wide	-9.39378
▁causing	-9.39453
▁kidney	-9.39512
▁processing	-9.39516
▁what	-9.39605
▁Both	-9.39763
▁probability	-9.39765
▁Ebola	-9.39785
▁widely	-9.39822
▁allowed	-9.39845
▁WHO	-9.3995
▁molecule	-9.39956
▁outcomes	-9.39974
▁Vero	-9.39981
▁context	-9.40051
-6	-9.4006
▁una	-9.40167
▁heart	-9.40225
▁complexes	-9.40372
▁Th	-9.40406
free	-9.40431
▁see	-9.40468
▁typically	-9.40475
▁leads	-9.40555
▁double	-9.4067
15	-9.40707
▁variants	-9.40716
▁enzymes	-9.40766
▁far	-9.40998
▁procedure	-9.41006
▁regulation	-9.41105
▁third	-9.4112
▁siRNA	-9.41174
▁basic	-9.4126
▁affinity	-9.41327
▁Further	-9.41532
▁interferon	-9.41642
▁Of	-9.41668
▁La	-9.41684
SARS	-9.41692
▁practice	-9.41782
▁proliferation	-9.4181
▁primarily	-9.41865
▁inhibited	-9.41926
▁almost	-9.4193
▁literature	-9.41942
▁22	-9.42017
▁database	-9.42159
~	-9.42288
▁glycoprotein	-9.42297
treated	-9.42432
▁degradation	-9.42672
▁contained	-9.42806
▁v	-9.42827
▁birds	-9.42884
▁specifically	-9.42924
▁HCoV	-9.43104
▁[4]	-9.43138
▁2005)	-9.43209
▁panel	-9.43287
▁date	-9.43377
▁includes	-9.43386
▁deaths	-9.43436
▁bone	-9.43447
▁done	-9.43521
▁regarding	-9.43806
▁represents	-9.43894
▁95%	-9.43895
▁evolution	-9.43906
▁[8]	-9.43985
▁sufficient	-9.4399
▁Two	-9.44001
▁investigate	-9.44005
▁las	-9.44058
▁experiment	-9.44072
▁origin	-9.44271
▁chemical	-9.44366
▁α	-9.44378
▁measure	-9.44379
▁[5]	-9.44383
▁[3]	-9.444
▁sub	-9.44422
▁investigation	-9.44454
▁percentage	-9.44464
▁substrate	-9.44466
▁nodes	-9.44558
▁discussed	-9.44591
▁monoclonal	-9.44624
▁TGEV	-9.44791
▁problems	-9.44801
▁Results	-9.44878
▁[6]	-9.44929
▁dans	-9.44945
▁Chinese	-9.45089
▁inoculated	-9.4524
▁units	-9.4537
▁half	-9.4537
▁200	-9.45374
▁[7]	-9.45401
▁generate	-9.45418
▁assembly	-9.45425
▁die	-9.45595
▁With	-9.45607
As	-9.4579
▁diversity	-9.45801
▁[9]	-9.45837
▁epitopes	-9.45856
▁index	-9.46028
k	-9.46033
▁fixed	-9.46064
▁physical	-9.46104
▁(1)	-9.46204
▁technology	-9.46271
▁(2)	-9.46273
▁spp	-9.46307
▁suspected	-9.46387
▁component	-9.46425
γ	-9.46567
▁cat	-9.46611
▁peripheral	-9.46658
th	-9.46731
▁GP	-9.46771
▁resources	-9.46842
▁codon	-9.46852
▁Finally	-9.46896
▁manufacturer	-9.46911
▁Africa	-9.47042
▁[11]	-9.47092
For	-9.47127
▁focus	-9.47127
▁manner	-9.47129
▁23	-9.47163
▁2004)	-9.47227
2)	-9.47414
which	-9.47423
▁inhibitory	-9.47498
▁swine	-9.4753
▁epithelium	-9.47539
▁cultured	-9.47655
▁[12]	-9.4767
▁closely	-9.47736
▁broad	-9.47759
▁kit	-9.47816
▁2006)	-9.47867
▁35	-9.47881
▁country	-9.47913
▁linked	-9.47916
▁poly	-9.47958
▁extent	-9.48034
▁observation	-9.48035
▁compound	-9.48046
▁statistical	-9.48144
▁[13]	-9.48263
▁[10]	-9.48417
▁mediated	-9.48587
▁infect	-9.48638
▁content	-9.48822
▁necrosis	-9.48893
▁2007)	-9.48947
▁significance	-9.49023
▁right	-9.49046
▁doses	-9.49087
12	-9.49124
derived	-9.49289
_	-9.4957
▁achieved	-9.49607
▁envelope	-9.49615
▁2003)	-9.49676
▁unit	-9.49853
▁probe	-9.49859
▁[14]	-9.49877
▁2013)	-9.50088
▁stability	-9.50197
▁ventilation	-9.50233
▁needs	-9.50248
▁monitoring	-9.50338
▁2012)	-9.50358
▁subsequently	-9.50387
▁vaccinated	-9.50424
▁renal	-9.50474
▁follow	-9.50494
▁past	-9.50571
-10	-9.50679
▁technique	-9.50682
▁microscopy	-9.50769
▁mutants	-9.50805
reviewed	-9.50908
▁down	-9.50927
▁already	-9.50958
▁fecal	-9.51037
▁por	-9.51136
▁rare	-9.51156
▁worldwide	-9.5118
▁[15]	-9.51202
▁mixture	-9.51222
▁[2]	-9.51237
▁sampling	-9.51241
▁services	-9.51275
▁HSV	-9.51374
2-	-9.51485
▁und	-9.51492
as	-9.51671
▁allows	-9.51686
▁2008)	-9.51727
▁intestine	-9.51727
▁clearly	-9.51882
▁titer	-9.51925
▁72	-9.51966
▁take	-9.52255
▁recombination	-9.52309
▁injection	-9.52351
▁regulatory	-9.52371
-4	-9.52404
▁left	-9.52532
▁thought	-9.52723
▁2010)	-9.52928
▁III	-9.53003
▁x	-9.53171
negative	-9.53262
▁maximum	-9.53316
▁guidelines	-9.53348
▁plant	-9.53445
▁mucosa	-9.53533
▁CI	-9.5362
▁stages	-9.53751
▁account	-9.5376
▁During	-9.53779
▁energy	-9.54002
▁potent	-9.54099
▁open	-9.54218
▁old	-9.543
▁0.5	-9.54311
▁observations	-9.54441
This	-9.54475
▁paper	-9.54488
▁2011)	-9.54524
''	-9.54536
▁stimulation	-9.54589
▁cough	-9.54639
▁[16]	-9.54706
▁versus	-9.54791
▁mammalian	-9.54886
▁ZIKV	-9.54998
▁government	-9.55001
▁Western	-9.5514
▁recorded	-9.55249
▁load	-9.5535
▁sources	-9.55378
▁[17]	-9.55384
▁adenovirus	-9.5553
▁particle	-9.55556
▁internal	-9.55643
▁Y	-9.55659
▁earlier	-9.55664
▁dilution	-9.55805
▁called	-9.55841
▁accumulation	-9.55895
▁targeted	-9.55925
▁muscle	-9.55944
▁recovery	-9.55966
▁oxygen	-9.56123
▁strongly	-9.56136
▁fraction	-9.56235
▁fully	-9.56239
▁inoculation	-9.56309
data	-9.56493
▁limit	-9.5654
▁Additionally	-9.56577
▁phylogenetic	-9.56613
▁virulence	-9.56634
▁2014)	-9.56824
▁ou	-9.56949
▁conventional	-9.57027
▁section	-9.57088
▁es	-9.57098
▁stem	-9.57198
▁virions	-9.57233
▁RNAs	-9.5727
▁amounts	-9.57539
▁mm	-9.57568
▁domestic	-9.57678
▁rotavirus	-9.57705
▁despite	-9.57705
▁lymph	-9.57735
▁Data	-9.57737
+	-9.57774
▁efforts	-9.57815
▁route	-9.57816
▁epitope	-9.5785
▁secretion	-9.57862
▁26	-9.57872
▁simple	-9.57889
▁location	-9.5792
▁author	-9.57965
▁dynamics	-9.57988
▁[18]	-9.58066
▁encoding	-9.58096
▁bound	-9.58097
▁admission	-9.58122
▁policy	-9.58185
▁diluted	-9.58275
▁elevated	-9.58469
▁approved	-9.58522
▁Japan	-9.58736
▁frequent	-9.58772
▁transmitted	-9.58823
▁exhibited	-9.58853
▁introduced	-9.58964
▁contacts	-9.59026
▁formed	-9.59122
▁NP	-9.59122
▁synthesized	-9.59178
▁once	-9.59185
16	-9.59232
old	-9.59288
▁capable	-9.59407
▁rat	-9.59539
▁emergence	-9.59723
▁promoter	-9.59732
3,	-9.59735
▁though	-9.59748
▁matrix	-9.59794
▁intervention	-9.59827
▁experience	-9.59843
▁maintained	-9.59877
▁reducing	-9.599
▁latter	-9.59904
▁clinically	-9.59973
ic	-9.59993
▁trial	-9.60038
0	-9.60081
▁[19]	-9.60116
▁older	-9.6017
▁space	-9.60298
▁Kong	-9.60406
▁National	-9.60547
▁seems	-9.6058
▁scale	-9.60598
▁quantitative	-9.60606
▁epidemiological	-9.60627
▁tool	-9.60656
▁completely	-9.60689
▁stained	-9.60776
▁*	-9.60835
▁elements	-9.60972
▁issues	-9.61155
▁Among	-9.61196
▁promote	-9.61307
▁Similarly	-9.61399
▁except	-9.61401
▁confirm	-9.61417
▁commercial	-9.61429
▁median	-9.61466
▁extensive	-9.61523
▁follows	-9.61563
▁stored	-9.61652
▁sections	-9.61752
▁45	-9.61794
▁successful	-9.62024
▁piglets	-9.6209
▁organism	-9.62164
▁obtain	-9.62233
▁enhance	-9.6226
▁residue	-9.623
▁signals	-9.62322
▁fragment	-9.625
▁acquired	-9.62607
▁spike	-9.62629
▁ensure	-9.6263
▁(10	-9.6269
▁[20]	-9.6273
▁South	-9.62923
▁correlated	-9.62951
▁fragments	-9.62966
▁rabbit	-9.63035
▁estimate	-9.63096
▁pain	-9.63187
▁us	-9.63208
▁phosphorylation	-9.63288
▁typical	-9.6331
▁Such	-9.63336
▁Hong	-9.63423
▁setting	-9.63496
▁hypothesis	-9.63593
▁[21]	-9.63683
▁display	-9.637
▁multi	-9.63734
▁log	-9.63834
▁optimal	-9.63887
▁statistically	-9.63933
▁showing	-9.63957
▁act	-9.63963
▁steps	-9.64009
▁asymptomatic	-9.6403
▁Each	-9.64192
▁DENV	-9.64245
▁feline	-9.64376
▁behavior	-9.64418
▁minutes	-9.64464
▁kinase	-9.64509
▁presentation	-9.64574
▁women	-9.64611
▁providing	-9.64621
▁gastrointestinal	-9.64697
▁27	-9.64776
▁classified	-9.64828
▁dengue	-9.64855
▁1%	-9.64911
▁search	-9.65247
▁roles	-9.65384
▁porcine	-9.65408
▁NF	-9.65434
▁random	-9.6547
▁understand	-9.6552
on	-9.65685
▁32	-9.65688
▁morbidity	-9.65732
▁motif	-9.6575
▁Several	-9.65761
▁Cells	-9.65861
▁genus	-9.65866
▁tuberculosis	-9.6588
▁concern	-9.65887
▁involving	-9.65903
▁zoonotic	-9.65914
▁involvement	-9.65915
▁moderate	-9.66002
▁f	-9.66008
▁facilitate	-9.66085
▁settings	-9.66108
▁IFITM	-9.66317
▁MHC	-9.66366
▁diagnosed	-9.66427
▁copies	-9.66505
▁distance	-9.66568
▁RV	-9.6659
▁estimates	-9.66642
▁seven	-9.66712
▁spleen	-9.66722
▁murine	-9.66814
▁Germany	-9.66981
▁always	-9.66983
▁yield	-9.67045
▁WT	-9.67057
▁2015)	-9.67092
▁documented	-9.67129
inflammatory	-9.67144
▁HRV	-9.67152
▁identity	-9.67284
▁neutrophils	-9.67352
▁New	-9.67469
▁cytoplasm	-9.67479
▁facilities	-9.67538
▁controlled	-9.6754
▁sodium	-9.67632
▁[22]	-9.67858
▁Using	-9.67955
▁contamination	-9.67969
▁disorders	-9.68042
▁W	-9.68064
▁infectivity	-9.68168
▁identical	-9.68355
▁Virus	-9.68431
▁isolate	-9.68517
▁ICU	-9.68526
▁More	-9.68551
▁reads	-9.68671
▁CO	-9.68707
▁ng	-9.68814
▁antigenic	-9.68819
▁37°	-9.68948
▁diverse	-9.69011
▁NK	-9.69018
z	-9.69032
▁Europe	-9.69089
▁making	-9.69093
an	-9.69195
▁genotype	-9.69222
▁complications	-9.69231
▁placed	-9.69252
▁36	-9.69362
▁intensity	-9.69438
▁occurring	-9.69496
▁tools	-9.69606
▁entire	-9.6963
▁preparation	-9.69643
▁cluster	-9.69717
▁[23]	-9.69762
▁cytoplasmic	-9.69767
is	-9.69782
▁term	-9.69793
MS	-9.69913
▁smaller	-9.69959
▁canine	-9.70081
stranded	-9.70086
▁numerous	-9.70319
▁amplified	-9.70337
▁characteristic	-9.70348
▁29	-9.70386
▁HBV	-9.7066
▁shedding	-9.70666
▁white	-9.70708
▁Many	-9.70716
▁remaining	-9.70728
▁progression	-9.70748
▁linear	-9.70804
▁near	-9.7083
▁probes	-9.70865
▁medicine	-9.70873
U	-9.70898
▁scores	-9.70902
▁induces	-9.70949
▁routine	-9.70991
▁employed	-9.71033
▁4)	-9.71056
▁possibly	-9.71078
13	-9.71088
▁kDa	-9.7113
▁markers	-9.71142
▁organs	-9.71145
▁supported	-9.71221
▁separate	-9.71244
▁interact	-9.71456
▁capsid	-9.71469
▁circulating	-9.71554
▁survey	-9.71581
▁supernatant	-9.71616
▁interventions	-9.71648
▁initiation	-9.71709
▁programs	-9.71817
▁rabbits	-9.71862
▁person	-9.72
▁detailed	-9.72005
▁Asia	-9.72014
▁CoV	-9.72051
▁subunit	-9.72062
▁appeared	-9.72092
▁alveolar	-9.72099
▁serious	-9.721
▁0.1	-9.72101
▁thereby	-9.72195
▁remained	-9.7226
▁differential	-9.72293
▁organ	-9.72319
human	-9.72338
▁adverse	-9.72417
▁Z	-9.72497
▁successfully	-9.72706
▁networks	-9.72772
▁seasonal	-9.72907
un	-9.72941
▁coverage	-9.73033
▁easily	-9.73039
▁electron	-9.73058
▁profile	-9.73312
▁male	-9.73339
▁Methods	-9.73366
▁IV	-9.73459
▁initially	-9.73467
resistant	-9.735
▁protect	-9.73596
▁template	-9.73697
▁benefit	-9.73707
▁differentiation	-9.73717
▁[24]	-9.73891
▁extraction	-9.73952
▁calf	-9.74002
▁focused	-9.74017
▁plays	-9.7403
▁downstream	-9.74221
▁−	-9.74261
▁discovery	-9.74345
▁largely	-9.74375
40	-9.74429
▁pig	-9.74445
3-	-9.74513
▁Indeed	-9.74544
▁World	-9.74578
▁apparent	-9.74618
▁crucial	-9.74663
▁similarity	-9.74673
▁just	-9.74819
▁industry	-9.74864
▁regression	-9.7487
▁express	-9.74872
▁International	-9.74936
▁find	-9.75034
▁great	-9.75038
▁released	-9.75066
▁exist	-9.7527
▁consider	-9.75281
▁attention	-9.75373
▁persistent	-9.755
▁j	-9.7555
▁cardiac	-9.75582
▁peer	-9.75723
▁para	-9.75814
▁(3)	-9.75846
▁depending	-9.76133
▁persons	-9.76188
▁(1	-9.76212
▁tree	-9.76217
▁divided	-9.76232
▁(5	-9.76295
▁UK	-9.76413
▁[25]	-9.76414
▁birth	-9.76435
▁detectable	-9.76587
It	-9.76591
▁twice	-9.76684
▁immediately	-9.76731
▁100%	-9.76794
▁attenuated	-9.76857
for	-9.77017
▁threshold	-9.77062
▁original	-9.77138
▁reporting	-9.77154
▁count	-9.77172
▁burden	-9.77417
▁endemic	-9.77417
▁serve	-9.77423
▁Another	-9.77507
▁avoid	-9.77564
▁heat	-9.77569
▁towards	-9.77599
linked	-9.77631
▁loop	-9.77685
▁female	-9.77765
There	-9.77833
▁recovered	-9.77898
II	-9.77903
▁2002)	-9.77999
▁tumors	-9.78003
▁Viral	-9.78057
▁TB	-9.78068
▁Q	-9.78107
▁laboratories	-9.78161
▁complement	-9.78163
▁swabs	-9.78172
▁Inc	-9.78291
▁market	-9.78353
▁urine	-9.78373
▁subjected	-9.78395
▁autophagy	-9.78398
▁[26]	-9.78428
▁onto	-9.78452
▁plaque	-9.7848
▁feces	-9.78506
▁enteric	-9.78579
▁Research	-9.78607
▁practices	-9.78629
▁constant	-9.78671
▁phenotype	-9.78689
▁states	-9.78772
▁true	-9.78789
▁outside	-9.78799
▁VSV	-9.78832
▁Based	-9.78853
w	-9.79022
▁applications	-9.79024
▁SDS	-9.79097
▁comparable	-9.79107
▁First	-9.79123
▁CC	-9.79156
▁situation	-9.79176
▁fi	-9.79261
▁cold	-9.79279
▁microbial	-9.79283
▁LPS	-9.79354
▁Here	-9.7941
▁layer	-9.79445
▁European	-9.79514
▁Also	-9.79541
▁compare	-9.79547
doi	-9.79663
▁PI	-9.79689
▁occurrence	-9.79714
▁costs	-9.79746
▁80	-9.7978
▁https	-9.79801
▁aureus	-9.79952
▁DC	-9.79989
▁toxicity	-9.80051
▁substantial	-9.80094
of	-9.80108
length	-9.80119
▁improvement	-9.80136
▁clones	-9.8015
▁eight	-9.80174
▁plants	-9.80222
▁newly	-9.80279
▁mRNAs	-9.80303
▁periods	-9.80349
▁address	-9.80689
▁candidate	-9.80805
▁nucleotides	-9.80839
Although	-9.80868
Y	-9.80873
▁gp	-9.80892
▁slightly	-9.81044
▁removal	-9.81067
▁transferred	-9.81142
▁malaria	-9.81217
▁hepatic	-9.81235
▁90	-9.81269
▁families	-9.813
▁variant	-9.81318
▁surfaces	-9.81499
▁equal	-9.81557
www	-9.81729
▁31	-9.81755
▁epidemics	-9.81777
▁clusters	-9.81827
▁chest	-9.81972
▁constructed	-9.81978
▁2003	-9.82056
▁doi	-9.82085
▁coding	-9.82088
14	-9.82168
▁rabies	-9.82208
▁vary	-9.82264
▁transcripts	-9.82334
▁[27]	-9.8234
▁risks	-9.82341
nt	-9.82436
▁nucleus	-9.8244
▁CMV	-9.82488
▁explain	-9.82689
▁marker	-9.82717
▁blot	-9.82793
▁died	-9.82826
▁composition	-9.82856
▁sont	-9.82859
▁toward	-9.82895
▁involves	-9.8296
▁neutralization	-9.83012
▁counts	-9.83019
▁block	-9.83127
▁ligand	-9.83153
▁minimal	-9.83175
▁respect	-9.83181
▁[28]	-9.8322
▁existing	-9.83221
▁nt	-9.83232
▁effectively	-9.83263
▁continuous	-9.83318
▁ill	-9.83401
▁feature	-9.83483
IL	-9.83578
▁cohort	-9.83634
▁partial	-9.83816
▁decision	-9.83863
▁barrier	-9.83871
▁holder	-9.83956
▁question	-9.83967
▁binds	-9.83987
▁encephalitis	-9.84072
▁regional	-9.84142
▁grown	-9.84166
▁repeated	-9.84196
▁curve	-9.84248
▁questions	-9.84263
▁virion	-9.84359
▁mAb	-9.84392
▁describe	-9.84441
▁aged	-9.84448
▁challenges	-9.8449
▁fatal	-9.84494
▁Despite	-9.84508
▁imaging	-9.8452
▁interval	-9.84533
▁whose	-9.84536
re	-9.84544
▁Clinical	-9.84549
▁fetal	-9.84695
▁chickens	-9.8475
▁suitable	-9.84799
▁EV	-9.84809
containing	-9.84809
▁baseline	-9.84851
▁poultry	-9.84929
▁immunized	-9.85013
▁33	-9.85031
▁effectiveness	-9.85142
▁spectrum	-9.85242
▁copyright	-9.85283
▁marked	-9.85302
▁Similar	-9.85337
▁traditional	-9.85393
▁unclear	-9.85411
▁2000)	-9.85735
▁Hospital	-9.85738
▁implementation	-9.8575
▁500	-9.85751
▁Golgi	-9.85794
▁adaptive	-9.85814
▁[29]	-9.85855
▁working	-9.85866
year	-9.8601
▁own	-9.86044
▁background	-9.86048
▁plate	-9.86146
▁treatments	-9.86156
▁neurons	-9.86156
▁his	-9.86341
▁member	-9.86348
▁transfection	-9.86469
▁selective	-9.86472
▁prediction	-9.86807
▁supplemented	-9.86809
protein	-9.87067
▁marrow	-9.87233
▁equipment	-9.874
▁extract	-9.87418
▁glycoproteins	-9.87447
▁version	-9.87666
▁2000	-9.8767
▁Disease	-9.87845
▁itself	-9.87921
▁synthetic	-9.8793
25	-9.8805
▁treat	-9.88123
▁sets	-9.88129
▁clearance	-9.88136
▁exhibit	-9.88163
▁depends	-9.88195
▁displayed	-9.88253
▁positions	-9.88341
▁instance	-9.88438
▁separated	-9.88454
▁resolution	-9.88498
▁deletion	-9.88572
▁IgA	-9.88622
▁edema	-9.88669
▁give	-9.88689
▁limitations	-9.88696
▁surgical	-9.88708
▁tube	-9.88727
▁hydrophobic	-9.88959
▁reason	-9.89014
▁2016)	-9.89023
min	-9.89059
▁endothelial	-9.89175
▁prolonged	-9.89225
All	-9.89228
▁view	-9.89286
▁inactivated	-9.89311
▁labeled	-9.89351
▁preventing	-9.89402
▁efficiently	-9.89466
▁CSF	-9.89517
▁East	-9.89532
▁fluorescent	-9.8955
▁IRF	-9.89561
▁aspects	-9.89569
de	-9.89571
▁examine	-9.89578
▁inhibits	-9.89579
▁column	-9.89743
▁conclusion	-9.89799
▁neonatal	-9.89917
▁issue	-9.89949
RNA	-9.9002
▁plasmids	-9.90074
▁communication	-9.90079
▁excluded	-9.90094
▁materials	-9.90098
▁sheep	-9.90106
▁represented	-9.90119
▁yeast	-9.90203
▁mode	-9.90241
▁dog	-9.90268
▁contaminated	-9.90271
▁extended	-9.90302
▁2001)	-9.90369
▁farms	-9.90418
▁Human	-9.9052
▁glucose	-9.90581
▁restriction	-9.90625
▁introduction	-9.90648
▁[30]	-9.90661
funder	-9.90689
HA	-9.90712
▁movement	-9.90804
▁ranging	-9.90825
▁progress	-9.90839
▁CT	-9.9088
▁cycles	-9.90913
20	-9.90957
▁sepsis	-9.91008
▁bp	-9.91092
▁migration	-9.91128
▁safe	-9.91314
▁endogenous	-9.91398
▁Control	-9.91426
▁tourism	-9.91451
▁localization	-9.91511
▁agreement	-9.91589
▁mostly	-9.9161
▁uptake	-9.91645
▁vascular	-9.91647
▁pairs	-9.9165
▁FIP	-9.91677
▁harvested	-9.91709
▁likelihood	-9.91729
57	-9.91737
▁perform	-9.91743
▁extracellular	-9.91781
▁face	-9.91824
▁Taiwan	-9.91847
j	-9.91941
▁gut	-9.91944
▁luciferase	-9.91954
▁instructions	-9.92007
▁IAV	-9.92016
3)	-9.92046
▁reasons	-9.92177
▁achieve	-9.92206
▁became	-9.92213
▁toxin	-9.9226
▁Patients	-9.92264
▁hospitalized	-9.92283
▁building	-9.92351
▁education	-9.9239
▁inter	-9.92453
▁vesicles	-9.92483
▁HLA	-9.92562
▁adequate	-9.92592
▁sometimes	-9.92612
▁EBOV	-9.92696
▁distributed	-9.92706
▁subject	-9.92785
▁composed	-9.92804
▁GFP	-9.92859
▁evolutionary	-9.92867
▁rarely	-9.92877
▁Institute	-9.9289
▁From	-9.9289
▁intermediate	-9.93037
▁differ	-9.93064
▁Korea	-9.93073
▁minimum	-9.93205
▁home	-9.93295
▁2009)	-9.93322
▁maintain	-9.9335
▁proteases	-9.93361
▁altered	-9.93373
▁head	-9.93484
▁profiles	-9.93568
▁modification	-9.93636
▁lesion	-9.93656
▁referred	-9.93724
▁diameter	-9.93824
▁wall	-9.93899
▁establish	-9.94005
▁accurate	-9.94006
▁spatial	-9.94009
▁metabolic	-9.94024
▁parameter	-9.94087
▁sequenced	-9.94201
▁20%	-9.9439
▁consists	-9.94395
▁processed	-9.94471
À	-9.94508
▁turn	-9.94522
▁restricted	-9.94525
▁genotypes	-9.94546
▁implemented	-9.94551
▁West	-9.9459
▁availability	-9.94591
▁spinal	-9.94607
▁algorithm	-9.94752
▁rhinovirus	-9.94771
▁interesting	-9.94836
▁personal	-9.94882
W	-9.95115
▁reviewed	-9.95124
▁reflect	-9.95161
▁alignment	-9.95213
▁saline	-9.95393
▁monitored	-9.95405
▁Briefly	-9.95452
▁appearance	-9.95457
▁mock	-9.9548
▁allowing	-9.95571
▁classification	-9.95621
▁[31]	-9.95637
▁chicken	-9.95678
▁mature	-9.95746
us	-9.9578
▁reporter	-9.95813
▁readily	-9.95856
▁Nevertheless	-9.95921
▁threat	-9.95969
▁green	-9.96012
▁predict	-9.96162
▁representative	-9.96184
no	-9.96195
▁soluble	-9.96229
▁advantage	-9.96438
▁power	-9.96462
▁Salmonella	-9.96521
▁indirect	-9.96561
▁again	-9.96593
▁protocols	-9.96621
▁transmembrane	-9.96695
▁abdominal	-9.96788
▁Co	-9.96857
▁parts	-9.96868
▁aim	-9.96894
▁39	-9.9691
Q	-9.96924
▁Only	-9.97047
▁segments	-9.97065
▁start	-9.97144
▁34	-9.97205
κ	-9.97227
▁TM	-9.9723
▁pathology	-9.97262
▁monocytes	-9.97425
▁mentioned	-9.97501
▁symptom	-9.97599
▁season	-9.97623
▁attachment	-9.97697
▁foreign	-9.97853
▁etc	-9.97915
▁list	-9.9799
▁putative	-9.98124
▁abnormalities	-9.98142
▁70	-9.98177
▁article	-9.98309
▁parasite	-9.98327
▁trans	-9.98376
▁42	-9.98594
▁micro	-9.98601
▁feeding	-9.98642
▁pour	-9.98677
▁personnel	-9.98727
▁feed	-9.98809
▁colleagues	-9.98857
63	-9.98982
▁promising	-9.98983
▁measurements	-9.99052
▁donor	-9.99249
▁measles	-9.99252
▁accuracy	-9.9931
▁phosphate	-9.99373
▁admitted	-9.99383
▁gastric	-9.99423
▁license	-9.99425
▁Influenza	-9.99425
▁bias	-9.9946
▁nor	-9.9948
▁supernatants	-9.9949
▁January	-9.99741
▁cm	-9.99756
17	-9.9976
▁urban	-9.99776
▁examples	-9.99789
▁IC	-9.99854
▁cloned	-9.99947
▁overnight	-9.99955
▁assumed	-10.0003
▁construct	-10.0004
▁[32]	-10.0004
▁epidemiology	-10.0007
▁consensus	-10.0007
▁America	-10.0016
▁IgM	-10.002
▁pregnancy	-10.0021
▁CDC	-10.0024
▁metabolism	-10.0035
Invitrogen	-10.006
▁nanoparticles	-10.0064
▁note	-10.0065
▁DCs	-10.0065
▁respond	-10.0076
▁veterinary	-10.0077
▁directed	-10.0077
▁[33]	-10.0081
▁receiving	-10.0086
▁American	-10.0087
▁segment	-10.0093
▁recommendations	-10.0117
▁scientific	-10.0119
▁affecting	-10.0124
▁þ	-10.0126
▁concept	-10.0127
▁inclusion	-10.0131
▁RIG	-10.0133
▁implicated	-10.0148
▁autoimmune	-10.0152
▁En	-10.0152
▁back	-10.0156
▁living	-10.0161
▁extracts	-10.0163
▁fibrosis	-10.017
▁memory	-10.0175
▁intensive	-10.018
▁2014	-10.0184
▁identifying	-10.0184
▁lethal	-10.0185
▁STAT	-10.0187
▁shock	-10.0196
▁diet	-10.0204
▁partially	-10.0222
▁gain	-10.0226
▁researchers	-10.0227
▁Supplementary	-10.0233
▁becomes	-10.0235
▁purpose	-10.0238
▁share	-10.0238
▁disaster	-10.0245
▁continue	-10.0246
▁hygiene	-10.0249
▁deficiency	-10.0267
▁38	-10.0269
▁serotypes	-10.0273
▁growing	-10.0277
▁parasites	-10.0279
▁purification	-10.028
▁modifications	-10.0287
▁centrifugation	-10.0288
▁sputum	-10.0298
▁reached	-10.0301
▁au	-10.0303
▁CAP	-10.0304
▁sex	-10.0306
▁hospitalization	-10.031
▁evident	-10.033
▁reservoir	-10.0348
18	-10.0353
▁1999)	-10.0354
▁ISG	-10.0355
▁shift	-10.0356
▁library	-10.0359
▁surgery	-10.0361
▁run	-10.0364
at	-10.0365
▁enough	-10.0367
▁African	-10.0367
viral	-10.0391
▁node	-10.0396
▁regulated	-10.0404
▁child	-10.0406
▁NA	-10.041
▁continued	-10.0411
▁recipients	-10.0413
▁blue	-10.0415
one	-10.0417
▁rise	-10.0419
▁attributed	-10.0428
▁®	-10.0437
▁PCV	-10.0439
▁nervous	-10.0441
50	-10.0448
▁listed	-10.0455
▁discovered	-10.0466
▁Group	-10.047
▁lacking	-10.0471
19	-10.0474
▁naturally	-10.0475
▁2004;	-10.0479
▁lymphoid	-10.0482
▁[34]	-10.0488
▁virulent	-10.0488
▁shared	-10.0496
▁maintenance	-10.0498
▁relationships	-10.0499
▁investigations	-10.0502
Z	-10.0503
▁recruitment	-10.0503
▁chains	-10.0503
level	-10.0509
▁robust	-10.0512
▁cord	-10.0518
▁considerable	-10.052
43	-10.0526
▁dsRNA	-10.0528
▁too	-10.053
▁replicate	-10.0531
▁definition	-10.0534
▁middle	-10.0539
▁2005;	-10.0543
▁technologies	-10.0547
▁Recently	-10.0554
▁catalytic	-10.0556
▁herds	-10.0565
▁liquid	-10.0567
▁(2	-10.0568
▁producing	-10.0571
▁stimulated	-10.0576
▁involve	-10.059
▁Following	-10.0591
▁strand	-10.0593
▁Cell	-10.0593
▁90%	-10.0594
▁ED	-10.0601
▁extremely	-10.0607
▁fold	-10.0613
▁dpi	-10.0617
21	-10.0621
▁analysed	-10.0621
▁activate	-10.0626
▁choice	-10.0626
▁North	-10.064
▁requirements	-10.0643
RT	-10.0645
▁widespread	-10.065
▁instead	-10.0657
▁measurement	-10.0661
▁microorganisms	-10.067
▁nM	-10.0672
▁trend	-10.0679
▁Medical	-10.0681
▁success	-10.0681
▁serial	-10.0684
▁si	-10.0689
▁eIF	-10.0704
▁error	-10.0705
▁affects	-10.0705
▁Kit	-10.0709
71	-10.071
▁150	-10.071
▁Then	-10.0718
▁top	-10.0719
▁framework	-10.0719
▁1000	-10.0726
▁reach	-10.0726
&	-10.0727
▁false	-10.0728
▁toxic	-10.0732
▁minor	-10.0732
▁encoded	-10.0736
▁external	-10.0738
▁greatly	-10.0739
▁failed	-10.0748
▁ion	-10.0749
▁makes	-10.0753
▁matter	-10.0756
▁exact	-10.076
▁2003;	-10.0761
▁herd	-10.0766
▁farm	-10.0767
▁nearly	-10.0775
▁infiltration	-10.0777
▁frame	-10.078
▁benefits	-10.0796
▁[35]	-10.0831
▁nurses	-10.0836
▁ferrets	-10.0836
▁colon	-10.0843
Sigma	-10.0846
▁dynamic	-10.0849
▁remove	-10.0859
▁sur	-10.0862
▁variability	-10.0876
▁conformation	-10.0876
▁diabetes	-10.0877
▁reading	-10.0886
▁intra	-10.0895
▁dysfunction	-10.0896
▁supply	-10.0899
▁2012	-10.09
une	-10.0905
▁intravenous	-10.0919
▁blocking	-10.0927
▁Three	-10.0932
▁he	-10.0944
▁characterization	-10.0945
▁discharge	-10.0948
▁comprehensive	-10.095
▁parallel	-10.0953
▁2%	-10.0953
▁subtypes	-10.0955
38	-10.0964
▁chosen	-10.0969
▁allergic	-10.097
4,	-10.0983
▁symptomatic	-10.0983
▁blocked	-10.0986
▁service	-10.0993
▁°	-10.0997
▁solid	-10.0998
▁replaced	-10.1
▁2.5	-10.1006
▁passage	-10.1011
▁effector	-10.1013
▁platform	-10.1013
▁beneficial	-10.1016
uC	-10.1025
▁starting	-10.1033
▁COPD	-10.1039
▁percent	-10.1067
▁mechanical	-10.1073
▁According	-10.1073
▁comparing	-10.1073
▁65	-10.1074
▁month	-10.1075
Our	-10.1075
▁poorly	-10.1077
▁Animal	-10.1086
▁2005	-10.1088
▁w	-10.1089
▁2013	-10.1091
▁RBD	-10.1094
▁images	-10.1095
▁physicians	-10.1101
▁off	-10.1105
▁fluids	-10.1106
▁native	-10.1106
▁locations	-10.1107
▁fresh	-10.1115
▁1.5	-10.1124
▁terminal	-10.1134
▁0.05	-10.1134
eg	-10.1135
▁actual	-10.1138
▁channel	-10.115
▁maternal	-10.1153
▁cut	-10.1165
▁mitochondrial	-10.117
▁defense	-10.1172
▁MA	-10.1176
▁hybridization	-10.1178
▁understood	-10.1178
▁consumption	-10.1189
▁Canada	-10.1191
▁Center	-10.1193
▁filter	-10.1198
▁[36]	-10.1199
▁cytotoxic	-10.1202
▁assigned	-10.1204
▁2006;	-10.1204
▁washing	-10.1207
▁abnormal	-10.1209
▁intervals	-10.1211
▁reveal	-10.1217
▁dry	-10.122
▁fed	-10.1221
▁multiplex	-10.1225
▁candidates	-10.1226
▁RNase	-10.1227
59	-10.1227
▁80%	-10.1231
▁specimen	-10.1237
▁mAbs	-10.1242
ii	-10.1244
▁quarantine	-10.1245
▁2010	-10.1247
-5	-10.1247
▁standards	-10.125
▁derivatives	-10.1251
▁gas	-10.127
▁EBV	-10.1274
▁special	-10.1283
▁calcium	-10.1285
▁colostrum	-10.1296
▁consequence	-10.1307
▁impaired	-10.1309
risk	-10.1317
▁seem	-10.1319
▁ongoing	-10.1322
▁concerns	-10.1324
▁organization	-10.1324
▁solutions	-10.1327
▁largest	-10.1333
▁43	-10.1339
▁Bio	-10.1342
▁usage	-10.1347
▁reproductive	-10.1352
▁predominantly	-10.1353
▁confidence	-10.1355
▁quantified	-10.136
TM	-10.1364
▁gastroenteritis	-10.1371
-1,	-10.1387
41	-10.1396
PAGE	-10.1404
▁adjuvant	-10.1409
▁quite	-10.141
▁respective	-10.1415
▁detecting	-10.1416
▁bodies	-10.1423
▁95	-10.1433
▁2017)	-10.1435
▁beyond	-10.1438
▁pair	-10.1443
▁electrophoresis	-10.1443
▁biology	-10.1446
▁diarrhoea	-10.1451
▁Tris	-10.1452
ation	-10.1454
▁placebo	-10.1454
▁created	-10.146
st	-10.146
HIV	-10.1466
▁experimentally	-10.1472
▁capture	-10.1474
▁none	-10.1475
▁2004	-10.1481
▁consequences	-10.1487
▁[37]	-10.1496
▁utilized	-10.1499
▁ligands	-10.1503
▁flu	-10.1505
▁fungal	-10.1511
▁planning	-10.1513
▁Australia	-10.1515
▁pregnant	-10.1518
▁summary	-10.152
▁progressive	-10.1529
borne	-10.1532
▁obstruction	-10.1535
▁regulate	-10.1536
▁Ad	-10.1537
▁ribavirin	-10.1541
▁il	-10.1544
▁believed	-10.1546
▁humoral	-10.1556
▁categories	-10.1559
▁tail	-10.1562
▁(4)	-10.1565
com	-10.1573
▁SD	-10.1573
▁May	-10.1575
▁determining	-10.1595
▁episodes	-10.1595
▁crystal	-10.1595
▁variations	-10.1599
IFN	-10.1614
-7	-10.1626
▁project	-10.1626
▁integrated	-10.1627
▁mammals	-10.1628
▁circulation	-10.1629
conjugated	-10.1632
▁facility	-10.1632
▁protected	-10.1633
http	-10.1634
▁recognize	-10.1638
▁exchange	-10.1652
▁clone	-10.1653
▁household	-10.1653
▁emerged	-10.1656
▁immunofluorescence	-10.1659
▁explained	-10.1663
▁define	-10.1664
▁substitution	-10.1667
▁Given	-10.1668
▁1998)	-10.1672
▁Respiratory	-10.1673
▁perhaps	-10.1674
▁hpi	-10.1678
▁plan	-10.1681
strand	-10.1684
▁details	-10.1695
▁simulation	-10.17
▁lysis	-10.1712
▁41	-10.1714
▁UV	-10.1716
▁abundance	-10.1717
▁portion	-10.1717
▁fit	-10.1721
▁center	-10.1723
▁simultaneously	-10.1728
▁syncytial	-10.1729
▁normally	-10.1735
▁cholesterol	-10.1738
▁obvious	-10.174
▁correct	-10.174
▁5)	-10.174
▁Â	-10.1762
▁enter	-10.1775
▁maturation	-10.1778
▁Le	-10.178
▁intact	-10.1781
▁[38]	-10.1787
-8	-10.1787
▁analyze	-10.1797
▁adjacent	-10.18
▁exists	-10.1805
μ	-10.1806
▁purchased	-10.1809
-12	-10.181
An	-10.1811
ab	-10.1812
▁hydrogen	-10.1825
▁uses	-10.1831
▁homologous	-10.1833
▁consisting	-10.1834
▁biopsy	-10.1835
u	-10.1845
▁avec	-10.1846
▁hr	-10.1848
▁expansion	-10.1866
▁localized	-10.1872
▁homology	-10.1875
▁reliable	-10.1879
▁cavity	-10.1879
▁adhesion	-10.1885
▁(3	-10.1887
▁contribution	-10.1891
▁nucleocapsid	-10.1894
▁goat	-10.1895
é	-10.1897
120	-10.1905
▁2015	-10.1906
▁equivalent	-10.1912
▁initiated	-10.192
▁55	-10.1921
including	-10.1929
▁camels	-10.1931
▁immunoglobulin	-10.1931
end	-10.1931
▁objective	-10.1935
▁inhibiting	-10.1942
able	-10.1943
▁proper	-10.1944
▁Infection	-10.1946
regulated	-10.1948
▁invasive	-10.1948
▁receive	-10.1957
▁injected	-10.1966
▁hemorrhagic	-10.1981
▁4°	-10.1982
off	-10.1985
▁miR	-10.1991
▁transient	-10.1991
▁Middle	-10.1993
▁file	-10.1993
▁varied	-10.1996
▁30%	-10.1997
▁TCID	-10.2002
▁dataset	-10.2004
▁u	-10.2007
▁von	-10.2008
▁beginning	-10.2011
▁2007;	-10.2012
▁therapies	-10.2015
▁airborne	-10.2025
▁microarray	-10.203
▁immunodeficiency	-10.203
▁create	-10.2032
▁extension	-10.2035
▁exacerbations	-10.2035
▁nine	-10.2039
▁presenting	-10.204
▁delayed	-10.2043
▁phage	-10.2044
virus	-10.2045
▁uninfected	-10.2058
▁motifs	-10.2059
▁read	-10.206
▁suppression	-10.2065
▁300	-10.2083
▁transplantation	-10.2088
▁LC	-10.2088
▁city	-10.2092
▁stay	-10.2092
test	-10.2098
▁75	-10.2102
▁experienced	-10.2105
▁depletion	-10.2105
▁His	-10.2113
▁inducing	-10.2114
▁causative	-10.2116
▁beta	-10.2117
▁kept	-10.2119
▁sense	-10.2124
▁advanced	-10.2125
*	-10.2141
▁donors	-10.2152
▁[39]	-10.2155
▁otherwise	-10.216
labeled	-10.2171
▁randomly	-10.2175
▁2008;	-10.218
▁Treatment	-10.2186
▁swab	-10.2193
▁forward	-10.2197
▁regard	-10.2207
▁Ca	-10.2208
La	-10.2208
▁lymphocyte	-10.221
▁pediatric	-10.2212
▁weak	-10.2217
▁viability	-10.2217
▁classes	-10.2218
▁serotype	-10.2229
▁increasingly	-10.2234
▁why	-10.2239
▁input	-10.2245
24	-10.2245
▁macrophage	-10.2245
▁NaCl	-10.2248
▁disorder	-10.2252
▁1995)	-10.2254
▁changed	-10.2254
▁screened	-10.2259
▁students	-10.2261
▁articles	-10.2262
▁communities	-10.2269
▁elderly	-10.2272
▁cities	-10.2274
▁gradient	-10.2276
▁polyclonal	-10.2278
ity	-10.2279
▁pathogenicity	-10.2284
▁Organization	-10.2286
▁untreated	-10.2287
▁stock	-10.2287
range	-10.2289
▁Additional	-10.2293
▁microscope	-10.2297
▁2+	-10.2303
▁(95%	-10.2304
▁PA	-10.2309
▁quickly	-10.2314
▁1997)	-10.2319
4-	-10.2319
▁array	-10.2326
▁He	-10.2336
▁eggs	-10.2341
▁decreases	-10.2341
▁2009;	-10.2346
▁raised	-10.2346
▁alter	-10.2346
▁Hence	-10.2348
scale	-10.2351
▁prevalent	-10.2355
▁tend	-10.2356
▁France	-10.2359
▁2-	-10.236
NS	-10.2365
os	-10.2365
▁Even	-10.2369
▁Dr	-10.2373
▁HPV	-10.2375
▁detail	-10.2375
▁physiological	-10.238
▁SP	-10.2393
▁trypsin	-10.24
▁reduces	-10.2401
▁44	-10.2404
▁frameshifting	-10.2405
ers	-10.2414
▁De	-10.2414
▁cytotoxicity	-10.2422
ment	-10.2431
▁mit	-10.2437
▁59	-10.2438
▁yellow	-10.2442
▁throat	-10.2444
▁contributed	-10.2447
GFP	-10.2448
1/	-10.2451
▁eine	-10.2462
▁enveloped	-10.2466
▁dilutions	-10.247
ie	-10.2473
mouse	-10.2478
▁unable	-10.248
▁accompanied	-10.2486
▁transcriptional	-10.2504
▁lysates	-10.2508
▁Scientific	-10.2513
rich	-10.2516
pH	-10.252
CL	-10.2527
▁preparedness	-10.2531
▁293	-10.2531
▁ways	-10.2532
▁varying	-10.2533
▁[40]	-10.2533
▁upstream	-10.2533
▁representing	-10.2535
▁Committee	-10.2542
▁challenged	-10.2545
▁qui	-10.2545
▁Laboratory	-10.2556
▁caspase	-10.2562
▁Gram	-10.2565
▁reactive	-10.2569
▁females	-10.2577
▁WNV	-10.2579
▁biochemical	-10.258
▁prophylaxis	-10.2582
▁replicates	-10.2585
▁ubiquitin	-10.2587
▁you	-10.2591
▁chromatography	-10.2593
▁penicillin	-10.2595
▁pacientes	-10.26
▁conformational	-10.2603
27	-10.2603
▁genetically	-10.2604
▁2010;	-10.2608
▁abundant	-10.261
▁Section	-10.2617
▁vomiting	-10.262
▁prominent	-10.2632
▁goal	-10.2634
▁CXCL	-10.2636
▁subset	-10.2636
▁unlikely	-10.2636
▁occasionally	-10.2643
▁secreted	-10.2643
▁cows	-10.2646
▁requiring	-10.2657
▁Studies	-10.2657
▁determination	-10.2669
▁delay	-10.2675
▁started	-10.2675
▁effort	-10.2675
▁attack	-10.2683
▁diffuse	-10.2683
▁lost	-10.2686
▁phenomenon	-10.2694
▁interpretation	-10.2695
▁controlling	-10.2705
▁validated	-10.2709
cells	-10.2724
▁serological	-10.2735
▁rights	-10.2736
▁dendritic	-10.2741
▁demand	-10.2746
where	-10.2752
▁absorption	-10.2756
▁western	-10.276
▁−1	-10.2762
▁school	-10.2763
▁ten	-10.2774
▁systematic	-10.2778
▁aerosol	-10.2779
▁depend	-10.2782
▁monitor	-10.2783
▁decades	-10.2784
▁routes	-10.2798
▁[41]	-10.2813
▁secretions	-10.2817
▁modeling	-10.2824
▁cytometry	-10.2826
▁2007	-10.2827
▁proven	-10.2832
▁band	-10.2834
▁crisis	-10.2835
▁herpes	-10.2838
▁March	-10.2847
▁policies	-10.2847
▁inactivation	-10.2852
▁CPV	-10.2859
OR	-10.2864
▁lineage	-10.2886
▁2013;	-10.2891
▁cap	-10.2894
▁insertion	-10.2901
▁designated	-10.2906
▁parainfluenza	-10.2911
▁alpha	-10.2913
▁[1,	-10.2914
▁FeLV	-10.2917
▁5-	-10.2925
▁taking	-10.2929
▁ranged	-10.293
▁kinetics	-10.293
▁transition	-10.2932
▁fractions	-10.2936
▁nerve	-10.2937
▁outer	-10.2942
▁1990	-10.2942
▁Department	-10.2944
▁illnesses	-10.2949
▁cleaved	-10.2953
▁younger	-10.2957
53	-10.2957
▁2006	-10.2966
ally	-10.2966
▁FCoV	-10.2969
▁1992	-10.2978
▁46	-10.298
▁1996)	-10.2981
▁como	-10.2986
▁2011	-10.2987
▁System	-10.2988
▁centrifuged	-10.2993
▁RdRp	-10.3017
▁Overall	-10.3018
▁Recent	-10.3019
▁screen	-10.302
▁geographic	-10.3021
▁storage	-10.3026
▁neurological	-10.3029
▁absent	-10.3032
▁son	-10.3034
▁ratios	-10.3034
▁El	-10.3034
▁MRSA	-10.305
▁resource	-10.3055
▁explore	-10.3058
▁lymphoma	-10.306
MERS	-10.3077
▁annual	-10.308
▁records	-10.3085
▁AIDS	-10.3087
▁consideration	-10.3089
▁aimed	-10.3091
▁0.2	-10.3093
▁substrates	-10.3093
▁nursing	-10.3094
▁hence	-10.3095
▁Protein	-10.3098
▁relation	-10.3099
▁advantages	-10.31
chez	-10.3116
▁incorporated	-10.3117
▁manifestations	-10.3119
▁link	-10.312
▁etiology	-10.3127
▁balance	-10.3131
▁persistence	-10.3134
▁HeLa	-10.3139
▁summarized	-10.3146
▁come	-10.315
▁extensively	-10.3159
NC	-10.3162
▁diffusion	-10.3163
▁exception	-10.3164
▁2011;	-10.3165
▁interface	-10.3168
▁VLPs	-10.3173
▁temperatures	-10.3173
▁theory	-10.3176
▁2008	-10.3183
▁transplant	-10.3183
▁neutrophil	-10.3183
▁microglia	-10.3188
▁47	-10.3191
▁sterile	-10.3191
▁56	-10.3195
▁magnitude	-10.3201
▁precursor	-10.3201
▁situations	-10.3202
▁wells	-10.3203
▁carbon	-10.3205
One	-10.3205
▁HR	-10.321
BL	-10.3212
▁scenario	-10.3213
▁trigger	-10.3215
▁96	-10.3215
▁excess	-10.3216
▁[42]	-10.3217
man	-10.3218
▁implications	-10.3225
▁sampled	-10.3228
▁Saudi	-10.3232
▁4.0	-10.3238
▁breast	-10.3248
▁discussion	-10.3255
aa	-10.3256
▁hour	-10.3256
▁technical	-10.3263
▁1994)	-10.3264
▁supporting	-10.3271
▁forming	-10.3271
▁team	-10.3274
▁prospective	-10.3275
▁possess	-10.3277
▁ice	-10.3282
▁requirement	-10.3282
▁cas	-10.3283
▁substitutions	-10.3284
▁heavy	-10.3292
▁CHIKV	-10.3297
▁encodes	-10.33
▁consent	-10.3305
▁constructs	-10.331
▁2012;	-10.3312
▁interstitial	-10.3318
▁subtype	-10.3321
▁lowest	-10.3328
▁|	-10.3328
with	-10.3338
▁Na	-10.3342
▁passive	-10.3358
▁CCL	-10.3363
▁completed	-10.3368
▁independently	-10.3371
▁influenced	-10.3376
▁vessels	-10.3376
▁myelin	-10.3379
▁classical	-10.338
▁immunocompromised	-10.3387
▁nosocomial	-10.339
▁bronchiolitis	-10.3394
deficient	-10.3399
▁coefficient	-10.3399
▁sizes	-10.34
such	-10.3403
▁fewer	-10.3406
▁element	-10.3407
week	-10.3413
▁addressed	-10.342
▁invasion	-10.342
▁[43]	-10.343
▁climate	-10.3432
▁cysteine	-10.3433
▁mosquito	-10.3435
▁PFU	-10.3436
▁infl	-10.344
ray	-10.3441
▁transfusion	-10.3448
▁inside	-10.345
5,	-10.3455
▁Second	-10.3455
▁compartment	-10.3456
▁HEV	-10.3467
▁online	-10.3483
▁reagent	-10.3484
▁dominant	-10.3484
▁escape	-10.3484
▁suspension	-10.3485
▁HEK	-10.3487
▁copy	-10.3487
▁7,	-10.3488
▁shed	-10.3489
▁foals	-10.3493
▁distress	-10.3496
▁treating	-10.3496
▁explored	-10.3499
▁más	-10.3501
▁HCWs	-10.3507
▁000	-10.351
mer	-10.3517
▁morphology	-10.3525
▁reagents	-10.3532
▁stimulate	-10.3536
terminus	-10.3538
▁FIPV	-10.3549
▁stool	-10.3551
▁complexity	-10.3554
▁HBoV	-10.3554
▁mmol	-10.3558
▁reproduction	-10.3562
▁St	-10.3565
▁49	-10.3566
▁April	-10.3576
▁themselves	-10.358
▁temporal	-10.3581
▁secretory	-10.3592
▁normalized	-10.3599
▁know	-10.3609
▁trade	-10.3613
▁Analysis	-10.3616
▁complementary	-10.3617
care	-10.3619
▁rodents	-10.362
▁kb	-10.3621
▁enable	-10.3622
▁neuronal	-10.3624
▁decline	-10.3625
q	-10.3626
▁airways	-10.3627
▁medRxiv	-10.3636
▁actions	-10.3637
▁compliance	-10.364
▁1993	-10.3646
▁valuable	-10.3661
▁livestock	-10.3665
▁GenBank	-10.3666
▁winter	-10.3673
/6	-10.3674
▁dairy	-10.3677
▁urinary	-10.3679
▁varies	-10.3684
▁respondents	-10.3689
▁considering	-10.3694
▁security	-10.3697
▁demonstrating	-10.37
▁males	-10.3703
▁purposes	-10.3703
expressing	-10.3706
▁adopted	-10.3717
▁characterize	-10.3717
▁never	-10.3719
▁eye	-10.372
▁shorter	-10.3723
▁speed	-10.3723
▁ATP	-10.3724
▁concentrated	-10.3724
▁namely	-10.3725
▁accession	-10.3735
▁1980	-10.374
▁Samples	-10.3742
▁overlapping	-10.3742
▁2014;	-10.3754
▁immunogenicity	-10.3757
▁[44]	-10.3758
di	-10.3759
▁environments	-10.3759
DNA	-10.376
=	-10.3765
▁visits	-10.3768
▁her	-10.3771
▁gold	-10.3778
▁OR	-10.3784
▁immediate	-10.379
▁coupled	-10.3794
▁pathological	-10.3802
▁ring	-10.3805
▁1991)	-10.3809
▁centers	-10.3811
▁shape	-10.3816
▁slow	-10.382
▁carcinoma	-10.3821
®	-10.3823
▁regular	-10.3826
▁easy	-10.3832
▁deviation	-10.3835
▁kg	-10.3835
▁basal	-10.3835
▁immunological	-10.3843
▁frequencies	-10.3844
▁concluded	-10.3844
▁surrounding	-10.3848
5-	-10.386
549	-10.3866
▁attempt	-10.3869
▁rural	-10.3875
▁inserted	-10.3877
▁transgenic	-10.3883
▁offer	-10.3893
28	-10.3894
▁[45]	-10.3894
▁bioRxiv	-10.3898
▁questionnaire	-10.3905
▁integration	-10.3915
▁Zika	-10.3915
▁1993)	-10.3916
▁GI	-10.3926
4)	-10.393
▁proved	-10.3932
9]	-10.3934
▁prognosis	-10.3934
▁Due	-10.3937
▁kind	-10.3938
▁tropism	-10.394
Supplementary	-10.3942
▁man	-10.3948
▁evolved	-10.3948
▁breeding	-10.3951
▁reactivity	-10.3954
▁nuclei	-10.3954
▁wildlife	-10.3959
▁preventive	-10.3961
▁perceived	-10.3962
▁2002;	-10.3963
▁alterations	-10.3963
▁70%	-10.3965
▁department	-10.3972
▁sialic	-10.3978
co	-10.3981
▁fl	-10.3982
▁private	-10.3987
▁2002	-10.3998
▁comparisons	-10.4005
▁120	-10.401
▁]	-10.4013
▁glycosylation	-10.4019
OC	-10.4019
▁astrocytes	-10.4023
▁trauma	-10.4026
▁existence	-10.4026
▁colony	-10.404
▁mucus	-10.4043
▁hemorrhage	-10.4046
▁quantification	-10.4047
▁figure	-10.4049
▁produces	-10.405
▁translocation	-10.4057
▁demyelination	-10.4058
▁1992)	-10.4061
▁High	-10.4061
▁December	-10.4066
▁focal	-10.4071
▁colonization	-10.4082
▁glands	-10.4084
▁adjusted	-10.4091
▁neither	-10.4093
▁validation	-10.4098
▁Fisher	-10.4104
▁NO	-10.4105
▁positively	-10.411
▁informed	-10.4115
▁nasopharyngeal	-10.4117
▁combinations	-10.4118
▁predictive	-10.4119
▁latent	-10.4125
▁bands	-10.4133
▁financial	-10.4144
▁color	-10.4147
▁adaptation	-10.4148
▁distinguish	-10.4157
▁fungi	-10.4159
▁CCR	-10.416
▁practical	-10.4164
▁dual	-10.4169
GP	-10.417
▁mediate	-10.4173
▁rule	-10.4174
▁substantially	-10.419
▁device	-10.4196
▁exacerbation	-10.4198
▁charge	-10.4203
▁pool	-10.4203
▁force	-10.4206
line	-10.422
▁colonies	-10.4222
yl	-10.4232
▁excellent	-10.4237
▁aid	-10.4237
▁acts	-10.4238
▁adapted	-10.4241
▁preparations	-10.4242
▁overcome	-10.4244
▁separation	-10.4244
um	-10.4248
▁markedly	-10.4253
▁carrying	-10.4254
▁lo	-10.4257
▁40%	-10.4268
▁map	-10.427
▁named	-10.4272
▁eventually	-10.4273
▁recurrent	-10.4277
▁wind	-10.4286
▁decreasing	-10.4287
▁spreading	-10.4288
▁undergo	-10.4288
▁So	-10.4293
▁52	-10.4293
▁proinflammatory	-10.4299
▁heterogeneity	-10.4312
▁bronchitis	-10.4312
▁category	-10.4312
▁insulin	-10.4318
▁-1	-10.4324
▁replacement	-10.4327
▁bond	-10.4333
▁51	-10.4334
▁image	-10.4334
▁ribosomal	-10.4335
▁DMEM	-10.4337
▁subunits	-10.4344
est	-10.4347
▁fast	-10.4348
▁improving	-10.4351
▁predominant	-10.4352
▁oil	-10.4356
▁mapping	-10.4357
▁albumin	-10.436
Δ	-10.4365
▁FIV	-10.437
▁~	-10.4371
▁Les	-10.4372
te	-10.4381
100	-10.4383
▁96-	-10.4383
▁awareness	-10.4384
▁interacts	-10.4385
▁negatively	-10.4386
▁contributes	-10.4387
▁Li	-10.439
host	-10.4392
▁Fc	-10.4396
▁z	-10.4396
▁visible	-10.4401
▁su	-10.4406
▁febrile	-10.4424
▁3-	-10.4424
▁gram	-10.4425
▁GC	-10.443
45	-10.4433
▁residents	-10.4446
▁curves	-10.4447
▁carriers	-10.4452
by	-10.4459
▁authorities	-10.4463
▁MOI	-10.4463
▁output	-10.4464
▁rest	-10.4464
▁absolute	-10.4465
▁viable	-10.447
▁databases	-10.4471
▁participate	-10.4472
▁precautions	-10.4476
▁devices	-10.4477
▁(5)	-10.4482
▁tRNA	-10.4486
▁disruption	-10.4487
way	-10.449
▁accordance	-10.4492
▁mononuclear	-10.4494
▁genera	-10.4494
▁carry	-10.4494
▁coated	-10.4497
70	-10.4499
▁http	-10.4501
▁anemia	-10.4507
▁consistently	-10.451
▁deep	-10.4515
▁être	-10.4516
▁enzymatic	-10.4517
Bio	-10.4517
▁takes	-10.4521
▁equine	-10.4525
▁Type	-10.4535
▁organizations	-10.4535
▁ha	-10.4538
▁February	-10.454
▁vital	-10.4541
▁vaccinia	-10.4544
▁Importantly	-10.4548
▁trees	-10.4551
30	-10.4552
▁bases	-10.4553
▁Their	-10.456
▁pas	-10.4568
▁consisted	-10.4574
▁Wuhan	-10.4575
▁intake	-10.4578
▁Ag	-10.458
▁agarose	-10.4581
▁2001	-10.4584
▁elsewhere	-10.4586
▁physician	-10.4587
▁precise	-10.4592
▁codons	-10.4593
▁[46]	-10.4597
▁simulations	-10.4602
▁Once	-10.4611
VP	-10.4614
▁direction	-10.4614
▁toxins	-10.4619
▁Ab	-10.462
▁clustering	-10.462
▁gland	-10.462
▁pooled	-10.4621
▁institutions	-10.4625
▁BALB	-10.4625
▁visualized	-10.4626
▁get	-10.4626
▁exercise	-10.4629
▁similarly	-10.4633
▁bio	-10.4637
▁agencies	-10.4642
▁serine	-10.4645
▁enrolled	-10.4648
▁DPP	-10.4648
independent	-10.4653
▁ex	-10.4658
▁highlighted	-10.4659
▁gave	-10.4659
NL	-10.4661
▁chemokines	-10.467
▁Medicine	-10.4673
▁complicated	-10.4676
▁zone	-10.4677
▁delivered	-10.4677
09	-10.468
▁CoVs	-10.4684
▁bei	-10.4687
▁oxidative	-10.4689
▁covered	-10.4693
▁probable	-10.4694
▁manuscript	-10.4694
▁1990)	-10.4696
▁[47]	-10.47
▁severely	-10.4702
▁June	-10.4705
▁beads	-10.4709
▁infecting	-10.4713
▁variance	-10.4716
▁2001;	-10.4725
▁54	-10.4738
▁ARDS	-10.4738
▁determinants	-10.4747
▁400	-10.475
▁alcohol	-10.4755
reactive	-10.4755
▁53	-10.4757
▁measuring	-10.4759
▁submitted	-10.4759
▁Streptococcus	-10.4762
▁leukemia	-10.4763
293	-10.4764
▁poliovirus	-10.4775
▁Escherichia	-10.4775
▁AE	-10.4779
▁fat	-10.4779
▁orally	-10.4786
▁Prevention	-10.4786
▁presents	-10.4792
Since	-10.4794
▁lumen	-10.4797
▁randomized	-10.4797
▁retrospective	-10.4804
▁repair	-10.4808
▁helpful	-10.4816
▁siRNAs	-10.4818
▁incorporation	-10.4818
▁associations	-10.4826
▁recruited	-10.4833
22	-10.4834
▁6-	-10.484
▁sustained	-10.4845
▁apparently	-10.485
▁indeed	-10.4852
.\"	-10.4853
▁resuspended	-10.4856
▁machinery	-10.486
▁Technologies	-10.4864
▁losses	-10.4864
▁conjugated	-10.4866
▁polyprotein	-10.4867
▁sp	-10.4869
▁ist	-10.4874
▁supports	-10.4875
▁round	-10.4875
1),	-10.4876
▁stop	-10.489
▁encode	-10.489
▁transcript	-10.4898
▁visit	-10.4898
▁analytical	-10.4898
▁Re	-10.4903
▁entre	-10.4904
▁2000;	-10.4905
RSV	-10.4912
▁EC	-10.4913
▁distributions	-10.4918
▁guinea	-10.492
▁ILI	-10.4921
▁interfere	-10.4928
▁catheter	-10.4931
▁ethanol	-10.4933
▁actually	-10.494
▁frozen	-10.4944
35	-10.4948
▁threats	-10.4948
-21	-10.4951
▁promotes	-10.4953
▁minimize	-10.4953
▁conservation	-10.4957
▁infant	-10.4962
▁construction	-10.4963
▁organic	-10.4964
▁wt	-10.4965
▁zinc	-10.497
▁ultimately	-10.4976
▁1.0	-10.498
ness	-10.4982
▁relevance	-10.4983
▁aeruginosa	-10.4983
▁return	-10.4989
▁digestion	-10.499
▁DI	-10.4994
▁bowel	-10.4998
▁MD	-10.5014
▁vitamin	-10.5024
▁yielded	-10.5024
▁adding	-10.5034
▁connected	-10.5034
amino	-10.5036
ar	-10.5048
▁qPCR	-10.5057
▁Asian	-10.5059
▁58	-10.506
▁upregulated	-10.5066
ta	-10.5072
▁limits	-10.5072
ant	-10.5073
▁[48]	-10.508
▁promoting	-10.5082
▁men	-10.5082
▁Å	-10.5084
▁greatest	-10.5085
dose	-10.5085
▁bronchial	-10.509
▁25%	-10.5092
▁meningitis	-10.5093
▁0.1%	-10.5106
▁insights	-10.5114
▁mixing	-10.5122
▁budding	-10.5125
▁60%	-10.5126
▁termed	-10.5127
3]	-10.5138
▁changing	-10.5142
▁extra	-10.5145
▁NMR	-10.5145
▁challenging	-10.5155
▁(20	-10.5162
▁whom	-10.5172
▁eukaryotic	-10.5172
▁mediators	-10.5173
▁mask	-10.5182
▁trafficking	-10.5186
▁enhancement	-10.5187
▁ST	-10.5189
▁fish	-10.5195
▁tolerance	-10.5195
-1)	-10.5203
▁enrichment	-10.5209
▁commercially	-10.5209
▁defects	-10.5216
▁demonstrates	-10.522
▁permeability	-10.5221
▁nonspecific	-10.5221
▁evaluating	-10.5225
▁compartments	-10.5233
▁Previous	-10.5236
▁opportunity	-10.5248
▁routinely	-10.525
▁depression	-10.5253
▁platelet	-10.5255
▁allele	-10.5256
▁Arabia	-10.5259
▁Singapore	-10.5261
▁differentially	-10.5266
▁overlap	-10.5267
▁elimination	-10.5271
▁Care	-10.5279
▁2016	-10.5279
▁explanation	-10.5281
▁hMPV	-10.5281
pro	-10.5289
it	-10.5289
▁Infectious	-10.529
▁political	-10.5292
▁Subsequently	-10.5293
SIGN	-10.5294
▁enriched	-10.5294
▁250	-10.5298
SD	-10.5298
95	-10.5304
▁contents	-10.5304
▁transduction	-10.5308
▁simply	-10.5312
▁differentiate	-10.533
▁destruction	-10.5335
▁markets	-10.5336
▁horse	-10.5336
▁regardless	-10.5346
▁indicator	-10.5347
▁funding	-10.5354
ate	-10.5356
▁century	-10.536
▁1989)	-10.536
▁fatty	-10.537
▁(50	-10.5372
nCoV	-10.5373
▁belonging	-10.5381
▁acquisition	-10.5392
▁reserved	-10.5396
▁apoptotic	-10.5396
2/	-10.5398
▁parental	-10.5401
▁property	-10.541
▁items	-10.5411
▁fall	-10.5412
▁trends	-10.5413
▁Pro	-10.5415
▁peaks	-10.5418
▁September	-10.5421
▁fitness	-10.5423
-17	-10.5425
ia	-10.5426
▁[49]	-10.5427
non	-10.5428
▁Acute	-10.5431
▁lateral	-10.5434
▁illustrated	-10.5437
▁bile	-10.5439
▁PDCoV	-10.5442
▁Blood	-10.5448
▁droplets	-10.5452
▁inner	-10.5455
▁geographical	-10.5456
▁leukocytes	-10.5459
▁ferret	-10.5461
▁10-	-10.5463
▁hyper	-10.5466
▁retention	-10.5467
▁pleural	-10.5469
▁repeat	-10.5473
▁Staphylococcus	-10.5478
-9	-10.5479
▁limiting	-10.5484
▁chimeric	-10.5486
▁PR	-10.5488
▁code	-10.5492
▁name	-10.5501
IC	-10.5502
▁ones	-10.5505
▁select	-10.5509
60	-10.5515
value	-10.5518
▁IgE	-10.5524
▁datasets	-10.5534
▁Ang	-10.5537
▁black	-10.5537
▁blotting	-10.5541
▁congenital	-10.5541
▁decisions	-10.5542
▁thermal	-10.5544
▁professionals	-10.5544
▁loads	-10.5547
▁closed	-10.5547
▁werden	-10.5553
▁critically	-10.5554
▁(4	-10.5554
▁Consequently	-10.5562
▁NDV	-10.5566
▁excessive	-10.5571
▁5'	-10.5575
▁assume	-10.5581
▁rRNA	-10.5582
▁expanded	-10.5591
▁(100	-10.5593
▁cumulative	-10.5594
▁India	-10.5596
▁BVDV	-10.5597
▁CP	-10.5605
mean	-10.5624
▁IFNs	-10.5627
68	-10.5632
▁FBS	-10.5632
▁equation	-10.5647
▁Beijing	-10.5649
▁impacts	-10.5653
step	-10.5654
▁cardiovascular	-10.5654
▁metal	-10.566
▁HAdV	-10.5662
▁stomach	-10.5664
▁Serum	-10.5666
▁mouth	-10.5667
▁contributing	-10.5675
▁But	-10.5675
group	-10.5678
▁integrity	-10.568
▁accepted	-10.568
▁lectin	-10.5687
▁prevented	-10.5691
red	-10.5695
▁travelers	-10.5695
▁atypical	-10.5697
age	-10.5699
▁spectra	-10.5703
▁asked	-10.5719
▁transcriptase	-10.5722
▁6,	-10.5723
▁separately	-10.5723
▁put	-10.5726
▁July	-10.5726
CSF	-10.5741
▁equilibrium	-10.5743
▁ranges	-10.5745
▁imported	-10.5745
▁2015;	-10.5746
▁1987)	-10.5748
▁attached	-10.5758
▁maintaining	-10.576
▁EDTA	-10.5764
▁mid	-10.5766
▁proteolytic	-10.5766
▁San	-10.5767
▁helix	-10.5767
▁unusual	-10.5768
ND	-10.5769
▁PD	-10.5773
▁meet	-10.5776
▁[50]	-10.5781
▁Information	-10.5782
▁retained	-10.5787
▁superior	-10.5796
▁57	-10.5798
▁estimation	-10.5799
▁intrinsic	-10.5799
▁ocular	-10.58
▁interference	-10.5808
▁distal	-10.5809
▁advances	-10.5809
il	-10.5812
▁agar	-10.5817
CI	-10.5818
NP	-10.5818
▁spontaneous	-10.5819
▁proximal	-10.5819
anti	-10.5826
▁endosomal	-10.5827
26	-10.5827
▁universal	-10.5828
▁window	-10.5829
▁residual	-10.5843
control	-10.5849
5)	-10.5851
▁primates	-10.5864
▁handling	-10.5872
▁suppress	-10.5879
▁enteritis	-10.5883
▁scenarios	-10.5892
▁Env	-10.5892
bound	-10.5894
▁correlate	-10.5895
▁1988)	-10.5897
▁carrier	-10.59
▁preferred	-10.59
▁regulating	-10.5904
▁potency	-10.5906
-229	-10.5908
▁wheezing	-10.5908
▁degeneration	-10.5912
200	-10.5915
▁charged	-10.5917
▁rooms	-10.5917
from	-10.5918
not	-10.5919
▁Chapter	-10.592
65	-10.5923
▁joint	-10.593
▁Use	-10.5935
▁limitation	-10.5939
▁generating	-10.5943
▁helicase	-10.5954
sense	-10.5954
▁BAL	-10.5955
▁sector	-10.5956
▁aligned	-10.5957
▁2019-	-10.5962
mm	-10.5962
▁volumes	-10.5965
▁insect	-10.597
▁seeded	-10.5971
▁PKR	-10.5972
▁4%	-10.5979
▁ear	-10.5982
▁raw	-10.5985
▁NC	-10.5988
▁Conclusion	-10.5991
▁herpesvirus	-10.5996
▁dissemination	-10.6003
▁macaques	-10.6004
▁chloride	-10.6008
▁labeling	-10.6011
▁hypothesized	-10.6018
▁Non	-10.602
▁ions	-10.6024
▁translated	-10.6025
▁corticosteroids	-10.6028
▁modulate	-10.6033
▁tubes	-10.6035
▁cover	-10.604
▁uncommon	-10.6042
▁description	-10.6043
▁gender	-10.605
▁8,	-10.6053
▁folding	-10.6059
qPCR	-10.6064
▁assembled	-10.6071
tagged	-10.6072
▁replicase	-10.6079
▁took	-10.6081
▁Laboratories	-10.6084
▁www	-10.6085
▁ideal	-10.6092
4+	-10.6094
▁layers	-10.6095
▁mono	-10.6098
▁PIV	-10.6105
▁establishment	-10.6106
▁principal	-10.6112
▁11,	-10.6116
▁plans	-10.6116
▁stain	-10.6117
▁leader	-10.6119
▁persist	-10.6124
▁TGF	-10.6125
▁differentiated	-10.613
▁guide	-10.613
▁neutral	-10.6131
-15	-10.6132
▁eliminate	-10.6132
▁met	-10.6134
▁monkeys	-10.6145
▁package	-10.615
▁diagnostics	-10.6154
7,	-10.6157
▁[51]	-10.6158
▁quantity	-10.616
▁libraries	-10.616
▁reasonable	-10.6166
PBS	-10.6166
▁clinicians	-10.6168
▁cervical	-10.6169
▁lipids	-10.6169
▁becoming	-10.6171
▁humidity	-10.6172
site	-10.6175
▁investigators	-10.6177
CT	-10.6178
▁permission	-10.6181
▁resolved	-10.6188
90	-10.6192
▁breathing	-10.6201
▁ORFs	-10.6208
▁meta	-10.6212
▁overexpression	-10.6224
▁ne	-10.6227
▁comparative	-10.6233
▁presumably	-10.6236
▁strength	-10.6238
▁dehydration	-10.624
▁1999;	-10.6243
▁HKU	-10.6245
▁septic	-10.6245
▁learning	-10.6246
▁unless	-10.6249
▁ribosome	-10.6253
▁zero	-10.6255
▁zu	-10.6262
ORF	-10.6264
▁driven	-10.6267
▁discuss	-10.6271
▁began	-10.6273
▁necessarily	-10.6274
▁sharing	-10.6275
▁egg	-10.6276
▁nitrogen	-10.6276
▁fundamental	-10.6279
▁transcribed	-10.6283
▁Gene	-10.6293
▁observe	-10.6293
▁Public	-10.6293
▁intranasal	-10.6295
▁survive	-10.6303
▁endocytosis	-10.6304
▁[52]	-10.6306
Qiagen	-10.6308
▁tag	-10.6311
▁oseltamivir	-10.6318
▁demographic	-10.6325
Aldrich	-10.6329
▁heterologous	-10.634
▁confirmation	-10.6349
▁missing	-10.6355
▁LAMP	-10.6355
▁dead	-10.6357
▁mix	-10.6358
▁viremia	-10.6359
▁semi	-10.6359
producing	-10.6362
▁province	-10.6375
!	-10.6379
▁lineages	-10.6383
▁FDA	-10.6386
▁1997	-10.6395
▁rodent	-10.6401
▁empirical	-10.6404
-2,	-10.6407
▁reveals	-10.6407
▁substances	-10.641
▁posterior	-10.6411
▁mitochondria	-10.6411
▁Compared	-10.6411
▁chamber	-10.6415
▁decade	-10.6417
▁interacting	-10.6419
▁CF	-10.6419
▁passages	-10.6427
acquired	-10.6429
▁Wang	-10.6435
▁AP	-10.6435
▁providers	-10.6436
▁collaboration	-10.6438
▁immuno	-10.6439
CH	-10.644
▁im	-10.6441
88	-10.6447
▁yields	-10.6454
▁methodology	-10.6454
▁professional	-10.6457
▁magnetic	-10.6459
▁away	-10.6461
▁Italy	-10.6466
▁microscopic	-10.6467
These	-10.6468
▁EAE	-10.6468
▁Over	-10.6469
▁gross	-10.6474
all	-10.6485
▁dramatically	-10.6489
▁cleaning	-10.649
▁move	-10.6494
▁opportunities	-10.6495
WHO	-10.6501
▁mosquitoes	-10.6505
▁Notably	-10.6511
▁errors	-10.6511
▁subsets	-10.6512
▁immunosuppression	-10.6512
▁hands	-10.6518
▁formulation	-10.6518
▁science	-10.6519
▁aqueous	-10.6519
▁modern	-10.6519
▁MDA	-10.652
▁blocks	-10.6529
▁powerful	-10.6529
▁circumstances	-10.6532
▁medications	-10.6532
▁7)	-10.6533
▁difficile	-10.6533
▁tratamiento	-10.6536
▁initiate	-10.6538
▁ground	-10.6543
▁Mice	-10.6545
▁transportation	-10.6549
▁transported	-10.6554
▁Anti	-10.6557
▁cytopathic	-10.6561
▁channels	-10.6561
▁radiation	-10.6561
▁text	-10.6562
▁hyperplasia	-10.6564
At	-10.6566
▁CPE	-10.6572
le	-10.6579
▁newborn	-10.658
▁statistics	-10.658
▁performing	-10.658
▁salt	-10.6586
▁aspect	-10.6586
▁Mycoplasma	-10.6595
▁polypeptide	-10.6596
▁options	-10.6598
▁indicators	-10.6598
▁PPE	-10.66
▁anterior	-10.6605
▁Total	-10.6608
▁business	-10.6611
▁68	-10.6613
▁tertiary	-10.6616
▁grow	-10.6618
▁ed	-10.6619
▁assumption	-10.6621
▁medication	-10.6627
▁weekly	-10.6628
▁exclusively	-10.6635
▁Sigma	-10.6635
▁Viruses	-10.6641
▁knockdown	-10.6642
▁assessing	-10.6643
▁transformed	-10.6655
▁epidemiologic	-10.6656
▁loading	-10.6659
▁foci	-10.6661
▁former	-10.6661
▁difficulty	-10.6664
▁panels	-10.6665
▁granted	-10.6673
▁oligonucleotide	-10.6679
8]	-10.6681
out	-10.6682
▁glass	-10.6684
▁concerning	-10.6686
▁6)	-10.669
▁(6)	-10.6703
▁principle	-10.6703
▁monolayers	-10.6708
▁insufficient	-10.6709
▁PB	-10.6711
▁killed	-10.6718
▁utility	-10.6718
▁stronger	-10.6721
▁peut	-10.673
▁phases	-10.6732
▁chemokine	-10.6734
▁microbes	-10.6734
▁cloning	-10.6735
da	-10.674
▁behaviour	-10.6744
▁arise	-10.6749
▁smallpox	-10.675
▁Gag	-10.6753
▁considerably	-10.6758
▁consist	-10.6761
▁atrophy	-10.6761
methyl	-10.6763
▁clinic	-10.6764
▁0.01	-10.6765
▁Currently	-10.6767
▁dried	-10.6776
▁childhood	-10.6777
▁phenotypes	-10.6779
▁apply	-10.6782
▁Diseases	-10.6783
ac	-10.6785
▁infiltrates	-10.6786
▁needle	-10.6789
▁frameshift	-10.6793
▁mental	-10.6794
▁triggered	-10.6794
▁plaques	-10.6797
When	-10.6802
▁AT	-10.6805
▁Four	-10.6807
▁2018)	-10.6811
▁exogenous	-10.6814
▁suppressed	-10.6821
▁clade	-10.6822
▁perspective	-10.6825
▁bonds	-10.6826
Several	-10.6829
1]	-10.6838
▁mapped	-10.6838
▁filtration	-10.6839
▁sought	-10.684
▁4-	-10.6842
▁reviews	-10.6849
▁computational	-10.6858
▁fused	-10.6862
▁CV	-10.6864
▁behaviors	-10.6867
▁visual	-10.6868
dimensional	-10.6875
▁trachea	-10.6879
se	-10.6881
▁[2,	-10.6883
▁chromosome	-10.6885
▁simplex	-10.6891
▁Alternatively	-10.6892
▁elicit	-10.6892
Results	-10.6895
6,	-10.6895
▁partners	-10.6897
9)	-10.6898
BY	-10.6898
▁housing	-10.6901
▁desired	-10.6901
▁arthritis	-10.6903
▁similarities	-10.6905
▁Il	-10.6906
▁extreme	-10.6907
▁ID	-10.6907
▁barriers	-10.6911
▁waste	-10.6916
▁users	-10.6916
▁transformation	-10.6921
▁Biosystems	-10.6922
▁believe	-10.6922
▁12,	-10.6925
▁optimized	-10.6926
▁ROS	-10.6931
▁[53]	-10.6933
▁rectal	-10.6936
▁gels	-10.6938
▁enterovirus	-10.6939
After	-10.6941
▁soon	-10.6942
▁≤	-10.6944
▁calculate	-10.6944
▁subgenomic	-10.6945
▁sign	-10.6949
▁automated	-10.6955
▁insight	-10.6957
▁simulated	-10.6958
▁SL	-10.6961
▁lysed	-10.6967
PD	-10.6972
▁law	-10.6981
▁mobility	-10.6984
▁parvovirus	-10.6985
▁experts	-10.6985
▁comprised	-10.6986
▁publication	-10.6989
▁priority	-10.6991
▁user	-10.6997
▁ends	-10.7
▁sucrose	-10.7001
▁̊	-10.7008
▁hypertension	-10.7011
▁iron	-10.7018
▁concurrent	-10.7019
▁gradually	-10.7024
BD	-10.7028
▁belong	-10.7029
▁progeny	-10.7035
▁Japanese	-10.7036
me	-10.7039
▁originally	-10.7042
▁silencing	-10.7048
▁fibroblasts	-10.7062
▁sulfate	-10.7063
▁vesicular	-10.7065
▁th	-10.7071
regulation	-10.7071
ized	-10.7073
▁neurologic	-10.7073
▁RNAi	-10.7075
▁15%	-10.708
▁bilateral	-10.7081
▁pg	-10.7082
▁docking	-10.7083
▁proximity	-10.709
▁formula	-10.7093
▁defect	-10.7102
2]	-10.7105
▁uenza	-10.7107
▁camel	-10.7108
▁64	-10.711
▁tropical	-10.7114
▁antibacterial	-10.712
▁fields	-10.7124
▁nose	-10.7127
▁paired	-10.7127
▁1986)	-10.7129
actin	-10.7129
7-	-10.7135
▁logistic	-10.7137
▁regimen	-10.7142
▁leukocyte	-10.7143
▁1984	-10.7148
▁infrastructure	-10.7148
▁deposition	-10.7151
▁BHK	-10.7151
▁AD	-10.7153
▁den	-10.716
▁soft	-10.716
▁tracheal	-10.7161
do	-10.7163
gov	-10.717
▁pseudoknot	-10.7171
▁reservoirs	-10.7174
▁verified	-10.718
▁masks	-10.7185
▁0.05)	-10.7185
▁lavage	-10.7188
▁neck	-10.7193
▁generalized	-10.7199
▁stated	-10.7211
▁clustered	-10.7223
▁UTR	-10.7227
▁peroxidase	-10.7231
▁USP	-10.7232
▁upregulation	-10.7232
▁saliva	-10.7232
▁attempts	-10.7237
▁[54]	-10.7237
▁Δ	-10.724
▁finally	-10.7242
▁229	-10.7245
▁preliminary	-10.7247
▁idea	-10.725
Thermo	-10.725
▁Unfortunately	-10.7253
▁immunosuppressive	-10.7258
▁captured	-10.7258
▁trained	-10.726
▁1998;	-10.7263
▁algorithms	-10.7264
▁sensor	-10.7266
▁Cryptosporidium	-10.7268
▁alleles	-10.7272
▁cerebral	-10.7285
▁table	-10.7289
▁actin	-10.7291
▁somewhat	-10.7293
▁standardized	-10.7298
activated	-10.7303
▁served	-10.7303
▁carbohydrate	-10.7305
▁principles	-10.7308
BP	-10.7311
▁Un	-10.7311
▁pneumococcal	-10.7316
▁deficient	-10.7321
▁miRNA	-10.7321
▁nano	-10.7322
▁[3,	-10.7322
▁volunteers	-10.7323
▁activating	-10.7324
▁faster	-10.7325
▁pocket	-10.7331
▁anorexia	-10.7333
▁Under	-10.7335
▁3'	-10.7335
▁Note	-10.7341
▁conversion	-10.7342
▁continues	-10.7343
▁sick	-10.7344
▁applicable	-10.7348
▁CXCR	-10.735
▁quantify	-10.7353
▁encountered	-10.7357
▁immunogenic	-10.7357
▁fatality	-10.7358
▁Molecular	-10.7359
▁3%	-10.7361
▁hepatocytes	-10.7373
▁quantities	-10.7376
▁hemagglutinin	-10.7379
▁billion	-10.7381
▁γ	-10.7384
▁rhinitis	-10.7389
ER	-10.739
month	-10.7391
▁propagation	-10.7392
▁assayed	-10.7393
▁neural	-10.7394
▁1985)	-10.7402
▁oligonucleotides	-10.7411
▁1:	-10.7412
▁reflects	-10.7416
01	-10.7416
▁Taken	-10.7418
▁ingestion	-10.7423
▁(6	-10.7424
▁EM	-10.7427
▁biomarkers	-10.743
▁ce	-10.7433
▁highlight	-10.7435
▁land	-10.7438
▁operating	-10.7438
▁EVD	-10.7438
▁consecutive	-10.7444
Le	-10.7444
▁housed	-10.7445
▁[55]	-10.7446
▁provinces	-10.745
▁Al	-10.7454
▁acidic	-10.7459
▁extend	-10.7459
▁situ	-10.746
▁brief	-10.7461
▁14,	-10.7462
▁November	-10.7465
▁microbiota	-10.7474
▁1998	-10.7477
▁activates	-10.7478
▁JEV	-10.7485
▁exclude	-10.7491
▁optical	-10.7494
▁computed	-10.7506
▁format	-10.7509
▁instances	-10.7514
▁prevents	-10.7517
34	-10.7522
▁94	-10.7527
▁Severe	-10.753
▁qRT	-10.7531
▁FMDV	-10.7541
▁1983	-10.7541
▁titres	-10.7543
▁therapeutics	-10.7546
▁Science	-10.7547
No	-10.7548
▁publications	-10.7552
▁naïve	-10.7552
▁regarded	-10.7565
▁incomplete	-10.7568
Ac	-10.7571
▁Se	-10.7573
▁prophylactic	-10.7585
▁held	-10.7592
▁definitive	-10.7594
▁timely	-10.7594
▁reuse	-10.7594
▁gives	-10.7598
Figs	-10.7598
▁equally	-10.7603
23	-10.7605
▁miRNAs	-10.7605
▁−/−	-10.7607
▁smooth	-10.7611
▁serves	-10.7612
▁born	-10.7614
▁Netherlands	-10.7617
▁axis	-10.7621
ELISA	-10.7628
▁2016;	-10.7629
▁mutagenesis	-10.7632
▁#	-10.7633
▁■	-10.7634
▁parents	-10.7638
▁larvae	-10.7647
▁slides	-10.7648
▁assist	-10.7651
wide	-10.766
▁October	-10.7665
▁[4,	-10.767
▁CH	-10.7673
▁infective	-10.7675
▁adherence	-10.7677
▁TRIM	-10.7683
▁reader	-10.7688
life	-10.7692
▁enhancing	-10.7694
▁summer	-10.7694
▁slight	-10.7697
▁capability	-10.7698
▁predictions	-10.7702
▁peritonitis	-10.7703
phase	-10.7704
▁neuraminidase	-10.7705
80	-10.7706
▁exclusion	-10.7707
▁City	-10.7712
if	-10.7713
▁competition	-10.7714
▁apical	-10.7715
▁syndromes	-10.7718
LAMP	-10.7718
▁essentially	-10.7724
▁price	-10.7728
▁option	-10.7729
▁loaded	-10.773
▁serologic	-10.7731
2),	-10.7734
▁accurately	-10.7736
▁written	-10.7743
▁meat	-10.7745
HCl	-10.7747
▁influenzae	-10.7748
ization	-10.775
▁sows	-10.7752
▁infección	-10.7754
spectrum	-10.7757
▁built	-10.7759
▁arrest	-10.7762
▁BCoV	-10.7765
▁SNPs	-10.7767
▁≥	-10.777
▁wound	-10.7773
▁mutated	-10.7774
▁inadequate	-10.778
▁derivative	-10.7784
▁globally	-10.7785
▁inhalation	-10.7794
▁defective	-10.7794
▁clean	-10.7802
▁dark	-10.781
▁dosage	-10.7816
▁gamma	-10.7819
▁junction	-10.7821
▁tyrosine	-10.7826
▁uncertainty	-10.7828
▁expensive	-10.7833
▁offers	-10.7834
▁solvent	-10.7841
▁[57]	-10.7841
▁studying	-10.7842
▁elicited	-10.7847
stimulated	-10.7847
▁web	-10.7847
called	-10.7849
▁matched	-10.7851
▁faecal	-10.7857
▁embedded	-10.7858
▁ser	-10.7859
III	-10.786
▁aggregation	-10.7862
▁diagnoses	-10.7863
▁motor	-10.7867
▁specialized	-10.7868
ent	-10.7873
▁[56]	-10.7873
▁kits	-10.7876
▁Animals	-10.7879
▁correspond	-10.7881
GE	-10.7889
▁filtered	-10.7892
▁dye	-10.7893
▁cis	-10.7893
▁PC	-10.7899
▁root	-10.7908
▁companies	-10.7908
▁feasible	-10.7908
▁modulation	-10.7909
▁instrument	-10.7911
▁bleeding	-10.7917
▁Within	-10.7923
▁surveys	-10.7927
▁mobile	-10.7927
▁theoretical	-10.7928
▁resident	-10.7936
▁disinfection	-10.7936
▁ward	-10.7936
▁conclude	-10.7939
▁hair	-10.7949
▁electronic	-10.7962
▁carefully	-10.7964
▁acetate	-10.7967
▁engineered	-10.7969
▁ARI	-10.7969
Upon	-10.7972
▁timing	-10.7975
▁supportive	-10.7979
▁goats	-10.7987
nsp	-10.7996
▁record	-10.7999
▁constitute	-10.8001
▁conduct	-10.8002
▁effusion	-10.8002
▁che	-10.8003
▁chance	-10.8005
▁operation	-10.8009
▁genetics	-10.801
▁behavioral	-10.8015
▁SV	-10.8015
ine	-10.8019
▁85	-10.8024
▁signalling	-10.8028
▁dietary	-10.8033
4]	-10.8034
▁Next	-10.8037
▁degrees	-10.8045
▁accounted	-10.8045
▁lysate	-10.8054
▁representation	-10.8057
▁OD	-10.8058
▁acting	-10.8059
▁thin	-10.8061
▁GM	-10.8063
▁undertaken	-10.8063
▁arterial	-10.8064
▁reflected	-10.8065
▁63	-10.8068
▁propose	-10.8075
▁contagious	-10.8076
5]	-10.808
[	-10.8085
▁[5,	-10.8086
▁regulations	-10.8095
▁digested	-10.81
▁transmissible	-10.8108
▁Its	-10.8108
▁Healthcare	-10.8115
▁pose	-10.8116
id	-10.8118
▁bacterium	-10.8129
▁Nile	-10.8131
On	-10.8135
▁CEACAM	-10.8136
ne	-10.8143
ry	-10.8144
▁words	-10.8145
▁novo	-10.8148
▁interleukin	-10.8149
ca	-10.8151
▁1981	-10.8155
▁vehicle	-10.8159
8+	-10.8161
▁disseminated	-10.8162
▁Eq	-10.8164
▁été	-10.8165
mol	-10.8166
▁distances	-10.8168
▁outpatient	-10.8172
▁drop	-10.8173
▁translational	-10.8174
▁GA	-10.8175
▁dental	-10.8176
▁Cl	-10.8177
▁sent	-10.8184
▁droplet	-10.8184
▁BSA	-10.8189
▁è	-10.8191
▁collagen	-10.8191
▁eosinophils	-10.8191
▁Statistical	-10.8198
▁chemistry	-10.8198
▁9,	-10.8202
▁aspiration	-10.8204
▁qualitative	-10.8204
▁NSP	-10.8207
-6,	-10.8208
▁scoring	-10.8209
▁[58]	-10.8214
▁PK	-10.8217
-2-	-10.8221
▁she	-10.8228
HR	-10.8228
▁1984)	-10.8229
▁eluted	-10.8237
▁simultaneous	-10.8243
▁apparatus	-10.8244
▁impairment	-10.8245
▁Expression	-10.8247
▁cathepsin	-10.8251
▁computer	-10.8251
▁PV	-10.8253
▁CRP	-10.8253
▁0.3	-10.8254
Another	-10.8256
During	-10.8262
▁1997;	-10.8266
▁1999	-10.8267
▁necropsy	-10.827
▁packaging	-10.827
▁go	-10.827
▁MO	-10.8271
▁households	-10.8277
▁Brazil	-10.8278
▁PM	-10.8279
▁recipient	-10.8282
▁Ser	-10.8284
▁approval	-10.8285
▁society	-10.8287
▁ages	-10.8287
WT	-10.829
▁fourth	-10.8291
▁"(	-10.8291
▁hybrid	-10.8292
▁endosomes	-10.8292
▁dyspnea	-10.8295
▁IP	-10.8297
▁participation	-10.8298
UTR	-10.8298
▁Unlike	-10.83
λ	-10.8306
transfected	-10.8307
▁inoculum	-10.8312
▁dramatic	-10.8314
%	-10.8316
▁EU	-10.8317
▁infusion	-10.8317
▁penetration	-10.832
▁traffic	-10.8323
▁heterogeneous	-10.8324
less	-10.8324
▁August	-10.8324
▁scope	-10.8327
▁correlates	-10.8328
▁vulnerable	-10.8328
▁oxide	-10.8329
▁[6,	-10.8331
▁gap	-10.8331
▁2.0	-10.8333
▁accessory	-10.8334
▁ANOVA	-10.8338
-100	-10.8339
▁truncated	-10.834
expression	-10.8342
▁amplify	-10.8342
While	-10.8343
▁indoor	-10.8347
▁Specifically	-10.8349
▁LCMV	-10.835
▁prove	-10.8358
▁Besides	-10.8362
▁corresponds	-10.8363
▁guidance	-10.8368
▁broadly	-10.8369
▁(7)	-10.837
▁rpm	-10.8376
rs	-10.8377
▁Thailand	-10.8377
▁State	-10.8377
▁massive	-10.8381
▁allergy	-10.8385
▁converted	-10.8391
▁pharmaceutical	-10.8394
ti	-10.8402
44	-10.8402
▁61	-10.8404
▁1996	-10.8407
▁links	-10.8419
▁homeostasis	-10.8424
▁2003,	-10.843
▁backbone	-10.8434
Promega	-10.8436
▁HE	-10.8438
▁drawn	-10.8438
▁task	-10.844
▁SA	-10.8441
▁chemotherapy	-10.8441
iii	-10.8445
▁wash	-10.8446
▁improvements	-10.8451
▁gondii	-10.8452
▁norovirus	-10.8457
▁Huh	-10.8458
-18	-10.8461
HCV	-10.8463
▁debris	-10.8472
▁bars	-10.8473
▁accessible	-10.8473
▁Ig	-10.8477
Li	-10.8482
▁artificial	-10.8482
▁triplicate	-10.8482
▁develops	-10.8487
▁velocity	-10.849
▁interpreted	-10.8491
▁pancreatic	-10.8493
▁departments	-10.8494
▁adsorption	-10.8496
driven	-10.8498
▁HMPV	-10.8503
▁formalin	-10.8503
▁bird	-10.8503
▁CTL	-10.8505
▁DMSO	-10.8507
▁income	-10.8511
▁perception	-10.8512
coated	-10.8512
▁subcutaneous	-10.8519
▁1995;	-10.852
▁rely	-10.8522
▁undergoing	-10.8526
▁monkey	-10.8527
▁auto	-10.8531
▁CpG	-10.8538
▁75%	-10.8539
▁600	-10.8542
Figures	-10.8544
▁phosphorylated	-10.8549
▁attractive	-10.8552
▁perpetuity	-10.8552
▁necrotic	-10.8553
▁parent	-10.8559
▁69	-10.8559
▁strict	-10.8564
▁subgroup	-10.8567
▁ont	-10.8567
generation	-10.8575
▁MDCK	-10.8575
▁ago	-10.8581
▁infects	-10.8591
▁confirming	-10.8593
▁pet	-10.8596
▁regulates	-10.86
▁Veterinary	-10.8602
▁Conclusions	-10.8604
▁coagulation	-10.8608
▁Ltd	-10.8616
▁soil	-10.8616
▁NPs	-10.8617
▁platforms	-10.862
son	-10.8628
▁counted	-10.8628
▁fine	-10.8628
▁vein	-10.863
▁SIV	-10.8634
▁underwent	-10.8639
▁scanning	-10.864
▁eff	-10.8641
▁papers	-10.8643
▁puede	-10.8649
▁rash	-10.8655
▁comprising	-10.8657
▁Central	-10.8666
▁Whether	-10.8669
ion	-10.8672
▁[59]	-10.8674
▁influences	-10.8674
▁deposited	-10.868
▁(8)	-10.868
▁enhances	-10.8682
▁giving	-10.8683
▁exon	-10.8687
▁OC	-10.8688
▁sum	-10.8702
structural	-10.8703
▁mother	-10.8709
▁ethical	-10.8716
▁leaves	-10.8723
▁histologic	-10.8728
▁reticulum	-10.8729
sensitive	-10.8729
▁cytosolic	-10.8731
▁casos	-10.8734
▁Global	-10.8734
▁describes	-10.8739
▁bottom	-10.8742
▁swelling	-10.8746
CC	-10.8754
▁maximal	-10.877
▁da	-10.8772
ma	-10.8773
▁super	-10.8779
▁begin	-10.878
Þ	-10.878
▁tick	-10.8782
▁refers	-10.8787
▁operations	-10.8791
▁breeds	-10.8797
▁What	-10.8802
▁seropositive	-10.8804
▁66	-10.8813
▁NiV	-10.8816
▁dissolved	-10.8818
▁[7,	-10.8818
▁vast	-10.8819
▁polymorphisms	-10.8824
▁sensors	-10.8825
▁cutaneous	-10.8827
▁slowly	-10.8829
56	-10.8829
iv	-10.8829
▁facilitates	-10.8833
▁retinal	-10.8841
▁orientation	-10.8842
▁box	-10.8842
PI	-10.8844
▁adenoviruses	-10.8845
▁exhibits	-10.8853
▁embryonic	-10.8853
▁injuries	-10.8855
▁acceptable	-10.8856
6]	-10.8857
▁eliminated	-10.8859
EC	-10.886
▁passengers	-10.8867
▁meeting	-10.8869
fi	-10.887
▁71	-10.8874
▁locus	-10.888
▁lane	-10.8883
▁MV	-10.8884
▁VLP	-10.8888
▁optimization	-10.8888
▁exposures	-10.889
▁[60]	-10.8891
▁neonates	-10.8897
▁implies	-10.8897
gene	-10.8901
▁coat	-10.8902
▁99	-10.8907
▁favorable	-10.8912
▁(8	-10.8914
▁passed	-10.8917
▁GST	-10.8917
▁stimuli	-10.8917
▁refer	-10.8917
▁indication	-10.8919
36	-10.8921
▁0,	-10.8922
▁determinant	-10.8922
▁deliver	-10.8922
▁attempted	-10.8927
▁TCR	-10.8929
▁pure	-10.8929
▁usual	-10.8931
▁NL	-10.8934
▁pore	-10.8944
▁67	-10.8955
▁enables	-10.8955
▁1996;	-10.8967
▁CDV	-10.8969
▁parasitic	-10.8969
AIDS	-10.897
▁oocysts	-10.8971
▁smoking	-10.8972
With	-10.8974
▁potassium	-10.8975
▁England	-10.8978
▁0.5%	-10.8981
þ	-10.8984
▁malignant	-10.8987
▁scientists	-10.8992
▁flora	-10.8995
▁myeloid	-10.8996
▁0.05).	-10.8999
▁PE	-10.8999
▁aux	-10.9004
▁Syndrome	-10.9008
▁histological	-10.901
▁lamina	-10.901
▁Ub	-10.9011
NA	-10.9012
▁terminus	-10.9019
▁inactive	-10.9029
▁van	-10.9029
▁crude	-10.9029
▁implement	-10.9032
▁actively	-10.9033
▁sexual	-10.9033
▁cascade	-10.9035
▁adjuvants	-10.9037
His	-10.9039
▁pulse	-10.9039
▁returned	-10.9046
▁intense	-10.9048
-13	-10.905
▁prime	-10.9051
▁continuously	-10.9052
▁KO	-10.9056
▁deletions	-10.9056
▁mimic	-10.9064
▁indirectly	-10.9066
▁moiety	-10.9068
▁silver	-10.9072
▁2017	-10.9072
▁sclerosis	-10.9075
▁Accordingly	-10.9075
▁subclinical	-10.9078
▁difficulties	-10.908
▁plot	-10.9081
▁southern	-10.9086
ch	-10.9092
▁build	-10.9092
▁peritoneal	-10.9092
▁opposite	-10.9093
▁legal	-10.9093
▁monocyte	-10.9097
▁collect	-10.91
▁weights	-10.9101
mente	-10.9103
▁sporadic	-10.9103
▁pronounced	-10.9104
▁elucidate	-10.9107
▁gaps	-10.9112
Because	-10.9114
▁individually	-10.9123
▁remarkable	-10.9128
▁That	-10.913
▁attenuation	-10.9131
▁compatible	-10.9132
▁inhaled	-10.9135
▁kittens	-10.9136
9,	-10.9138
▁grouped	-10.9138
▁HCMV	-10.9139
treatment	-10.914
▁emission	-10.9142
coding	-10.9143
IV	-10.9146
▁ever	-10.9146
6)	-10.9146
▁frames	-10.9148
▁spectrometry	-10.9159
▁cancers	-10.9159
▁Hajj	-10.916
▁Early	-10.9162
Rad	-10.9164
▁rich	-10.9167
▁Korean	-10.9171
▁62	-10.9175
▁picture	-10.9175
▁sufficiently	-10.9176
▁immature	-10.9177
▁della	-10.918
▁paralysis	-10.918
▁flexible	-10.918
▁hormone	-10.9189
▁suffering	-10.9189
−	-10.9192
▁kinases	-10.9196
Most	-10.9201
▁stocks	-10.9202
▁dimer	-10.9205
▁1982)	-10.9207
▁selectivity	-10.9208
▁[8,	-10.9211
▁empty	-10.9211
▁muscles	-10.9215
▁medicines	-10.9221
▁eradication	-10.9223
▁0.4	-10.9227
▁metapneumovirus	-10.923
▁sind	-10.9232
▁serology	-10.9235
▁loops	-10.9238
▁intended	-10.9239
▁IFIT	-10.9246
▁triggers	-10.9246
▁Ministry	-10.9248
99	-10.9253
▁establishing	-10.9253
▁pandemics	-10.9255
▁Kingdom	-10.9257
▁postinfection	-10.9262
▁differed	-10.9262
▁applying	-10.9266
▁5′-	-10.9269
▁ecological	-10.9271
▁coughing	-10.9276
▁licensed	-10.928
▁historical	-10.9286
▁Nsp	-10.9289
▁Detection	-10.929
▁granules	-10.9291
bp	-10.9295
▁unpublished	-10.9296
▁odds	-10.9297
▁aware	-10.9298
▁Five	-10.9298
▁cysts	-10.9302
▁disasters	-10.9306
▁keep	-10.9306
▁unlike	-10.9308
▁nonstructural	-10.9312
▁phenotypic	-10.9313
▁killing	-10.9315
▁properly	-10.9328
▁specified	-10.9331
▁document	-10.9333
▁psychological	-10.9345
▁scheme	-10.9345
▁nested	-10.9346
▁intubation	-10.9347
▁propagated	-10.9347
32	-10.935
▁lectins	-10.9357
▁colitis	-10.936
▁selectively	-10.9361
▁[61]	-10.9362
▁broader	-10.9367
▁brought	-10.9368
▁partly	-10.9375
▁PO	-10.9377
▁Multiple	-10.9378
ó	-10.9379
▁your	-10.9379
▁airflow	-10.938
▁regulator	-10.9382
▁eosinophilic	-10.9384
▁examining	-10.9393
gen	-10.9396
▁discrete	-10.9397
▁reaching	-10.9399
▁13,	-10.9405
ner	-10.9407
pdm	-10.9411
▁diminished	-10.9416
64	-10.9417
infections	-10.9422
▁Figures	-10.9423
▁surprising	-10.9425
ir	-10.9426
▁lesser	-10.9426
▁unrelated	-10.9428
▁pass	-10.943
▁transmit	-10.943
▁sudden	-10.9432
▁metabolites	-10.9432
▁linkage	-10.9435
▁containment	-10.944
▁mucous	-10.944
-1-	-10.9441
▁bladder	-10.9443
▁portal	-10.9445
▁erythrocytes	-10.9446
▁inform	-10.9449
Roche	-10.9452
▁artery	-10.9452
lo	-10.9455
▁headache	-10.9456
▁exert	-10.9456
throughput	-10.9456
▁conclusions	-10.9457
▁glycans	-10.9457
▁glycan	-10.9459
▁mathematical	-10.946
▁Lys	-10.9461
kDa	-10.9469
▁facilitated	-10.9473
▁aerosols	-10.9474
▁steroid	-10.9476
chain	-10.948
▁pertussis	-10.9487
▁fail	-10.9489
▁[9,	-10.949
▁convalescent	-10.9494
▁Mycobacterium	-10.95
▁inability	-10.9501
▁occupational	-10.9502
33	-10.9503
▁[62]	-10.9503
▁confocal	-10.9506
▁breed	-10.9509
▁Food	-10.951
▁functionally	-10.9514
▁sugar	-10.9515
point	-10.9517
▁calculation	-10.9522
IgG	-10.9524
▁Consistent	-10.9524
▁IU	-10.9526
▁(9)	-10.9527
▁attributable	-10.9529
▁filters	-10.9531
▁mediates	-10.9533
▁disulfide	-10.9535
▁Centers	-10.9539
▁helper	-10.9542
▁splicing	-10.9545
6-	-10.9549
▁Children	-10.9552
▁oder	-10.9557
▁bearing	-10.9558
▁phosphatase	-10.9558
▁Real	-10.9561
▁ces	-10.9561
▁belongs	-10.9562
▁euthanized	-10.9563
▁Triton	-10.9566
▁branch	-10.9566
▁interfering	-10.9566
▁hard	-10.9572
▁1994;	-10.9578
▁originated	-10.9585
▁prepare	-10.9585
▁movements	-10.9586
▁conjugate	-10.9586
▁termination	-10.9589
46	-10.959
▁capillary	-10.9597
▁cytomegalovirus	-10.9599
▁Cys	-10.9599
▁traitement	-10.9601
▁notable	-10.9601
▁ileum	-10.9614
▁ð	-10.9614
▁thoracic	-10.9615
▁[10,	-10.9618
▁urea	-10.9618
▁einer	-10.9619
▁absorbance	-10.962
▁border	-10.9626
▁correctly	-10.9628
Fc	-10.9629
▁And	-10.9635
▁cholera	-10.9638
▁aptamer	-10.9644
▁PBMCs	-10.9647
▁Green	-10.9649
▁seroprevalence	-10.9649
ton	-10.965
▁faeces	-10.9652
▁creating	-10.9653
▁sensing	-10.9654
receptor	-10.9655
▁MVA	-10.9658
▁brains	-10.9658
▁pellet	-10.966
▁MBL	-10.9663
▁removing	-10.9669
▁1970	-10.9669
▁governments	-10.9676
If	-10.9681
▁arrival	-10.9682
▁sorting	-10.9689
▁kidneys	-10.9691
▁depth	-10.9692
▁played	-10.9693
▁spring	-10.9695
Applied	-10.9696
▁knockout	-10.9696
▁correction	-10.9699
▁codes	-10.9707
▁aptamers	-10.971
▁manufacturing	-10.971
▁coefficients	-10.9713
▁confer	-10.972
LC	-10.9721
Human	-10.9723
ra	-10.9723
▁pilgrims	-10.9725
▁anxiety	-10.9726
▁came	-10.9733
▁77	-10.9735
ase	-10.9736
▁productive	-10.9736
▁SNP	-10.9737
▁«	-10.9746
▁tracing	-10.9746
▁copper	-10.9746
et	-10.9747
▁phagocytosis	-10.9749
▁institutional	-10.975
▁None	-10.9754
▁Sciences	-10.9755
▁Sequence	-10.9755
▁pollution	-10.9759
▁internalization	-10.9759
▁objectives	-10.9765
▁5′	-10.9766
▁modes	-10.9769
▁DDX	-10.977
▁spots	-10.9772
▁behind	-10.9773
▁fear	-10.9774
▁preferentially	-10.9776
▁wave	-10.9776
▁KD	-10.9779
Despite	-10.978
▁Biosciences	-10.9785
▁causal	-10.9788
loop	-10.9794
▁rs	-10.9795
▁74	-10.9795
▁hairpin	-10.98
▁California	-10.9806
▁98	-10.9806
▁ulcers	-10.9807
CDC	-10.9811
▁NCBI	-10.9813
AE	-10.9816
▁Conversely	-10.9818
forming	-10.982
▁proteinase	-10.982
▁nutritional	-10.9823
DC	-10.9823
▁dermatitis	-10.9827
▁clinics	-10.9828
▁premature	-10.9828
▁analyzing	-10.9831
▁[63]	-10.9833
▁highlights	-10.9833
▁Pseudomonas	-10.9834
Many	-10.9837
▁15,	-10.9837
Other	-10.9839
▁Student	-10.9849
▁Republic	-10.9853
▁unexpected	-10.9858
▁2019	-10.9861
▁NH	-10.9862
analysis	-10.9862
▁nicht	-10.9863
De	-10.9866
▁hydrolysis	-10.9869
▁[12,	-10.9873
▁constraints	-10.9876
▁offered	-10.9876
▁aggregates	-10.9877
▁[11,	-10.9878
Pro	-10.9878
▁label	-10.9878
▁correlations	-10.9879
▁cow	-10.9881
influenza	-10.9884
▁locally	-10.9886
▁military	-10.9892
shaped	-10.9895
▁controversial	-10.9895
defined	-10.9896
▁Day	-10.9896
▁1995	-10.9897
62	-10.9901
48	-10.9902
▁arm	-10.9911
7)	-10.9915
▁cortex	-10.9919
▁NGS	-10.9919
▁enfermedad	-10.9923
▁NIH	-10.9927
▁76	-10.9927
▁Administration	-10.9932
species	-10.9935
▁endoplasmic	-10.9938
▁episode	-10.994
▁Pre	-10.995
▁scan	-10.9951
▁rescue	-10.9951
PR	-10.9953
▁myocardial	-10.9958
▁drinking	-10.9959
▁bar	-10.9962
▁buildings	-10.9963
▁CR	-10.9967
▁Arg	-10.9969
▁reovirus	-10.997
ung	-10.9971
▁Zhang	-10.9972
▁hundred	-10.9972
▁assistance	-10.9973
▁bed	-10.9974
state	-10.9978
▁fashion	-10.9991
▁coordination	-10.9991
Two	-10.9993
▁drive	-10.9996
▁indicative	-10.9998
▁Louis	-11.0001
use	-11.0003
but	-11.0005
▁templates	-11.0008
▁industrial	-11.0011
▁1994	-11.0012
▁nutrition	-11.0012
▁pharmacological	-11.0013
▁Likewise	-11.0015
▁hamsters	-11.0016
▁recover	-11.0019
▁grade	-11.002
▁loci	-11.002
▁tri	-11.0023
▁uniform	-11.0027
▁doctors	-11.0033
TNF	-11.0034
▁0.8	-11.0037
▁für	-11.0038
cm	-11.004
▁CCoV	-11.0042
▁projects	-11.0044
▁complication	-11.0046
▁utilization	-11.0048
▁consequently	-11.0051
▁managed	-11.0055
▁engineering	-11.0055
▁survived	-11.0059
▁Coronavirus	-11.0062
▁Lee	-11.0062
▁attacks	-11.0064
▁steady	-11.0064
▁proportions	-11.0066
31	-11.0066
two	-11.007
▁importantly	-11.0073
ous	-11.0078
▁Ϫ	-11.0078
▁Not	-11.0081
▁MAPK	-11.0083
▁fiber	-11.0083
stage	-11.0086
▁encephalomyelitis	-11.0091
▁chapter	-11.0103
▁anthrax	-11.0105
▁skills	-11.0106
▁neoplasia	-11.011
▁tendency	-11.0111
▁utilize	-11.0111
▁rhesus	-11.0118
▁antisera	-11.0118
▁expect	-11.0122
▁nodules	-11.0127
ou	-11.0128
▁cent	-11.0129
reactivity	-11.0129
▁moving	-11.0132
▁ERK	-11.0132
▁annually	-11.0135
▁Those	-11.0136
▁[64]	-11.0141
▁CS	-11.0142
▁Development	-11.0143
▁Chen	-11.0143
▁5'-	-11.0145
▁rules	-11.0146
▁injections	-11.0149
▁1983)	-11.0157
▁IFA	-11.0157
▁investment	-11.0161
▁rank	-11.0163
▁embryo	-11.0164
▁fibers	-11.0167
▁antiserum	-11.017
▁baculovirus	-11.017
▁Province	-11.0171
▁practitioners	-11.0171
▁forces	-11.0175
▁PBMC	-11.0176
▁describing	-11.0179
▁Together	-11.0183
▁16,	-11.0183
ro	-11.019
MHV	-11.0192
▁venous	-11.0193
▁84	-11.0194
ad	-11.0199
▁mammary	-11.0199
▁places	-11.0199
▁cytosol	-11.0207
▁feedback	-11.0209
7]	-11.0221
▁architecture	-11.0222
▁institution	-11.0222
▁lengths	-11.0223
▁investigating	-11.0229
li	-11.0233
▁conjunction	-11.0236
▁graph	-11.0237
▁(10)	-11.024
▁Clostridium	-11.0241
▁recommend	-11.0243
▁nurse	-11.0243
▁MRI	-11.0251
▁plague	-11.0257
▁**	-11.0261
▁flaviviruses	-11.0261
8,	-11.0262
▁seizures	-11.0264
▁contigs	-11.0265
▁strands	-11.0266
DR	-11.0267
However	-11.0276
▁goals	-11.0277
▁relies	-11.0277
▁83	-11.0277
▁corneal	-11.0278
ler	-11.0285
▁GO	-11.0293
▁closure	-11.0294
la	-11.0294
▁protecting	-11.0299
▁2018	-11.0302
▁BRSV	-11.0304
▁(7	-11.0304
ated	-11.0304
▁78	-11.0305
▁uncertain	-11.0307
▁entirely	-11.0311
▁mast	-11.0316
▁covering	-11.0327
▁Life	-11.0338
▁alignments	-11.034
confirmed	-11.0344
▁biopsies	-11.0344
▁qu	-11.0353
▁1991;	-11.0356
▁Introduction	-11.0357
▁NY	-11.0362
▁cultural	-11.0366
▁call	-11.0368
▁fruit	-11.0377
DE	-11.038
▁thrombocytopenia	-11.0386
▁competitive	-11.0389
known	-11.0391
▁survivors	-11.0395
▁ruminants	-11.0399
▁regimens	-11.0405
▁minute	-11.0407
▁mais	-11.0408
Background	-11.0414
▁antisense	-11.0416
▁NEC	-11.0417
▁lncRNAs	-11.0427
▁predicting	-11.0431
▁alteration	-11.0436
▁exponential	-11.0444
▁microbiological	-11.0447
▁1990;	-11.0447
▁cooperation	-11.0449
▁verify	-11.0452
▁prototype	-11.0453
▁match	-11.0454
▁profound	-11.0454
▁aggressive	-11.0454
▁topic	-11.0456
▁plastic	-11.0457
▁MG	-11.0457
▁lanes	-11.0458
▁organized	-11.0458
▁parenchyma	-11.0459
▁concomitant	-11.046
▁opening	-11.0464
▁classic	-11.0474
▁STING	-11.0479
ve	-11.0485
▁squamous	-11.0487
directed	-11.0487
▁retroviruses	-11.0489
▁suggestive	-11.0489
▁laser	-11.049
▁obtaining	-11.049
▁suckling	-11.049
▁careful	-11.0491
▁180	-11.0493
▁stomatitis	-11.0494
▁antivirals	-11.0496
▁dissociation	-11.0498
ci	-11.0502
▁foot	-11.0503
▁consistency	-11.0504
▁88	-11.0507
▁assumptions	-11.0509
▁nsP	-11.0513
▁ISGs	-11.0517
▁She	-11.0518
▁mannose	-11.052
▁provision	-11.052
▁northern	-11.0525
▁79	-11.0537
Based	-11.0543
▁programme	-11.0547
median	-11.0548
▁COX	-11.0551
▁notably	-11.0552
▁supplementation	-11.0553
▁advance	-11.0554
▁favor	-11.0557
▁2]	-11.056
▁gray	-11.0564
▁distinguished	-11.0564
so	-11.0564
▁entering	-11.0569
▁schools	-11.0569
▁owing	-11.0572
▁pools	-11.0573
▁Con	-11.0578
▁visitors	-11.0578
▁18,	-11.0581
▁contributions	-11.0581
▁17,	-11.0582
▁promoted	-11.0591
▁Biotechnology	-11.0592
▁comes	-11.0594
▁focusing	-11.0594
▁deal	-11.0596
▁pp	-11.0599
El	-11.06
1).	-11.0604
▁typing	-11.0605
▁preference	-11.0608
▁capabilities	-11.0609
▁titre	-11.061
▁fixation	-11.0611
▁enlarged	-11.0613
▁enabled	-11.0616
▁bi	-11.0621
▁radiographic	-11.0622
▁considerations	-11.0623
▁streptomycin	-11.0628
▁vertical	-11.0629
▁MP	-11.063
▁add	-11.0631
▁weaning	-11.0634
▁MBP	-11.0637
▁125	-11.0638
▁sore	-11.0639
▁incident	-11.0642
▁antioxidant	-11.0643
▁height	-11.0645
▁pan	-11.0652
▁%)	-11.0653
▁24-	-11.0653
▁formulations	-11.0654
▁suspended	-11.0655
▁signature	-11.0657
▁repeats	-11.0661
▁morphological	-11.0661
▁Phase	-11.0662
▁participant	-11.0664
▁monthly	-11.0664
▁accumulated	-11.0666
▁[65]	-11.0669
▁immobilized	-11.0674
▁analogues	-11.0675
1/2	-11.0677
▁coinfection	-11.0679
▁lymphocytic	-11.0688
over	-11.0689
van	-11.0693
▁propria	-11.0695
▁differs	-11.0695
▁sequential	-11.0696
log	-11.0697
▁methanol	-11.0698
IBV	-11.0699
▁(30	-11.0701
Clinical	-11.0703
▁accounts	-11.0704
▁sea	-11.0705
▁gestation	-11.0708
▁Spain	-11.071
▁validate	-11.0711
▁consolidation	-11.0714
▁illustrate	-11.0714
▁Different	-11.0715
▁check	-11.0717
▁veterinarians	-11.0725
▁facilitating	-11.0726
▁helps	-11.073
▁apart	-11.0735
RV	-11.0735
▁integral	-11.0739
▁insurance	-11.0741
▁Nonetheless	-11.0741
▁radiographs	-11.0743
▁sinus	-11.0749
▁10,000	-11.0754
▁SC	-11.0756
▁han	-11.0757
ACE	-11.0758
▁21,	-11.0759
▁spaces	-11.0763
▁impossible	-11.0766
▁manual	-11.0766
▁pseudo	-11.0768
tion	-11.0768
▁combining	-11.0769
▁definitions	-11.0769
▁[66]	-11.0773
▁[14,	-11.0775
▁accumulate	-11.0775
▁MAVS	-11.0776
▁beds	-11.0777
▁tight	-11.0777
▁89	-11.0782
▁[13,	-11.0786
▁polymer	-11.0787
▁prone	-11.0788
▁lysosomal	-11.079
▁programmes	-11.079
ter	-11.0792
▁1989;	-11.0792
▁emerge	-11.0793
em	-11.0794
▁anesthesia	-11.0794
▁Australian	-11.0795
▁etiologic	-11.0797
house	-11.0797
▁rejection	-11.0805
▁82	-11.0811
▁demonstration	-11.0814
▁ulceration	-11.0814
▁Los	-11.0816
▁net	-11.0817
Additional	-11.0822
▁(12)	-11.0824
▁See	-11.0825
STAT	-11.0827
▁signifi	-11.0827
▁Poly	-11.083
encoded	-11.0831
▁polymorphism	-11.0832
income	-11.0833
▁(11)	-11.0834
▁entered	-11.0836
▁resonance	-11.0836
▁replicon	-11.084
▁begins	-11.0841
▁dehydrogenase	-11.0845
▁Flu	-11.0852
▁macro	-11.0855
EM	-11.0856
▁RPMI	-11.0861
▁divergence	-11.0869
▁HP	-11.087
▁ATG	-11.087
ex	-11.0873
▁references	-11.0873
fl	-11.0873
▁aims	-11.0877
▁ease	-11.0885
▁3′	-11.0887
▁scored	-11.0889
MOI	-11.089
▁EAV	-11.0897
▁λ	-11.0898
▁93	-11.0902
▁seasons	-11.0905
ten	-11.0918
ley	-11.0922
▁Die	-11.0923
▁avoided	-11.0925
▁How	-11.093
▁[67]	-11.0932
▁congestion	-11.0939
▁steroids	-11.0943
▁mixtures	-11.0947
▁modelling	-11.0948
▁topology	-11.095
▁owners	-11.095
▁experiences	-11.0956
▁EGFP	-11.096
▁Diagnosis	-11.096
▁equations	-11.0962
▁comprises	-11.0962
HSV	-11.0963
▁Candida	-11.0966
ul	-11.0969
▁ϩ	-11.0969
▁HI	-11.097
▁Twenty	-11.0971
▁concerned	-11.0973
▁permit	-11.0975
▁responsibility	-11.0975
▁percentages	-11.0979
▁excretion	-11.0982
▁economy	-11.0983
▁breath	-11.0992
▁declined	-11.0993
▁participating	-11.0998
▁tobacco	-11.1001
▁3.5	-11.1002
▁PLP	-11.1005
▁resolve	-11.1006
▁auf	-11.1007
▁Drug	-11.1014
0]	-11.1014
AP	-11.1022
▁biosynthesis	-11.1023
▁coronary	-11.1027
rabbit	-11.1031
▁thickness	-11.1032
▁divergent	-11.1034
▁house	-11.1035
▁lambs	-11.1035
▁inherent	-11.1039
▁stochastic	-11.1041
▁elucidated	-11.1041
HKU	-11.1042
▁look	-11.1042
▁parvum	-11.1045
▁accounting	-11.1047
▁polypeptides	-11.1051
ATCC	-11.1055
▁ribosomes	-11.1057
▁Vietnam	-11.1065
her	-11.1067
▁reactivation	-11.1068
▁virtually	-11.1072
▁driving	-11.1079
buffered	-11.1079
el	-11.1086
▁weakness	-11.1088
▁Association	-11.109
▁HHV	-11.1096
▁Tween	-11.1102
▁dorsal	-11.1103
IP	-11.1104
▁visualization	-11.1104
▁Specific	-11.1109
ge	-11.111
▁switch	-11.1113
▁shifts	-11.1118
▁1:1	-11.1119
▁duct	-11.1119
▁primate	-11.1119
▁popular	-11.1122
▁mesenteric	-11.1123
▁regularly	-11.1134
▁expertise	-11.1134
29	-11.1136
Data	-11.1138
▁Eagle	-11.1138
▁parenteral	-11.1147
▁scFv	-11.1148
▁spores	-11.1149
▁fetus	-11.115
▁wet	-11.1152
▁lab	-11.1155
▁noise	-11.1155
▁react	-11.1157
▁amplicons	-11.1157
▁Society	-11.116
▁flexibility	-11.116
▁monolayer	-11.1168
▁MIC	-11.1168
▁worth	-11.117
▁plotted	-11.1171
▁export	-11.1173
▁1989	-11.1174
▁confined	-11.1175
▁Liu	-11.1175
GenBank	-11.1176
▁platelets	-11.1179
▁York	-11.1179
▁24,	-11.1179
bio	-11.1181
▁IRES	-11.1181
▁chemicals	-11.1182
▁firm	-11.1184
▁1-2	-11.1184
▁weather	-11.1184
▁Comparison	-11.1185
peptide	-11.1187
▁(15	-11.1189
▁[68]	-11.119
phosphate	-11.1195
▁0.6	-11.1196
▁acquire	-11.1198
▁saturation	-11.1201
▁(25	-11.1204
▁agricultural	-11.1205
▁floor	-11.1206
▁path	-11.1206
itis	-11.121
From	-11.1211
▁73	-11.1214
▁Pol	-11.1214
Finally	-11.1217
▁structurally	-11.122
▁86	-11.1221
▁solely	-11.1221
▁pi	-11.1223
▁(9	-11.1225
▁nucleoside	-11.1226
▁inferred	-11.1228
▁manage	-11.1228
dL	-11.1232
▁gloves	-11.1233
▁helical	-11.1235
▁dependence	-11.1236
ol	-11.1237
▁CFU	-11.124
▁Increased	-11.1241
▁PP	-11.1241
▁multifocal	-11.1244
▁pathologic	-11.1245
▁notion	-11.1247
existing	-11.1249
▁8)	-11.125
▁ubiquitination	-11.1263
▁[69]	-11.1265
▁antagonist	-11.1273
▁era	-11.1274
▁methyl	-11.1274
▁2017;	-11.1277
▁opportunistic	-11.128
▁1,2	-11.1283
▁ultrasound	-11.1283
▁monomer	-11.1284
PA	-11.1284
▁depicted	-11.1284
▁patches	-11.1285
▁illustrates	-11.1286
▁salivary	-11.1288
▁comorbidities	-11.1288
▁tubular	-11.1289
▁works	-11.1291
▁utilizing	-11.1291
▁[15,	-11.1292
▁dust	-11.1294
▁labor	-11.1296
down	-11.1298
▁100,000	-11.13
▁masses	-11.1301
▁leaving	-11.131
37	-11.1312
rd	-11.1312
▁damaged	-11.1316
▁antimicrobials	-11.1316
▁serially	-11.1323
▁Instead	-11.1327
▁narrow	-11.1327
▁Mexico	-11.133
▁[16,	-11.1333
▁IM	-11.134
▁today	-11.1341
▁reliability	-11.1344
tailed	-11.1344
▁cystic	-11.1346
▁BD	-11.1353
▁1981)	-11.1354
▁eyes	-11.1354
▁SG	-11.1357
▁BCV	-11.1358
▁hot	-11.1365
▁bilayer	-11.1365
▁answer	-11.1367
▁regulators	-11.1368
adapted	-11.1368
▁transmissibility	-11.1375
-3-	-11.1376
▁oxidation	-11.1376
▁criterion	-11.1379
▁restrictions	-11.1379
are	-11.138
▁amongst	-11.1381
▁Considering	-11.1383
▁1.2	-11.1389
▁[70]	-11.139
55	-11.1394
▁PS	-11.1395
▁accomplished	-11.1398
▁Third	-11.1401
▁foods	-11.1401
patient	-11.1402
PEDV	-11.1404
▁[17,	-11.1414
OH	-11.1419
Th	-11.142
ette	-11.1425
▁tolerated	-11.1427
▁olfactory	-11.1432
▁duplicate	-11.1441
▁obstructive	-11.1444
▁proportional	-11.1444
ist	-11.1447
▁plots	-11.145
pre	-11.1452
▁concepts	-11.1452
also	-11.1453
▁precipitation	-11.1456
▁canonical	-11.1458
▁supplies	-11.1458
▁formal	-11.1462
ver	-11.1469
▁valid	-11.1473
▁bulk	-11.1473
▁predictor	-11.1476
▁anticipated	-11.1479
▁Ct	-11.1482
▁categorized	-11.1482
▁ppm	-11.1485
▁zones	-11.1486
▁front	-11.1487
hr	-11.1488
▁decay	-11.1488
▁immunocompetent	-11.1489
▁titration	-11.1491
▁hemoglobin	-11.1494
Of	-11.1495
▁SEM	-11.1495
per	-11.1497
▁pharyngitis	-11.1501
▁insert	-11.1501
target	-11.1504
▁proof	-11.1504
▁vaginal	-11.1504
▁ventricular	-11.1506
▁stopped	-11.1509
▁liposomes	-11.151
▁priming	-11.151
▁stimulating	-11.151
▁counter	-11.1511
inactivated	-11.1511
▁promotion	-11.1512
▁expand	-11.1513
▁French	-11.1517
▁committee	-11.1521
▁microbiome	-11.1525
▁vesicle	-11.1525
▁airport	-11.153
▁MMP	-11.1537
▁GAPDH	-11.154
ling	-11.1543
▁pol	-11.1548
▁horizontal	-11.155
▁arrays	-11.1551
▁introduce	-11.1552
▁abscesses	-11.1553
▁Red	-11.1555
▁chip	-11.1557
En	-11.1557
▁villi	-11.1569
▁AR	-11.1571
▁(14)	-11.1574
▁motility	-11.1575
Cl	-11.1575
izing	-11.1578
▁coupling	-11.158
▁glial	-11.1581
▁digital	-11.1583
▁outlined	-11.1587
▁ein	-11.1592
▁!	-11.1593
▁81	-11.1594
▁preclinical	-11.1596
▁Phylogenetic	-11.1601
▁enterocytes	-11.1603
49	-11.1604
▁alert	-11.1609
▁1991	-11.1609
▁proteasome	-11.1609
SP	-11.1613
▁MR	-11.1614
▁pilot	-11.1617
▁triggering	-11.1617
▁trimer	-11.1618
CA	-11.1619
▁film	-11.1624
▁seroconversion	-11.1626
▁elongation	-11.1629
▁lg	-11.1629
helix	-11.163
▁Like	-11.1632
▁92	-11.1637
▁(13)	-11.1639
▁gained	-11.1643
▁hamster	-11.1646
▁nonhuman	-11.1648
▁advice	-11.1648
▁obesity	-11.1649
ce	-11.1651
▁PRV	-11.1654
▁officials	-11.1655
▁subgroups	-11.1658
con	-11.1658
▁Aspergillus	-11.1665
▁19,	-11.1666
▁Treg	-11.167
▁closer	-11.167
▁MAb	-11.1672
▁thousands	-11.1673
▁reflecting	-11.1675
▁neighboring	-11.1677
▁retrieved	-11.168
▁biosafety	-11.1684
▁FITC	-11.1684
▁Experimental	-11.1684
▁modest	-11.1687
▁replicated	-11.1689
▁wider	-11.169
▁emergencies	-11.1692
Methods	-11.1693
▁immunohistochemistry	-11.1695
▁emphasis	-11.1697
▁clinician	-11.1702
▁Hepatitis	-11.1703
▁bring	-11.1705
▁checked	-11.1706
ian	-11.1706
▁overview	-11.1708
▁dispersion	-11.1712
▁28,	-11.1716
▁1988	-11.1717
▁flavivirus	-11.1718
▁clarified	-11.1719
▁seemed	-11.1725
▁walls	-11.1727
▁heavily	-11.1727
▁isoforms	-11.1727
▁abdomen	-11.1727
▁Legionella	-11.1728
▁Guangdong	-11.1728
▁reductions	-11.173
▁circular	-11.1731
ts	-11.1733
Here	-11.1734
▁allergen	-11.174
▁precursors	-11.1741
▁cranial	-11.1742
▁evidenced	-11.1742
▁1988;	-11.1743
▁tends	-11.1746
▁Northern	-11.1747
▁colonic	-11.1749
acting	-11.175
▁lens	-11.1751
▁12-	-11.1755
▁engagement	-11.1755
▁embryos	-11.1755
▁seek	-11.1756
▁degraded	-11.1756
Re	-11.1761
▁IN	-11.1764
▁infiltrate	-11.1766
Golgi	-11.1768
▁null	-11.1772
field	-11.1774
▁IFNAR	-11.1776
▁lactate	-11.1777
▁urgent	-11.1777
▁cation	-11.178
▁Approximately	-11.1781
▁Man	-11.1783
na	-11.1785
▁peri	-11.1786
▁alkaline	-11.1787
expressed	-11.179
im	-11.1792
▁Materials	-11.1795
▁denaturation	-11.1795
▁rupture	-11.1801
▁Study	-11.1801
▁87	-11.1802
▁SYBR	-11.1802
green	-11.1812
▁company	-11.1814
▁interests	-11.1816
alpha	-11.1819
▁SPF	-11.1823
▁assuming	-11.1823
▁abscess	-11.1823
▁General	-11.1824
▁academic	-11.1825
▁97	-11.1832
▁Transmission	-11.1837
▁possesses	-11.1838
▁2-3	-11.184
▁drainage	-11.1842
▁figures	-11.1844
▁hotel	-11.1845
▁[71]	-11.1846
▁repertoire	-11.1848
ada	-11.1849
▁destination	-11.1849
▁comme	-11.1849
▁reacted	-11.1849
CMV	-11.1852
▁recommendation	-11.1853
low	-11.1854
threatening	-11.1854
▁amplicon	-11.1857
▁Coronaviridae	-11.1858
▁chromatin	-11.1858
▁Systems	-11.1859
▁abortion	-11.186
▁digestive	-11.1861
▁predictors	-11.1861
▁adopt	-11.1863
▁glycerol	-11.1863
▁enteroviruses	-11.1865
▁multivariate	-11.1866
▁cleared	-11.1868
Cell	-11.1871
▁neoplastic	-11.1871
▁inclusions	-11.1871
▁sectors	-11.1872
▁granulomatous	-11.1878
Ag	-11.1881
▁marine	-11.1882
▁educational	-11.1884
▁prostate	-11.1888
infectious	-11.1888
▁comprise	-11.189
▁Emergency	-11.1891
▁developmental	-11.1891
▁expert	-11.1892
▁enabling	-11.1894
▁Technology	-11.1898
▁profiling	-11.1899
tri	-11.1901
Life	-11.1904
▁said	-11.1906
▁pfu	-11.1907
▁OAS	-11.1914
▁diagnose	-11.1918
▁admissions	-11.1919
▁agreed	-11.192
▁disrupt	-11.1923
▁optic	-11.1925
▁incorporate	-11.1925
▁Primary	-11.1926
▁purity	-11.1926
▁atoms	-11.1928
▁HPIV	-11.193
journal	-11.1931
▁news	-11.1931
▁thymus	-11.1934
▁melanoma	-11.1937
▁mol	-11.1939
▁anaerobic	-11.1947
▁corticosteroid	-11.1953
▁UPR	-11.1965
▁Zealand	-11.1966
▁Future	-11.1967
▁microarrays	-11.1969
▁sentinel	-11.197
78	-11.197
ism	-11.1971
AT	-11.1981
▁antifungal	-11.1982
▁biosecurity	-11.1986
▁completion	-11.1994
▁durch	-11.1995
▁substance	-11.2002
8)	-11.2002
▁proliferative	-11.2005
ur	-11.2009
▁ON	-11.201
▁Di	-11.2011
▁warranted	-11.2012
▁dis	-11.2015
▁HRP	-11.2017
58	-11.2018
▁equipped	-11.202
▁TRAF	-11.2021
▁synonymous	-11.2023
▁filled	-11.2025
▁biologically	-11.2027
▁kill	-11.2029
▁0.25	-11.203
▁Dulbecco	-11.2036
▁alanine	-11.2038
▁HPLC	-11.2044
ating	-11.2046
PE	-11.2051
▁turnover	-11.2052
▁91	-11.2056
▁cutoff	-11.206
▁Any	-11.2062
▁(2004)	-11.2062
▁[18,	-11.2065
▁140	-11.2067
▁hypersensitivity	-11.2068
▁otitis	-11.2068
▁fitted	-11.2069
▁Bcl	-11.2069
▁Yet	-11.2074
Á	-11.2082
▁SF	-11.2087
▁validity	-11.2088
▁washes	-11.2091
▁FP	-11.2091
▁$	-11.2094
▁permanent	-11.2095
tag	-11.2098
▁Whereas	-11.2102
▁ventral	-11.2103
▁synergistic	-11.2104
▁Tokyo	-11.2114
kB	-11.2114
10,	-11.2115
-20	-11.2121
▁suffer	-11.2123
▁demyelinating	-11.2125
▁Prism	-11.2129
▁450	-11.2129
▁1978	-11.213
ado	-11.2142
TB	-11.2142
▁gag	-11.2145
▁longitudinal	-11.2148
▁20,	-11.2151
▁MT	-11.2153
CO	-11.2155
▁raise	-11.2159
▁updated	-11.2159
▁neutralize	-11.2161
▁diets	-11.2172
▁coordinated	-11.2173
▁surround	-11.2175
▁Appendix	-11.2178
▁perivascular	-11.2178
▁UL	-11.2182
EV	-11.2183
▁capital	-11.2189
▁hypo	-11.2189
▁lobe	-11.2195
▁dosing	-11.2197
·	-11.2202
81	-11.2204
▁CVB	-11.2204
▁distant	-11.2206
▁certainly	-11.2207
▁12%	-11.2207
▁ssRNA	-11.2207
▁stably	-11.2207
uk	-11.2209
▁ALI	-11.2214
▁23,	-11.2216
▁max	-11.2227
▁hazard	-11.2229
▁indices	-11.2232
▁traits	-11.2245
▁competent	-11.2246
▁tumour	-11.2246
▁mediating	-11.2246
au	-11.2248
▁graft	-11.2249
▁carriage	-11.2253
▁thick	-11.2254
inoculated	-11.2256
US	-11.2261
▁elevation	-11.2262
▁prognostic	-11.2264
RA	-11.2265
▁my	-11.2265
SS	-11.2269
▁[72]	-11.2269
▁naive	-11.2271
▁kinds	-11.2274
▁FCV	-11.2283
▁pairwise	-11.2286
▁110	-11.2286
▁EF	-11.229
▁annotation	-11.2291
▁1979	-11.2291
▁pcDNA	-11.2293
▁splenocytes	-11.2294
▁boost	-11.2297
▁TaqMan	-11.2299
▁organelles	-11.23
▁immunosorbent	-11.2307
▁1987;	-11.2307
▁preceding	-11.2311
▁Diego	-11.2311
mg	-11.2312
▁das	-11.2315
▁Bayesian	-11.2316
▁prescribed	-11.2316
▁electrolyte	-11.2316
Les	-11.2318
pp	-11.2318
am	-11.2319
▁stakeholders	-11.2324
▁JNK	-11.2324
▁smoke	-11.2327
▁flocks	-11.2329
▁IgY	-11.233
den	-11.2335
▁uveitis	-11.2336
▁Internet	-11.234
▁1986;	-11.2343
▁WI	-11.2343
▁JHMV	-11.2347
▁biomarker	-11.235
▁maps	-11.235
▁infecciones	-11.2353
▁diagnóstico	-11.2354
▁adapt	-11.2358
▁neuro	-11.2359
▁module	-11.2363
Chen	-11.2363
▁zur	-11.2364
▁striking	-11.2368
▁placenta	-11.2368
2).	-11.237
▁chloroquine	-11.237
▁polio	-11.2372
▁106	-11.2372
▁federal	-11.2372
▁2015,	-11.2374
▁perfringens	-11.2382
▁collapse	-11.2384
▁examinations	-11.2389
▁observational	-11.239
▁promoters	-11.239
▁ischemia	-11.2391
▁(15)	-11.2393
▁assessments	-11.2394
▁annealing	-11.2396
response	-11.2398
):	-11.2402
▁Before	-11.2404
▁riesgo	-11.2404
▁wards	-11.2406
▁compromised	-11.2408
▁scaffold	-11.2414
▁[73]	-11.2416
▁Nipah	-11.2417
▁emissions	-11.2418
▁branches	-11.2419
▁leave	-11.2423
immune	-11.2423
▁angiotensin	-11.2427
▁names	-11.2427
▁dei	-11.2427
▁multiplicity	-11.243
▁speculate	-11.243
▁ad	-11.2433
▁medicinal	-11.2433
▁hypoxia	-11.2437
▁English	-11.2438
CoVs	-11.2439
▁missed	-11.2442
▁presumed	-11.2442
▁Giardia	-11.2443
▁falciparum	-11.2446
▁Culture	-11.2449
▁farmers	-11.2452
▁benign	-11.2454
▁Case	-11.2457
▁aromatic	-11.2459
▁BLAST	-11.2463
▁postulated	-11.2464
▁moderately	-11.2464
ize	-11.2469
▁PRF	-11.247
▁puppies	-11.2475
▁3.0	-11.2477
▁astrovirus	-11.2479
▁microbiology	-11.248
54	-11.2483
▁aircraft	-11.2484
▁Meanwhile	-11.2485
▁defining	-11.2485
▁Dengue	-11.2487
▁Sweden	-11.2488
▁persistently	-11.2492
▁pDCs	-11.2492
▁rubella	-11.2493
▁transcriptome	-11.2494
▁methylation	-11.2501
▁Council	-11.2501
▁ticks	-11.2501
▁nations	-11.2508
▁lists	-11.2509
▁modify	-11.251
▁lives	-11.2516
ins	-11.2516
▁duplex	-11.2517
▁migrate	-11.2517
▁lacks	-11.2517
▁registered	-11.2519
values	-11.2521
▁furin	-11.2524
PRRSV	-11.253
▁ensuring	-11.2531
nd	-11.2532
▁immunomodulatory	-11.2535
▁phylogeny	-11.2535
▁histopathological	-11.2538
pathogen	-11.2541
▁intramuscular	-11.2542
▁HTLV	-11.2543
\")	-11.2547
▁machine	-11.2554
▁5.0	-11.2554
▁deleted	-11.2555
▁interviews	-11.2556
mo	-11.2557
▁disrupted	-11.2559
▁aspirates	-11.256
▁Shanghai	-11.256
▁official	-11.2563
▁Illumina	-11.2569
52	-11.2571
▁kinetic	-11.2572
▁·	-11.2573
▁FACS	-11.2575
▁22,	-11.2576
▁corona	-11.2576
▁Neu	-11.2577
▁seed	-11.2579
ier	-11.2581
▁matching	-11.2583
▁pellets	-11.259
▁diarrheic	-11.2596
▁Chronic	-11.2598
▁probabilities	-11.2604
▁Low	-11.2604
▁105	-11.2606
▁manipulation	-11.261
▁Background	-11.2612
ary	-11.2613
▁tourists	-11.2613
▁[74]	-11.2617
▁precision	-11.2617
▁bioinformatics	-11.2618
▁Examples	-11.2628
▁sanitation	-11.2629
gp	-11.2631
▁language	-11.2632
▁0.001)	-11.2639
▁ligase	-11.2645
▁Mo	-11.2647
▁clarify	-11.2648
▁annotated	-11.2652
▁recognizes	-11.2654
▁viewed	-11.2659
▁31,	-11.2659
▁consultation	-11.2662
▁placement	-11.2669
oral	-11.267
▁HSCT	-11.2677
▁think	-11.2678
▁Ma	-11.2678
▁perfusion	-11.2682
▁2014,	-11.2686
▁hits	-11.2688
300	-11.269
▁moved	-11.2691
▁nuclease	-11.2693
▁analogous	-11.2693
ID	-11.2697
▁reversible	-11.27
▁linker	-11.2702
▁conjunctivitis	-11.2703
▁intermediates	-11.2705
▁immunoglobulins	-11.2707
▁buffered	-11.2707
▁watery	-11.2707
▁dromedary	-11.2707
▁densities	-11.2712
PK	-11.2716
▁km	-11.2716
▁PL	-11.272
▁mothers	-11.2721
▁HPAI	-11.2721
▁connection	-11.2723
▁coming	-11.2727
>	-11.2736
GM	-11.2738
▁nach	-11.274
▁Þ	-11.2741
▁elution	-11.2743
▁desirable	-11.2746
▁subcellular	-11.2751
▁sobre	-11.2752
▁isotype	-11.2755
▁Mean	-11.276
▁giant	-11.276
▁operational	-11.2761
▁Da	-11.2764
membrane	-11.2764
▁fitting	-11.2767
-␥	-11.2769
▁axonal	-11.2769
▁hazards	-11.2769
▁1986	-11.277
beta	-11.2771
▁Carlsbad	-11.2773
▁clades	-11.2778
▁centre	-11.278
▁downregulated	-11.2781
land	-11.2782
▁modulating	-11.2783
▁Surveillance	-11.2783
▁evolve	-11.2786
▁vasculitis	-11.2786
▁instruments	-11.2787
▁HAV	-11.2789
▁hundreds	-11.279
▁[19,	-11.2793
▁Centre	-11.2795
▁95°	-11.2795
▁facial	-11.2796
▁lysine	-11.2798
Using	-11.2799
both	-11.2802
▁2:	-11.2802
▁thorough	-11.2806
▁manifestation	-11.2806
▁Ten	-11.2808
▁glycosylated	-11.2813
▁structured	-11.2814
▁CHO	-11.2818
▁administrative	-11.2821
io	-11.2826
▁indications	-11.2829
▁OH	-11.2831
▁neoplasms	-11.2832
▁fidelity	-11.2833
▁conflict	-11.2834
▁paraformaldehyde	-11.2834
▁positivity	-11.284
▁triple	-11.2841
only	-11.2841
▁resultant	-11.2843
▁worked	-11.2845
▁activator	-11.2848
▁TLRs	-11.2849
▁employing	-11.285
seq	-11.2853
▁transiently	-11.2853
▁junctions	-11.2854
grade	-11.2855
▁immunologic	-11.2855
▁Review	-11.2857
▁reconstruction	-11.2859
▁communicable	-11.2859
▁hold	-11.286
▁generates	-11.2863
▁Class	-11.2864
▁Mass	-11.2865
▁Glu	-11.2866
▁vaccinations	-11.2868
▁leakage	-11.287
▁cognitive	-11.287
▁remodeling	-11.287
▁AS	-11.2873
▁airports	-11.2877
▁Diagnostics	-11.2883
▁columns	-11.2883
▁employees	-11.2884
▁ambient	-11.2886
▁contrary	-11.2887
▁Institutional	-11.2888
▁endo	-11.2888
▁mis	-11.289
▁flight	-11.289
▁dense	-11.289
▁1-3	-11.2891
▁Mann	-11.2893
▁oligo	-11.2893
▁pueden	-11.2894
▁huge	-11.2895
▁exudate	-11.2899
▁bacteremia	-11.2901
CV	-11.2901
▁plated	-11.2901
▁permissive	-11.2903
▁(>	-11.2904
▁easier	-11.2905
dl	-11.2905
▁addressing	-11.2907
▁spectroscopy	-11.2909
ite	-11.2912
▁minus	-11.2913
▁teaching	-11.2914
▁APC	-11.2915
▁formaldehyde	-11.2915
▁arising	-11.2917
▁opposed	-11.2918
▁systematically	-11.2919
▁Si	-11.292
▁characterised	-11.2924
▁TCM	-11.2925
NO	-11.2926
▁feasibility	-11.2927
▁skeletal	-11.2927
▁calculations	-11.2927
▁continuing	-11.2927
table	-11.2929
▁Tregs	-11.2936
▁Switzerland	-11.2936
▁(16)	-11.2938
PS	-11.2939
Some	-11.2941
▁diff	-11.2942
▁plausible	-11.2945
▁[75]	-11.2945
ive	-11.2949
▁School	-11.2949
▁warning	-11.2949
▁Mini	-11.2953
▁deviations	-11.2954
▁Tables	-11.2955
ð	-11.2956
▁AM	-11.2962
▁scales	-11.2964
quality	-11.2966
▁helped	-11.2966
▁responding	-11.2966
▁tip	-11.2967
▁wird	-11.2967
▁prices	-11.297
▁RA	-11.2971
▁Abs	-11.2972
▁Six	-11.2972
▁transgene	-11.2975
▁PEG	-11.2977
▁26,	-11.2977
▁0.001).	-11.2978
osis	-11.2979
▁delle	-11.2982
▁analogs	-11.2982
▁AB	-11.2992
▁stimulates	-11.2997
▁[20,	-11.2998
▁1918	-11.2999
▁ϭ	-11.2999
▁triage	-11.3001
▁Assay	-11.3001
wt	-11.3001
▁entities	-11.3003
▁calls	-11.3006
▁bovis	-11.3007
▁endothelium	-11.3008
▁supplied	-11.3008
▁downregulation	-11.3009
▁meaning	-11.301
▁autopsy	-11.3013
Co	-11.3014
▁dimensions	-11.3017
▁homogeneous	-11.302
▁Bacterial	-11.3022
acid	-11.3023
▁1985;	-11.3024
SL	-11.3026
▁1980)	-11.3033
▁14]	-11.3038
▁pylori	-11.3041
▁oligodendrocytes	-11.3041
▁rounds	-11.3047
▁LASV	-11.3047
▁visited	-11.3048
base	-11.3048
▁detrimental	-11.3049
version	-11.305
MA	-11.3054
▁taxonomic	-11.3056
▁intranasally	-11.3056
▁displacement	-11.3056
▁Network	-11.3057
▁resemble	-11.3057
▁virology	-11.3058
▁hematopoietic	-11.3071
▁productivity	-11.3075
▁aging	-11.3078
▁broth	-11.3081
AB	-11.3082
▁dedicated	-11.3089
▁Act	-11.309
▁1976	-11.309
▁shell	-11.3092
▁mini	-11.3093
°	-11.3093
▁160	-11.3095
-16	-11.3099
▁keeping	-11.3099
▁ubiquitous	-11.31
▁edge	-11.3101
▁rst	-11.3101
▁avoiding	-11.3101
▁query	-11.3102
▁Leu	-11.3103
▁suspicion	-11.3106
▁pancreas	-11.3111
▁(2005)	-11.3111
▁ligation	-11.3112
▁stroke	-11.3116
▁tended	-11.3118
▁Smith	-11.3121
neutralizing	-11.3123
▁coiled	-11.3126
que	-11.3127
▁fire	-11.3127
▁passenger	-11.3129
▁800	-11.3131
▁topical	-11.3134
▁mucin	-11.3135
New	-11.3135
▁suspensions	-11.3138
▁opinion	-11.3138
▁paraffin	-11.3139
antibody	-11.3139
▁Rab	-11.3139
▁creatinine	-11.3139
▁NPC	-11.3141
▁displays	-11.3141
▁irradiation	-11.3144
▁st	-11.3146
▁teeth	-11.3152
PV	-11.3152
▁wastewater	-11.3152
▁competing	-11.3152
▁angle	-11.3153
39	-11.3155
high	-11.3159
▁arginine	-11.316
▁intestines	-11.3169
▁13]	-11.3172
▁vertebrate	-11.3173
▁occasional	-11.3173
Virus	-11.3176
▁seasonality	-11.3176
▁Model	-11.3178
▁Southern	-11.3181
water	-11.3182
▁slower	-11.3183
▁runs	-11.3187
blue	-11.3188
▁Micro	-11.319
▁SPSS	-11.3191
person	-11.3192
▁passaged	-11.3196
▁mind	-11.3196
▁necrotizing	-11.3198
▁running	-11.3203
▁lytic	-11.3206
▁travellers	-11.3206
▁lethargy	-11.3207
▁clathrin	-11.3207
69	-11.3209
▁proteome	-11.321
▁thickening	-11.322
▁VZV	-11.3224
▁ineffective	-11.3225
▁adrenal	-11.3226
▁contaminants	-11.3226
▁fatigue	-11.323
▁cure	-11.323
▁8]	-11.3232
▁worker	-11.3232
▁heating	-11.3233
▁IBD	-11.3234
▁caution	-11.3241
si	-11.3243
▁supplement	-11.3244
-2)	-11.3244
▁zoonoses	-11.3244
▁SI	-11.3247
▁Cy	-11.3249
▁11]	-11.3249
▁absorbed	-11.325
▁PTX	-11.3251
▁APN	-11.3253
▁rational	-11.3254
▁25,	-11.3256
▁20]	-11.3257
▁atmosphere	-11.3257
▁ammonium	-11.3258
exposed	-11.3264
cat	-11.3265
▁PLpro	-11.3268
▁excluding	-11.327
▁accelerated	-11.3277
isation	-11.3286
▁Small	-11.3286
▁labelled	-11.3288
sen	-11.3288
▁15]	-11.3289
▁Southeast	-11.3289
Barr	-11.329
Luc	-11.3292
▁(0.5	-11.3294
▁latency	-11.3294
▁tongue	-11.3298
▁evolving	-11.33
▁cited	-11.33
▁counterparts	-11.33
▁AF	-11.3302
ability	-11.3303
▁College	-11.3303
▁9-	-11.3306
96	-11.3308
▁sin	-11.3308
▁seconds	-11.3308
▁adoption	-11.3313
▁photo	-11.3314
▁retroviral	-11.3314
▁thereafter	-11.3315
▁4.5	-11.3319
▁asthmatic	-11.3319
▁whereby	-11.332
▁lM	-11.3321
▁130	-11.3322
four	-11.3327
▁spot	-11.3327
▁endotoxin	-11.3327
▁-3	-11.3328
▁genital	-11.3331
MV	-11.3332
▁associate	-11.3334
▁Various	-11.3335
▁hay	-11.3337
▁initiatives	-11.3337
▁DM	-11.3339
▁caudal	-11.334
▁functioning	-11.3345
▁originating	-11.335
▁Commission	-11.3351
75	-11.3354
▁Campylobacter	-11.3355
▁edges	-11.3355
▁Alexa	-11.3356
▁car	-11.336
limiting	-11.3369
▁engage	-11.3369
▁chose	-11.3372
▁lysosomes	-11.3373
▁Cruz	-11.3373
▁harmful	-11.3374
▁8%	-11.3377
▁efficacious	-11.3377
▁19]	-11.3378
▁beef	-11.3379
-11	-11.3379
▁este	-11.3379
▁retrovirus	-11.3381
▁2-5	-11.3385
▁ducks	-11.3386
▁influencing	-11.3386
▁Significant	-11.3386
▁Hu	-11.3386
▁healing	-11.3389
▁identifi	-11.3391
▁coating	-11.3391
Viral	-11.3392
▁Current	-11.3393
▁undetectable	-11.3396
▁Ethics	-11.3398
▁heparin	-11.3399
▁BM	-11.3401
▁Program	-11.3402
▁superficial	-11.3403
▁strictly	-11.3403
▁shRNA	-11.3403
▁sich	-11.3405
ised	-11.3405
▁exhibiting	-11.3405
▁teams	-11.3407
▁inappropriate	-11.3408
▁corrected	-11.3409
▁powder	-11.3413
▁varicella	-11.3424
▁lymphatic	-11.3425
▁killer	-11.3426
▁histopathology	-11.3428
▁bootstrap	-11.3429
hour	-11.343
▁fibrin	-11.343
▁choose	-11.3433
controlled	-11.3435
▁Evidence	-11.3437
▁souvent	-11.3438
▁polymerases	-11.3438
▁recruit	-11.3441
▁[77]	-11.3442
▁NJ	-11.3443
▁discharged	-11.3444
▁agonist	-11.3446
▁bioterrorism	-11.3447
▁GL	-11.3448
▁HCT	-11.3448
▁manufacturers	-11.3449
effective	-11.345
▁acidosis	-11.3451
▁replace	-11.3452
▁1.6	-11.3453
▁imply	-11.3454
▁electrostatic	-11.3456
ST	-11.3457
▁risque	-11.3458
▁1).	-11.3458
making	-11.346
▁herpesviruses	-11.3462
▁17]	-11.3463
▁exit	-11.3469
▁Zn	-11.3471
▁Generally	-11.3475
▁ester	-11.3479
▁lot	-11.348
76]	-11.3482
▁1.4	-11.3482
▁capsule	-11.3482
▁litter	-11.3485
▁LD	-11.3486
▁27,	-11.3487
▁unaffected	-11.349
▁square	-11.349
▁proteomic	-11.3491
▁manifest	-11.3493
▁spontaneously	-11.3493
▁herbal	-11.3499
▁intermittent	-11.3501
▁split	-11.3505
▁bite	-11.3509
TGEV	-11.3512
▁splenic	-11.3514
▁determines	-11.3514
▁2/2	-11.3516
▁21]	-11.3516
▁nerves	-11.3518
▁[21,	-11.3518
▁IR	-11.3527
▁Though	-11.3529
▁biotinylated	-11.3532
▁durante	-11.3537
domain	-11.354
▁oligosaccharides	-11.354
▁achieving	-11.3541
▁Haemophilus	-11.3542
▁default	-11.3542
▁deux	-11.3547
▁Asp	-11.3548
▁district	-11.3548
▁0.001	-11.3551
▁Yang	-11.3551
▁cryo	-11.3555
▁2.2	-11.356
▁idiopathic	-11.3561
▁disordered	-11.3562
▁roughly	-11.3562
▁designing	-11.3563
▁1.1	-11.3566
▁pressures	-11.3566
▁vessel	-11.3567
▁NT	-11.357
▁haplotype	-11.3571
▁cyclic	-11.3579
▁29,	-11.3579
▁substituted	-11.3583
▁cleave	-11.3583
#	-11.3589
▁VA	-11.3592
▁taxa	-11.3594
GC	-11.3595
▁(0.1	-11.3597
▁radiograph	-11.3601
▁auch	-11.3602
▁cirrhosis	-11.3603
▁orders	-11.3605
▁combat	-11.3609
ée	-11.361
▁CL	-11.3612
▁returns	-11.3615
▁DE	-11.3618
▁16]	-11.3619
▁initiating	-11.3622
▁inspection	-11.3623
▁18]	-11.363
OD	-11.3634
▁prompt	-11.3636
▁Fab	-11.3636
ri	-11.3637
▁appropriately	-11.3649
▁7.5	-11.3649
3),	-11.3651
▁tightly	-11.3653
Among	-11.3655
▁[78]	-11.3655
▁division	-11.3657
▁conformations	-11.366
▁retina	-11.3667
▁formulated	-11.3667
▁modeled	-11.3667
▁normalization	-11.3669
▁MgCl	-11.367
▁(17)	-11.3673
residues	-11.3676
/10	-11.3676
▁sleep	-11.3676
▁[79]	-11.3679
mice	-11.3681
▁presentations	-11.3682
▁1,000	-11.3686
▁depleted	-11.3692
▁industries	-11.3693
lin	-11.3697
▁sharp	-11.3697
▁caso	-11.3701
▁JHM	-11.3703
▁conjugation	-11.3704
▁replicative	-11.3704
▁secrete	-11.3704
▁PPV	-11.3707
▁22]	-11.3712
▁shares	-11.3713
▁Guinea	-11.3714
▁slide	-11.3714
Recently	-11.3714
▁JAK	-11.372
▁restrict	-11.3722
▁bronchoalveolar	-11.3722
poly	-11.3723
▁tomography	-11.3727
▁aliquots	-11.373
▁Chlamydia	-11.3731
ll	-11.3732
▁alveoli	-11.3732
▁stabilization	-11.3732
▁Kim	-11.3733
-145	-11.3735
▁governance	-11.3737
▁ATCC	-11.3737
▁BL	-11.3737
▁responded	-11.374
▁jejunum	-11.3742
▁Van	-11.3747
▁website	-11.3749
▁adequately	-11.3749
▁spite	-11.3751
▁worse	-11.3756
▁trust	-11.376
▁mechanistic	-11.3761
▁9]	-11.3761
▁BRD	-11.3761
▁seeking	-11.3763
▁Software	-11.3766
▁blockade	-11.3766
HBV	-11.3769
▁hospitalizations	-11.3769
▁helices	-11.377
▁implementing	-11.3771
fusion	-11.3774
▁balanced	-11.3775
und	-11.3777
▁enters	-11.3778
▁configuration	-11.3778
▁documents	-11.3781
▁allergens	-11.3782
▁manually	-11.3782
▁remote	-11.3783
▁optimize	-11.3787
▁Sp	-11.3789
frame	-11.3789
▁whilst	-11.379
hydroxy	-11.3794
NF	-11.3797
▁Board	-11.3797
▁picornaviruses	-11.3801
▁syringe	-11.3802
▁numerical	-11.3803
▁Prior	-11.3803
▁collecting	-11.3805
figure	-11.3805
transfection	-11.3805
▁dates	-11.3809
HT	-11.3813
genome	-11.3813
▁DTT	-11.3815
sectional	-11.3818
▁protects	-11.3819
that	-11.3822
▁7]	-11.3828
▁Chi	-11.3828
▁incorporating	-11.3828
▁6]	-11.3829
ata	-11.3829
▁resin	-11.3829
▁Atg	-11.3832
▁track	-11.3832
▁[23,	-11.3832
▁lining	-11.3839
▁1.3	-11.3841
▁debate	-11.3843
▁Ni	-11.3843
▁objects	-11.3844
he	-11.3846
▁HBsAg	-11.3846
▁supplemental	-11.3846
▁atom	-11.3848
▁dialysis	-11.3848
▁sacrificed	-11.3849
▁CK	-11.3851
▁rhinoviruses	-11.3857
AA	-11.3857
▁OVA	-11.3858
▁epidermal	-11.3859
▁selecting	-11.3861
▁cohorts	-11.3862
▁vancomycin	-11.3863
▁LT	-11.3864
▁Direct	-11.3865
▁1977	-11.3866
▁promise	-11.3867
▁12]	-11.3867
▁files	-11.3868
▁cage	-11.3872
-(	-11.3873
▁2.4	-11.3873
▁esophageal	-11.3874
▁decided	-11.3874
▁functionality	-11.3877
▁10]	-11.3878
▁recognizing	-11.3878
▁chitosan	-11.3878
06	-11.3879
86	-11.3879
▁intravenously	-11.3879
▁cationic	-11.388
▁Subsequent	-11.3881
▁Patient	-11.3882
▁wearing	-11.3884
▁searched	-11.3884
▁1960	-11.3885
▁[22,	-11.3888
▁129	-11.3892
▁radiography	-11.3893
▁1982	-11.3893
▁PED	-11.3894
▁harbor	-11.3894
▁supplementary	-11.3894
▁marginal	-11.3897
▁exploited	-11.3898
▁lies	-11.3898
be	-11.3901
▁sinusitis	-11.3903
▁offspring	-11.3907
▁Through	-11.3911
▁ectodomain	-11.3915
▁recognised	-11.3918
VSV	-11.392
▁foodborne	-11.3921
▁sustainable	-11.3922
▁Positive	-11.3922
▁specifi	-11.3923
▁AA	-11.3926
▁(18)	-11.3927
nucleotide	-11.3927
▁chemically	-11.393
▁peuvent	-11.3931
▁learned	-11.3933
modified	-11.394
▁managing	-11.3941
▁albeit	-11.3942
▁perceptions	-11.3943
PDB	-11.3944
▁AI	-11.3952
▁3:	-11.3952
▁1979)	-11.3956
▁raises	-11.3956
▁DR	-11.3957
▁años	-11.396
▁thoroughly	-11.3963
▁compromise	-11.3966
▁intensities	-11.397
▁[80]	-11.3971
DMEM	-11.3972
▁adaptor	-11.3973
▁tracking	-11.3975
8-	-11.3976
TLR	-11.3976
▁retain	-11.3979
▁EID	-11.3982
▁com	-11.3983
▁Do	-11.3983
▁crypt	-11.3991
▁brown	-11.3994
▁Large	-11.3994
▁respirator	-11.3995
▁nascent	-11.3995
Whitney	-11.3996
▁returning	-11.3998
▁inference	-11.3999
▁moment	-11.4
▁RF	-11.4001
▁improves	-11.4003
AF	-11.4006
▁revised	-11.4006
▁VI	-11.4006
▁(0	-11.4009
▁25]	-11.4011
▁People	-11.4011
▁(19	-11.4017
▁9:	-11.4018
▁neutralized	-11.402
▁fairly	-11.4021
▁partner	-11.4022
▁analog	-11.4023
▁hypertrophy	-11.4025
▁grid	-11.4025
▁courses	-11.4029
▁diseased	-11.4034
▁FCS	-11.4035
▁problematic	-11.4036
▁Gly	-11.4038
▁Val	-11.404
▁Differences	-11.404
▁Tyr	-11.4041
ido	-11.4044
▁nitric	-11.4045
▁expanding	-11.4045
vaccinated	-11.4047
▁24]	-11.4047
▁introducing	-11.4047
▁patch	-11.4047
▁5]	-11.4051
▁Initial	-11.4056
▁conducting	-11.4057
▁directions	-11.4057
▁pancreatitis	-11.406
▁replicating	-11.4063
▁[81]	-11.4065
▁endocytic	-11.4065
▁developments	-11.4066
RR	-11.4068
▁follicles	-11.4069
▁evasion	-11.407
▁bocavirus	-11.4073
▁Standard	-11.4074
square	-11.4077
▁focuses	-11.4078
▁Malaysia	-11.4079
▁albicans	-11.408
▁estimating	-11.4081
▁ts	-11.4082
▁nanoparticle	-11.4084
▁maladie	-11.4084
▁silica	-11.409
85	-11.4091
▁atopic	-11.4092
$	-11.4092
▁ATPase	-11.4093
▁Canadian	-11.4094
▁identities	-11.4095
▁stains	-11.4096
normal	-11.4096
▁ADP	-11.4098
▁après	-11.4098
▁earliest	-11.41
▁melting	-11.4101
Gibco	-11.4106
▁temporary	-11.411
▁diabetic	-11.411
cette	-11.4112
▁0.05,	-11.4112
▁break	-11.4112
▁(20)	-11.4113
▁precisely	-11.4114
▁anticancer	-11.4121
▁interferons	-11.4122
▁_	-11.4123
ko	-11.4126
▁35%	-11.4127
▁MAP	-11.4127
ae	-11.4131
▁IVIG	-11.4132
▁unchanged	-11.4135
side	-11.4136
▁tourist	-11.4141
mann	-11.4142
RBD	-11.4148
▁somatic	-11.415
▁agonists	-11.4151
-␣	-11.4154
Research	-11.4156
▁microglial	-11.4158
▁approximate	-11.4159
▁nucleoprotein	-11.416
▁(19)	-11.416
▁Park	-11.4161
▁26]	-11.4163
á	-11.4163
▁recurrence	-11.4169
By	-11.4173
patients	-11.4173
▁niños	-11.4173
▁big	-11.4174
▁très	-11.4175
Ab	-11.4175
third	-11.4175
sis	-11.4175
▁biofilm	-11.418
▁amoxicillin	-11.4182
especially	-11.4186
▁server	-11.4187
▁proteomics	-11.419
▁warm	-11.4191
▁fait	-11.4193
▁immunotherapy	-11.4195
▁prescription	-11.42
siRNA	-11.42
▁bromide	-11.4201
▁conjugates	-11.4201
▁ML	-11.4202
▁mounted	-11.4202
▁regeneration	-11.4202
▁1987	-11.4202
▁amyloid	-11.4203
gel	-11.4207
▁distemper	-11.421
▁possibilities	-11.421
▁dell	-11.4213
▁capacities	-11.4215
▁millions	-11.4216
500	-11.4216
▁harm	-11.4222
▁chi	-11.4223
és	-11.4223
▁polymers	-11.4225
▁DNase	-11.4225
▁centres	-11.4228
▁4]	-11.4231
▁tracts	-11.4233
▁rough	-11.4234
▁PrP	-11.4235
▁precipitated	-11.4235
▁clonal	-11.4235
▁sneezing	-11.4236
▁ciliary	-11.4236
MP	-11.4237
▁pretreatment	-11.4238
▁Surprisingly	-11.4247
body	-11.4248
▁reversed	-11.4251
▁dimension	-11.4251
▁Hubei	-11.4251
▁0.01)	-11.4255
▁relate	-11.4257
▁office	-11.4259
▁suppressor	-11.4259
▁outdoor	-11.426
▁writing	-11.4261
▁23]	-11.4266
▁eligible	-11.4266
▁instability	-11.4266
▁28]	-11.4267
▁"1.	-11.4269
▁inpatient	-11.4271
▁Tat	-11.4275
▁silico	-11.4275
▁discarded	-11.4281
▁endosome	-11.4281
▁ethics	-11.4283
▁boundary	-11.4283
9-	-11.4284
▁searches	-11.4288
▁6%	-11.4289
hospital	-11.4289
▁Island	-11.4292
▁hi	-11.4292
▁CTD	-11.4292
▁sec	-11.4292
▁[24,	-11.4296
▁switching	-11.4298
DCs	-11.43
▁δ	-11.4304
coronavirus	-11.4305
▁connections	-11.4309
▁BSL	-11.4315
▁aforementioned	-11.4317
▁glycine	-11.4318
▁solved	-11.4324
▁Recombinant	-11.4326
▁request	-11.4327
Wang	-11.4329
ron	-11.4331
▁MAbs	-11.4333
▁arrows	-11.4334
▁inflammasome	-11.4337
▁periphery	-11.4337
▁hemagglutination	-11.4338
▁cortical	-11.4343
▁immunoprecipitation	-11.4348
▁ducts	-11.4348
▁interested	-11.4351
▁pseudotyped	-11.4352
▁ischemic	-11.4359
ell	-11.436
▁signatures	-11.4361
ag	-11.4376
▁metastasis	-11.4378
Al	-11.4381
▁defi	-11.4382
▁RABV	-11.4386
▁declared	-11.4386
ns	-11.4387
▁hypotheses	-11.4388
▁wear	-11.4391
▁participated	-11.4391
▁etiological	-11.4393
▁2012,	-11.4398
▁luminal	-11.4401
▁TC	-11.4401
▁biomedical	-11.4404
▁employ	-11.4407
▁unnecessary	-11.4409
▁Bank	-11.4411
▁fragmentation	-11.4412
▁hit	-11.4414
3/	-11.4415
ED	-11.4417
▁rotaviruses	-11.4427
▁denotes	-11.4429
▁tandem	-11.4434
▁accessibility	-11.4435
▁mayor	-11.4437
51	-11.4442
▁SR	-11.4442
▁Sequencing	-11.4442
▁hydrophilic	-11.4445
▁axons	-11.4446
▁respirators	-11.4447
acetyl	-11.445
▁2013,	-11.4452
▁emphasized	-11.4453
▁drift	-11.4454
▁refractory	-11.4456
▁insects	-11.4459
SE	-11.446
▁import	-11.4464
▁RP	-11.4465
▁hepatocellular	-11.4466
▁adjustment	-11.4467
▁throughput	-11.4469
▁spent	-11.4472
▁detergent	-11.4472
▁constitutes	-11.4473
▁85%	-11.4473
GO	-11.4475
▁responsiveness	-11.4478
▁Genetic	-11.448
▁IHR	-11.4482
▁Vaccination	-11.4491
▁AUC	-11.4493
▁surviving	-11.4498
▁0.7	-11.45
▁motion	-11.45
▁additionally	-11.4501
▁origins	-11.4503
▁chicks	-11.4503
ting	-11.4504
▁DPI	-11.4504
▁2020	-11.4505
▁Antibody	-11.4505
▁[82]	-11.4507
▁Epstein	-11.4509
EGFP	-11.4512
▁dangerous	-11.4514
▁genotyping	-11.4518
▁university	-11.4519
▁nutrient	-11.4524
▁monomeric	-11.4526
ella	-11.4527
▁virological	-11.4527
▁[83]	-11.4528
▁[25,	-11.453
▁reaches	-11.4531
▁convenient	-11.4532
▁synthesize	-11.4532
▁PRCV	-11.4532
▁strengthen	-11.4537
▁***	-11.4537
▁Indonesia	-11.4539
SV	-11.454
▁bicarbonate	-11.454
▁0.9	-11.4543
▁ranked	-11.4543
43,	-11.4545
▁dam	-11.4545
▁irregular	-11.4547
▁attitudes	-11.4549
CR	-11.4552
▁nausea	-11.4555
▁5:	-11.4556
▁Reverse	-11.4557
▁pointed	-11.4557
▁CM	-11.4564
▁TGN	-11.457
▁ventilator	-11.457
antigen	-11.4573
▁interview	-11.4575
res	-11.4575
ities	-11.4577
▁Eastern	-11.4577
three	-11.4577
RI	-11.4578
600	-11.4579
▁cocktail	-11.4582
▁3]	-11.4582
-23	-11.4585
▁agree	-11.4586
▁eosinophil	-11.4592
severe	-11.4593
▁AIV	-11.4595
▁neutropenia	-11.4597
▁extends	-11.4597
▁ecology	-11.4597
▁(\"	-11.4598
▁poses	-11.4602
▁biosensor	-11.4603
▁seronegative	-11.4604
▁worms	-11.4605
▁99%	-11.4605
inducible	-11.462
▁27]	-11.4622
▁extending	-11.4624
▁White	-11.4625
▁encourage	-11.4625
▁Lu	-11.4625
▁lag	-11.4631
▁Ly	-11.4634
▁limb	-11.4636
▁SE	-11.4639
▁constituents	-11.464
▁mainland	-11.4641
ze	-11.4643
culture	-11.4644
▁LRTI	-11.4646
▁enlargement	-11.4649
▁1.8	-11.4651
▁haplotypes	-11.4653
▁stabilized	-11.4653
▁periodic	-11.4656
TOF	-11.4658
▁distinctive	-11.4659
▁mellitus	-11.466
▁ancestor	-11.466
▁peaked	-11.4662
▁speculated	-11.4663
▁stimulus	-11.4665
ance	-11.4668
▁-/	-11.467
▁leadership	-11.467
▁Toronto	-11.4671
▁TMPRSS	-11.4672
Box	-11.4672
▁yielding	-11.4675
▁autoimmunity	-11.4675
▁ataxia	-11.4676
▁sole	-11.4689
▁forced	-11.469
▁questionnaires	-11.4691
▁1977)	-11.4693
KO	-11.4695
▁displaying	-11.4697
▁spanning	-11.4697
▁genomics	-11.4699
order	-11.47
▁aspirate	-11.47
▁moieties	-11.4702
▁Post	-11.4702
61	-11.4702
berg	-11.4702
axis	-11.4703
▁Chemical	-11.4703
exposure	-11.4704
▁IS	-11.4704
▁BTV	-11.4707
▁intention	-11.4707
▁ordered	-11.4718
▁paid	-11.4719
▁(12	-11.4722
▁batch	-11.4723
▁esophagus	-11.4723
▁fibroblast	-11.4724
▁shelter	-11.4725
Liu	-11.4726
▁infarction	-11.4734
strain	-11.4737
▁repeatedly	-11.4738
▁crystals	-11.4738
▁AUG	-11.4738
▁topics	-11.474
▁KSHV	-11.4742
▁thrombosis	-11.4745
▁Again	-11.4746
long	-11.4749
vol	-11.4749
▁IRE	-11.4755
▁Box	-11.4761
Influenza	-11.4763
▁1978)	-11.4763
▁owner	-11.4764
Viruses	-11.4765
▁myocarditis	-11.4766
▁[84]	-11.4766
▁Proteins	-11.4767
ak	-11.4768
▁MEM	-11.4768
PP	-11.4769
▁nutrients	-11.4771
▁reproducibility	-11.4771
▁spillover	-11.4773
▁phages	-11.4776
Ser	-11.4779
▁usefulness	-11.478
ano	-11.4783
apoptotic	-11.4783
MHC	-11.4785
▁flows	-11.4786
▁∼	-11.4787
▁penetrate	-11.4791
▁FECV	-11.4792
▁synthase	-11.4793
10.1371/	-11.4794
▁inducible	-11.4795
▁Antibodies	-11.4796
▁stranded	-11.4796
▁Web	-11.4797
▁Figs	-11.4799
▁diarrheal	-11.4799
▁impair	-11.4799
▁remarkably	-11.4803
▁confluent	-11.4804
▁Government	-11.4805
▁polyacrylamide	-11.4805
▁guideline	-11.4806
▁suffered	-11.4806
▁deleterious	-11.4809
▁Bacillus	-11.481
▁planned	-11.481
▁sequelae	-11.481
▁managers	-11.4811
▁crises	-11.4812
resolution	-11.4814
▁syndromic	-11.4815
▁electrical	-11.4818
▁intravascular	-11.4819
tic	-11.4821
▁HepG	-11.4822
▁dealing	-11.4825
▁peptidase	-11.4829
ación	-11.4829
▁mosaic	-11.483
ique	-11.4831
▁phenomena	-11.4836
▁discrimination	-11.4836
▁ruled	-11.4839
▁creation	-11.4841
▁antiretroviral	-11.4842
▁Aedes	-11.4842
▁wounds	-11.4844
▁Lesions	-11.4845
▁SO	-11.4847
NH	-11.4848
@	-11.4849
▁syncytia	-11.4849
▁Infected	-11.485
▁recombinants	-11.4851
▁resuscitation	-11.4852
▁PARP	-11.4854
▁104	-11.4862
▁nucleolar	-11.4863
66	-11.4864
ek	-11.4864
▁unstable	-11.4869
▁bronchiectasis	-11.4873
▁1975	-11.4878
▁simian	-11.488
▁highlighting	-11.488
▁sa	-11.4881
▁polar	-11.4881
▁felt	-11.4885
▁endpoint	-11.4889
▁smear	-11.489
▁Santa	-11.4892
▁recall	-11.4893
▁Sendai	-11.4896
▁Test	-11.4899
enfant	-11.4899
▁socio	-11.4899
▁heated	-11.4902
▁accommodate	-11.4903
▁(21)	-11.4904
St	-11.4905
▁paciente	-11.4908
ted	-11.4908
▁immunoassay	-11.4908
▁ND	-11.4913
▁mitigate	-11.4913
▁bien	-11.4914
▁appetite	-11.4916
led	-11.4918
▁Cu	-11.4918
▁nitrocellulose	-11.4922
▁mitigation	-11.4922
▁ré	-11.4922
▁metagenomic	-11.4924
04	-11.4924
▁subtle	-11.4927
▁inactivate	-11.4928
▁homogenized	-11.4933
▁differently	-11.4934
▁ampicillin	-11.4934
▁differing	-11.4938
▁RVFV	-11.4941
▁altering	-11.4941
▁interpret	-11.4941
stained	-11.4942
▁character	-11.4942
▁delays	-11.4943
▁(+)	-11.4948
▁29]	-11.495
▁{	-11.4954
▁SARI	-11.4954
▁noticed	-11.4956
▁AAV	-11.4956
▁2.1	-11.4959
▁GTP	-11.496
-4-	-11.4961
we	-11.4962
▁proton	-11.4964
▁ca	-11.4965
▁antagonists	-11.4965
▁lymphopenia	-11.4965
▁bioactive	-11.4966
▁sensitization	-11.4966
▁pups	-11.497
▁thyroid	-11.4973
▁fly	-11.4973
▁GS	-11.4975
▁strategic	-11.4976
▁relapse	-11.4976
FBS	-11.4977
Gal	-11.4977
▁suspect	-11.4977
▁closest	-11.498
▁span	-11.4981
▁progressively	-11.4984
GI	-11.4984
▁briefly	-11.4986
1.1	-11.4988
▁»	-11.499
Both	-11.4992
▁Thermo	-11.4994
▁Long	-11.4998
brain	-11.4998
▁bis	-11.4999
Se	-11.4999
▁é	-11.5001
▁eating	-11.5002
NK	-11.5002
▁lobes	-11.5004
▁starts	-11.5008
▁1982;	-11.501
▁counting	-11.5013
Ad	-11.5013
▁turned	-11.5013
▁efficiencies	-11.5014
▁biliary	-11.5016
▁ventilated	-11.5016
▁FEV	-11.5017
ard	-11.5018
▁producers	-11.502
▁going	-11.502
▁transduced	-11.5024
▁7-	-11.5026
▁captive	-11.5026
▁sarcoma	-11.5027
▁forest	-11.5028
▁vertebrates	-11.5034
3.1	-11.504
▁Kenya	-11.5042
int	-11.5042
▁nucleolus	-11.5042
▁30]	-11.5043
limited	-11.5047
▁enrollment	-11.5048
▁implying	-11.5051
42	-11.5052
▁telephone	-11.5055
▁stabilize	-11.5056
▁GRFT	-11.506
Given	-11.5061
▁DUB	-11.5062
▁108	-11.5063
▁solubility	-11.5065
▁AG	-11.5066
▁schedule	-11.5069
▁analogue	-11.5073
▁bloodstream	-11.5076
▁[27,	-11.5087
▁Wu	-11.5088
▁radio	-11.509
-30	-11.5092
▁unvaccinated	-11.5094
▁Per	-11.5095
▁relating	-11.5097
▁Affected	-11.5098
▁propensity	-11.5102
▁deemed	-11.5102
▁EGFR	-11.5103
▁sono	-11.5104
▁restored	-11.5105
▁dimers	-11.5108
▁sperm	-11.5111
▁methodologies	-11.5114
▁specificities	-11.5119
▁leur	-11.5123
▁board	-11.5125
▁dimerization	-11.5126
▁distilled	-11.5126
▁grave	-11.5128
▁[85]	-11.513
▁freeze	-11.5131
▁war	-11.5134
▁weighted	-11.5134
▁wildtype	-11.5136
▁Invitrogen	-11.5137
▁Tissue	-11.5137
▁manifested	-11.5138
▁portions	-11.5139
▁Toll	-11.5141
▁Mouse	-11.5143
▁gradual	-11.5145
▁BC	-11.5145
▁noteworthy	-11.5147
▁rinsed	-11.5147
▁probed	-11.5148
▁Text	-11.5149
▁hormones	-11.515
▁aberrant	-11.515
▁collaborative	-11.5151
Treatment	-11.5155
▁villous	-11.5159
02	-11.5161
▁MARV	-11.5162
▁suppresses	-11.5163
▁Sub	-11.5163
▁SH	-11.5164
▁Egypt	-11.517
▁CSFV	-11.517
According	-11.517
active	-11.5176
▁physiologic	-11.5185
▁cerebrospinal	-11.5186
▁generations	-11.519
▁Biotech	-11.5194
▁adenosine	-11.5197
▁cyst	-11.5201
▁postoperative	-11.5201
▁Ex	-11.5202
▁Pan	-11.5206
▁trace	-11.5207
▁declare	-11.5209
▁3.2	-11.5211
▁HN	-11.5212
▁8.0	-11.5213
vi	-11.5213
▁vulnerability	-11.5214
▁2010,	-11.5215
▁septicemia	-11.522
▁tubules	-11.522
▁NTD	-11.522
▁metastatic	-11.522
▁Is	-11.5221
▁PCT	-11.5225
▁constitutively	-11.5227
▁vision	-11.5227
▁Full	-11.5227
▁dams	-11.5229
▁conferred	-11.5232
▁obviously	-11.5232
▁exactly	-11.5233
▁colds	-11.5236
▁referral	-11.524
▁confirms	-11.524
▁peroxide	-11.5241
MRSA	-11.5241
▁pivotal	-11.5242
▁IHC	-11.5243
▁blots	-11.5243
▁Infections	-11.5244
▁German	-11.5245
▁views	-11.5245
health	-11.5249
tes	-11.525
▁Fever	-11.5251
▁attributes	-11.5251
▁flat	-11.5251
▁weaned	-11.5252
▁128	-11.5254
▁relations	-11.5255
ies	-11.5255
SC	-11.5264
▁forma	-11.5264
▁stools	-11.5269
purified	-11.527
▁colic	-11.5271
▁DF	-11.5271
▁intraperitoneal	-11.5274
▁histone	-11.5275
▁projections	-11.528
▁dishes	-11.5282
▁paramyxoviruses	-11.5282
▁(40	-11.5286
▁devastating	-11.5286
▁biologic	-11.529
▁polysaccharide	-11.5292
▁indistinguishable	-11.5292
▁exceed	-11.5292
▁IB	-11.5292
▁GDP	-11.5293
▁Journal	-11.5299
▁moins	-11.5299
▁evade	-11.5301
▁contaminant	-11.5302
▁115	-11.5303
▁Asn	-11.5303
▁deficiencies	-11.5303
TC	-11.5304
▁Binding	-11.5306
▁visualize	-11.5308
▁binary	-11.5309
▁concentrate	-11.531
▁me	-11.5312
ina	-11.5315
▁physiology	-11.5315
▁preserved	-11.5317
▁commensal	-11.5319
▁Fluor	-11.5319
▁encephalopathy	-11.5321
▁spray	-11.5321
▁debe	-11.5321
▁monomers	-11.5321
▁MN	-11.5324
▁aggregate	-11.5327
001	-11.5327
▁sous	-11.5331
▁demands	-11.5332
▁31]	-11.5334
ut	-11.5334
▁Lassa	-11.5339
▁discussions	-11.534
▁Genome	-11.5341
drug	-11.5342
▁Lin	-11.5342
▁(2006)	-11.5347
▁(22)	-11.5347
ni	-11.5347
▁pretreated	-11.5347
les	-11.5348
myc	-11.535
Total	-11.5353
▁HEPES	-11.5355
▁ALT	-11.5355
▁107	-11.5357
▁pollutants	-11.5357
▁tried	-11.5358
▁ancestral	-11.5362
▁TMEV	-11.5364
▁distinction	-11.5366
▁(2003)	-11.5368
surface	-11.5368
▁responsive	-11.5371
▁picornavirus	-11.5375
▁harboring	-11.5375
▁extinction	-11.5376
tRNA	-11.538
HP	-11.5383
▁immunosuppressed	-11.5383
▁dioxide	-11.5383
▁7%	-11.5386
▁pale	-11.5386
▁issued	-11.5387
▁carries	-11.5388
▁antitumor	-11.5395
▁provincial	-11.5395
▁attending	-11.5396
▁tion	-11.5397
▁interplay	-11.54
▁undergoes	-11.54
Scheme	-11.5403
▁palm	-11.5405
▁oligomerization	-11.5407
▁Fe	-11.5411
▁British	-11.5412
▁discriminate	-11.5412
GA	-11.5412
▁argued	-11.5414
▁surprisingly	-11.5414
PC	-11.5415
net	-11.5416
▁inherited	-11.5417
▁deduced	-11.5418
▁GII	-11.5419
▁Taq	-11.5419
▁encouraged	-11.542
▁mimics	-11.5421
▁HS	-11.5421
▁arrangement	-11.5422
▁lymphadenopathy	-11.5422
▁[86]	-11.5422
▁matrices	-11.5422
▁SFV	-11.5428
▁ATF	-11.5431
▁additive	-11.5433
▁[87]	-11.5434
▁superfamily	-11.5434
▁constitutive	-11.5438
UV	-11.5438
workers	-11.5438
▁macaque	-11.5439
▁master	-11.544
▁generic	-11.5442
47	-11.5446
▁River	-11.5446
▁0.05%	-11.5448
ke	-11.5449
▁[26,	-11.5449
▁pharyngeal	-11.5453
▁enormous	-11.5455
▁page	-11.5456
▁monocytogenes	-11.5457
▁alternate	-11.5461
▁welfare	-11.5462
▁slippery	-11.5464
▁Up	-11.5468
▁mutational	-11.5468
▁encounter	-11.5469
▁abolished	-11.5469
▁socioeconomic	-11.5474
▁2.7	-11.5475
▁tasks	-11.5477
▁lasting	-11.5481
translational	-11.5483
63,	-11.5485
▁trait	-11.5486
▁Multi	-11.5488
▁antigenically	-11.5488
▁antigenicity	-11.5488
▁mandatory	-11.5491
▁confounding	-11.5492
▁germ	-11.5492
3).	-11.5493
▁citrate	-11.5493
67	-11.5493
▁TBK	-11.5496
▁Marburg	-11.5498
97]	-11.5498
ana	-11.5499
▁phagocytic	-11.5499
▁MCP	-11.55
▁6.0	-11.5502
▁APCs	-11.5505
FL	-11.5507
ka	-11.551
▁PRRS	-11.5514
▁booster	-11.5516
Gene	-11.5516
▁authority	-11.5517
▁Cross	-11.5517
72	-11.5519
▁resembles	-11.5521
▁rising	-11.5522
▁HD	-11.5524
-10,	-11.5526
▁molar	-11.5527
▁Management	-11.5527
▁deficits	-11.5528
▁Mg	-11.5529
▁linking	-11.5529
130	-11.553
ham	-11.5532
▁subfamily	-11.5532
▁MEGA	-11.5533
▁amantadine	-11.5538
▁object	-11.5538
▁raising	-11.5539
▁shortly	-11.5539
mi	-11.5541
▁Collectively	-11.5545
▁Cats	-11.5545
ty	-11.5546
▁ME	-11.5546
▁scattered	-11.555
▁Risk	-11.5552
▁(18	-11.5553
▁rescued	-11.5554
▁ligated	-11.5556
▁operate	-11.5557
▁handle	-11.5558
▁screens	-11.5561
▁inconsistent	-11.5563
▁retrospectively	-11.5566
▁Klebsiella	-11.5566
▁vor	-11.5569
▁analyse	-11.5572
▁arranged	-11.5573
▁permeabilized	-11.5573
▁Time	-11.5574
▁Service	-11.5577
▁[88]	-11.5578
▁chronically	-11.5579
ATPase	-11.5582
▁embryonated	-11.5584
▁reproducible	-11.5584
▁er	-11.5584
MG	-11.5589
▁discrepancy	-11.5589
▁cytochrome	-11.559
▁3.1	-11.5595
▁integrate	-11.5597
±	-11.5602
▁surge	-11.5602
▁Phe	-11.5605
▁learn	-11.5605
Hu	-11.5607
▁Union	-11.5608
▁Vpu	-11.5614
▁Au	-11.5617
▁spherical	-11.5619
▁spreads	-11.562
▁kann	-11.5624
▁suis	-11.5628
▁agency	-11.563
▁HeV	-11.5632
▁laws	-11.5633
▁sensory	-11.5633
▁MLV	-11.5634
TG	-11.5635
▁FL	-11.5637
▁cleaves	-11.564
▁3000	-11.564
del	-11.564
▁multocida	-11.5641
▁sounds	-11.5645
▁airline	-11.5645
art	-11.5648
cr	-11.5651
▁32]	-11.5652
▁Á	-11.5655
▁horseradish	-11.566
gli	-11.5661
▁Secondary	-11.5661
▁isoform	-11.5666
▁NoV	-11.5666
▁3-4	-11.567
▁ciliated	-11.5673
▁TEM	-11.5674
▁arms	-11.5676
▁deterioration	-11.5676
▁cassette	-11.5682
▁Cat	-11.5682
▁boundaries	-11.5682
animal	-11.5693
CNS	-11.5694
▁granulomas	-11.5695
▁DA	-11.5697
▁suppressing	-11.5698
ey	-11.57
aged	-11.5705
▁wavelength	-11.5708
▁Las	-11.5709
▁bridge	-11.5712
▁Plasma	-11.5714
approximately	-11.5716
▁smears	-11.5721
enveloped	-11.5722
▁cotton	-11.5724
▁effusions	-11.5725
viruses	-11.5725
▁permits	-11.5725
▁(<	-11.5725
▁integrin	-11.5727
▁HT	-11.5728
▁optimum	-11.573
▁Oral	-11.5733
▁cargo	-11.5734
▁2-4	-11.5736
▁priorities	-11.5743
▁ABI	-11.5743
FP	-11.5744
▁hope	-11.5744
▁Diagnostic	-11.5745
gal	-11.5746
▁(2007)	-11.5746
▁NLRP	-11.5749
▁immunohistochemical	-11.5751
147	-11.5753
▁disability	-11.5753
▁vRNA	-11.5754
▁fifth	-11.5755
Lee	-11.5756
days	-11.5761
sized	-11.5762
▁multidrug	-11.5765
▁About	-11.5767
five	-11.5769
▁Pacific	-11.5771
▁días	-11.5771
▁negligible	-11.5772
https	-11.5773
EBOV	-11.5775
▁sound	-11.5776
▁malignancy	-11.5776
emia	-11.5777
▁(23)	-11.5778
▁rafts	-11.5779
▁derive	-11.5781
▁sewage	-11.5782
▁innovative	-11.5782
▁Initially	-11.5787
▁mumps	-11.5789
▁Rapid	-11.579
▁insertions	-11.5795
▁dsDNA	-11.5796
DM	-11.5798
▁MyD	-11.58
▁bundle	-11.5804
-27	-11.5807
IQR	-11.5808
▁filovirus	-11.5811
▁breakdown	-11.5812
▁Lung	-11.5813
Ј	-11.5818
▁paradigm	-11.5818
▁job	-11.5819
▁LB	-11.582
▁ulcer	-11.5821
▁Participants	-11.5825
ose	-11.5826
bi	-11.5826
05	-11.5827
AC	-11.5827
▁2020,	-11.5827
▁hemolytic	-11.5828
Ϫ	-11.5828
▁poverty	-11.583
▁poisoning	-11.583
▁assemble	-11.584
▁quick	-11.584
▁TRS	-11.5841
▁descriptive	-11.5842
▁argue	-11.5845
▁duck	-11.5846
▁mmHg	-11.5848
▁persists	-11.585
▁flies	-11.585
▁LDV	-11.5851
nm	-11.5851
▁modules	-11.5853
ement	-11.5853
▁biotin	-11.5854
▁publicly	-11.5858
▁9)	-11.5867
▁Later	-11.587
▁denote	-11.5878
▁progenitor	-11.5879
▁103	-11.5882
▁Air	-11.5885
pol	-11.5886
epending	-11.5888
▁draw	-11.5889
LPS	-11.5889
▁beings	-11.5893
▁cycling	-11.5897
Seq	-11.5898
▁PF	-11.5902
▁averaged	-11.5902
▁Met	-11.5902
▁ll	-11.5904
▁traditionally	-11.5906
▁duodenum	-11.5908
▁[90]	-11.5914
▁meaningful	-11.5914
CLpro	-11.5915
▁student	-11.5919
▁island	-11.5921
▁subjective	-11.5924
presenting	-11.5929
▁TX	-11.5929
▁pipeline	-11.5932
▁looking	-11.5932
▁globe	-11.5933
▁stratified	-11.5933
▁reality	-11.5937
▁attitude	-11.5939
▁Pearson	-11.5941
▁infiltrating	-11.5942
▁statement	-11.5943
▁CsA	-11.5944
▁phospho	-11.5945
▁funds	-11.5946
▁microorganism	-11.5947
▁plane	-11.5947
03	-11.5948
▁mois	-11.5948
▁[89]	-11.5949
▁incubator	-11.595
▁Belgium	-11.595
▁tags	-11.595
▁simulate	-11.5952
▁immunoblotting	-11.5955
▁bites	-11.5955
▁defenses	-11.5956
▁(2009)	-11.5956
▁MNV	-11.5958
▁transform	-11.5958
Me	-11.5959
▁Lo	-11.5964
▁280	-11.5964
▁coordinate	-11.5965
▁traumatic	-11.5965
12,	-11.5966
mRNA	-11.5967
▁adenoviral	-11.5968
▁automatically	-11.5968
Cas	-11.5968
▁Plasmodium	-11.5968
▁HCW	-11.5971
129	-11.5972
▁replacing	-11.5973
▁Ontario	-11.5974
▁voluntary	-11.598
▁1985	-11.598
▁ingested	-11.5981
ato	-11.5983
▁habitat	-11.5984
▁allocation	-11.5986
▁remission	-11.5987
▁VN	-11.599
▁technological	-11.5996
Arg	-11.5997
CM	-11.5997
▁compression	-11.5999
▁2).	-11.5999
▁DMVs	-11.6
▁exosomes	-11.6004
▁decontamination	-11.6004
▁corresponded	-11.6008
▁purulent	-11.6009
▁sophisticated	-11.601
▁resilience	-11.601
▁-5	-11.601
▁myalgia	-11.6011
▁foal	-11.6013
▁(24)	-11.6014
-4,	-11.6016
▁prompted	-11.6018
▁subcutaneously	-11.602
▁reciprocal	-11.602
▁calculating	-11.6022
▁remainder	-11.6022
▁magnification	-11.6023
▁composite	-11.6024
▁visceral	-11.6025
▁serving	-11.6028
▁MTT	-11.6029
▁particulate	-11.6029
2%	-11.603
▁RD	-11.6032
▁VR	-11.6032
▁originate	-11.6034
▁carcinomas	-11.6034
HCoV	-11.6035
amine	-11.6036
▁IF	-11.6037
IR	-11.604
▁titrated	-11.604
▁Madison	-11.6041
inoculation	-11.6042
▁valve	-11.6042
▁responders	-11.6044
▁positives	-11.6045
▁incubating	-11.6047
132	-11.6047
ati	-11.6047
▁macrolide	-11.6048
▁dominated	-11.6049
depth	-11.605
▁designs	-11.6051
▁eukaryotes	-11.6051
layer	-11.6056
ring	-11.6058
▁bacteriophage	-11.606
▁eastern	-11.606
▁cages	-11.6062
MIC	-11.6064
▁Protection	-11.6065
▁editing	-11.6066
Step	-11.6066
▁placental	-11.6069
▁folded	-11.607
▁conservative	-11.607
▁lactation	-11.6071
▁streptavidin	-11.6072
▁revealing	-11.6073
▁Corporation	-11.6076
ng	-11.6077
à	-11.6077
IN	-11.6079
▁DAPI	-11.6082
▁irrespective	-11.6083
▁3.3	-11.6083
▁evaluations	-11.6084
▁33]	-11.6084
▁word	-11.6086
160	-11.6087
0,	-11.609
molecular	-11.6091
▁36]	-11.6092
▁flux	-11.6093
▁pero	-11.6094
▁2.6	-11.6098
▁BW	-11.6101
Pol	-11.6101
▁SS	-11.6104
▁RAS	-11.6104
▁5.5	-11.6106
▁fell	-11.6109
ES	-11.6118
IRF	-11.6118
▁malaise	-11.6119
IM	-11.6121
▁realistic	-11.6126
▁successive	-11.613
▁ICP	-11.6131
▁connective	-11.6131
▁Denmark	-11.6132
▁Immuno	-11.6133
▁Panel	-11.6136
affinity	-11.6136
▁Vaccine	-11.6136
▁autoantibodies	-11.6137
form	-11.6139
▁LLC	-11.6144
▁semen	-11.6145
▁explicitly	-11.6145
▁preterm	-11.6147
▁oropharyngeal	-11.615
▁coworkers	-11.6152
clone	-11.6153
▁esta	-11.6153
▁victims	-11.6153
▁lentiviral	-11.6156
ha	-11.6156
▁2016,	-11.6157
▁pen	-11.6157
▁county	-11.6158
▁Previously	-11.616
▁stromal	-11.616
ene	-11.6161
▁mediator	-11.6162
▁resembling	-11.6162
▁eosinophilia	-11.6162
go	-11.6164
▁relief	-11.6168
▁disposal	-11.6168
▁arteries	-11.6168
▁landscape	-11.617
▁113	-11.6171
▁LA	-11.6173
GS	-11.6174
▁[28,	-11.6175
▁paediatric	-11.618
▁temperate	-11.6187
▁eliminating	-11.6187
▁Ver	-11.6188
▁109	-11.6188
])	-11.6188
▁covers	-11.6189
▁2.8	-11.619
▁basolateral	-11.6191
men	-11.6192
He	-11.6193
▁ascites	-11.6193
▁canal	-11.6194
▁0.05.	-11.6195
▁covalent	-11.6196
-19	-11.6196
▁emphasize	-11.6204
▁Indian	-11.6209
▁Signs	-11.621
▁methionine	-11.6214
miR	-11.6217
ide	-11.6218
▁avoidance	-11.6219
▁Single	-11.622
▁tra	-11.6221
4/	-11.6222
▁cilia	-11.6226
invasive	-11.6227
▁aetiology	-11.6228
▁Safety	-11.6231
Ca	-11.6234
▁autophagic	-11.6234
▁τ	-11.6235
▁dropped	-11.6236
▁ovarian	-11.6236
▁familiar	-11.624
nih	-11.6243
more	-11.6243
▁1.7	-11.6247
▁lupus	-11.6248
▁uterine	-11.6249
▁voltage	-11.6249
Conclusions	-11.625
▁IKK	-11.6257
▁lipopolysaccharide	-11.6257
ε	-11.6259
▁Bat	-11.6263
reported	-11.6266
clinical	-11.6268
▁Ͻ	-11.6268
▁Leishmania	-11.6269
▁carbohydrates	-11.6269
▁catheters	-11.6271
▁vimentin	-11.6274
▁hydroxyl	-11.6275
▁neuron	-11.6276
▁fuel	-11.6277
▁combine	-11.6279
▁necessity	-11.6279
▁Su	-11.6279
▁importante	-11.6285
▁denoted	-11.6285
▁[92]	-11.6286
CP	-11.6286
▁Microbiology	-11.6286
▁papain	-11.6286
▁worsening	-11.6287
▁radical	-11.6288
▁].	-11.6288
▁0%	-11.6288
▁say	-11.629
▁positioned	-11.6291
▁colored	-11.6292
▁Akt	-11.6297
▁progresses	-11.6297
▁War	-11.6298
▁postmortem	-11.6299
▁grey	-11.6302
▁conditional	-11.6303
Three	-11.6303
▁predispose	-11.6303
▁Agency	-11.6305
▁Applied	-11.6306
▁doctor	-11.6307
▁chaperone	-11.6307
▁[91]	-11.6311
▁112	-11.6314
▁Pa	-11.6315
ción	-11.6315
▁coordinates	-11.6316
▁102	-11.6317
▁facing	-11.6318
▁biased	-11.6318
▁pump	-11.6323
▁dividing	-11.6324
▁Rev	-11.6326
▁BBB	-11.6327
▁pelleted	-11.6327
Overall	-11.6328
▁Sin	-11.6328
▁folds	-11.6329
Ig	-11.6329
▁covalently	-11.6333
▁pathophysiology	-11.6335
▁nasopharynx	-11.6336
▁confi	-11.6337
▁Objectives	-11.6344
▁contraction	-11.6345
▁arises	-11.635
▁pay	-11.6351
▁2.3	-11.6354
immunized	-11.6358
▁visiting	-11.6358
▁quasispecies	-11.6361
▁PDZ	-11.6363
▁72°	-11.6363
▁trimeric	-11.6364
Di	-11.6364
▁rationale	-11.6365
▁orange	-11.6366
▁modulated	-11.637
Previous	-11.637
▁helicases	-11.6371
▁FA	-11.6371
▁101	-11.6372
▁VAP	-11.6375
▁anchor	-11.6375
▁BP	-11.6376
▁belonged	-11.6378
▁degenerative	-11.638
CS	-11.6385
▁glutathione	-11.6386
▁ssDNA	-11.6388
▁naked	-11.6392
450	-11.6392
Conclusion	-11.6393
▁(1,	-11.6394
▁inverse	-11.6398
▁collective	-11.6403
▁reliably	-11.6404
▁agriculture	-11.6404
▁[93]	-11.6404
▁veterinarian	-11.6407
▁34]	-11.6408
▁ij	-11.6408
▁anomalies	-11.6409
challenge	-11.6409
▁homes	-11.6411
▁stretch	-11.6411
▁injured	-11.6413
mouth	-11.6414
▁35]	-11.6416
▁latest	-11.6416
▁AdV	-11.6422
▁jours	-11.6423
▁stringent	-11.6428
▁entity	-11.643
▁GraphPad	-11.6431
▁journals	-11.6433
▁Biological	-11.6433
▁Identification	-11.6434
▁engaged	-11.644
-40	-11.6441
▁vehicles	-11.6442
▁Scale	-11.6444
▁packed	-11.6444
▁Foxp	-11.6445
run	-11.6445
▁electrode	-11.6448
▁maximize	-11.6448
▁experiencing	-11.6449
▁informative	-11.6451
▁Bei	-11.6452
▁pets	-11.6452
▁reassortment	-11.6455
▁equi	-11.6456
▁Rotavirus	-11.6456
▁sc	-11.6457
RS	-11.6458
▁reflux	-11.6458
▁(25)	-11.6458
▁fibrous	-11.6461
▁kcal	-11.6464
▁ETEC	-11.6465
JHM	-11.6467
▁(2010)	-11.6468
cold	-11.6469
▁Bi	-11.6469
▁microenvironment	-11.647
▁metagenomics	-11.6471
▁multiplication	-11.6474
▁HAE	-11.6479
Smith	-11.6479
HC	-11.6482
▁existed	-11.649
▁cecum	-11.6493
case	-11.6493
SA	-11.6494
▁(26)	-11.6497
▁let	-11.6498
▁aerosolized	-11.6498
competent	-11.6498
133	-11.6499
▁cortisol	-11.65
▁weaker	-11.6501
▁infer	-11.6501
▁shifted	-11.6504
▁CE	-11.6505
▁pET	-11.6505
HB	-11.6506
can	-11.6508
)]	-11.6508
▁MF	-11.6513
▁London	-11.6513
▁rotation	-11.6514
▁cyclin	-11.6517
▁protozoa	-11.6517
▁ingredients	-11.6519
▁abnormality	-11.652
▁HSP	-11.6521
▁legislation	-11.6525
▁vacuoles	-11.6525
▁Par	-11.653
▁reside	-11.6531
▁quercetin	-11.6532
▁WBC	-11.6532
▁refinement	-11.6534
▁131	-11.6535
▁111	-11.6535
▁[29,	-11.6535
▁totally	-11.6535
▁explains	-11.6539
▁HC	-11.6544
▁campaigns	-11.6546
▁EP	-11.655
▁Inhibition	-11.6553
▁HK	-11.6555
▁invade	-11.6556
Ma	-11.6557
▁neglected	-11.6558
▁scans	-11.6559
sh	-11.6563
▁acquiring	-11.6565
5%	-11.6565
▁undergone	-11.657
08	-11.657
▁strongest	-11.6573
▁transit	-11.6574
▁BHV	-11.6575
▁acceptance	-11.6575
SH	-11.6578
▁Yu	-11.6579
▁0.01).	-11.6579
▁oxygenation	-11.658
mers	-11.658
▁primed	-11.6581
Con	-11.6583
-8,	-11.6586
fed	-11.659
▁síntomas	-11.659
▁expiratory	-11.6591
▁creates	-11.6592
▁night	-11.6593
▁Therapie	-11.6595
▁doing	-11.6595
▁invading	-11.6601
html	-11.6602
▁exons	-11.6603
▁immunoprecipitated	-11.6603
▁metrics	-11.6607
ons	-11.6607
▁acutely	-11.6607
▁quarantined	-11.6608
▁diagram	-11.6611
MEM	-11.6612
▁fungus	-11.6614
▁isothermal	-11.6616
▁Arabian	-11.6618
▁assignment	-11.6619
▁grew	-11.6621
▁electrochemical	-11.6621
▁villus	-11.6621
▁calving	-11.6622
▁spectral	-11.6623
▁influx	-11.6628
▁VEGF	-11.6629
▁SIR	-11.663
▁searching	-11.6632
▁aegypti	-11.6633
▁cytoskeleton	-11.6633
SI	-11.6635
▁Dogs	-11.6648
▁identifies	-11.6649
OS	-11.6652
▁radiological	-11.6652
sided	-11.6653
▁Ac	-11.6653
Ub	-11.6656
▁fetuses	-11.6656
▁surrogate	-11.6657
▁costly	-11.6657
CAT	-11.6658
Is	-11.6658
▁XBP	-11.666
▁duty	-11.6661
▁GAS	-11.6665
▁Response	-11.6665
most	-11.6665
▁Cancer	-11.6667
▁flanking	-11.6668
▁170	-11.6671
▁Immune	-11.6672
▁merely	-11.6673
▁Ala	-11.6674
MT	-11.6677
▁doit	-11.6682
15,	-11.6684
▁Her	-11.6684
▁drivers	-11.6688
▁joints	-11.669
▁exploration	-11.669
Following	-11.6691
▁Environmental	-11.6692
98	-11.6694
▁hallmark	-11.6696
helical	-11.6697
protection	-11.6697
▁milder	-11.6697
Molecular	-11.6697
103	-11.6698
▁granular	-11.6699
▁leaders	-11.67
▁holds	-11.6701
▁bacilli	-11.6705
▁TF	-11.6707
▁newborns	-11.6708
▁restore	-11.6712
▁leaf	-11.6712
▁finger	-11.6715
▁tetracycline	-11.6716
▁door	-11.6716
▁HL	-11.6717
▁también	-11.6718
▁alternatives	-11.672
ARDS	-11.6722
▁exceeded	-11.6726
▁VEEV	-11.6727
▁thresholds	-11.6728
▁incidents	-11.6728
▁hantavirus	-11.6729
GT	-11.6731
▁tagged	-11.6731
▁consumed	-11.6732
▁2019)	-11.6733
▁RPA	-11.6733
▁polyproteins	-11.6736
▁Collection	-11.6738
chi	-11.674
▁funded	-11.6742
▁aussi	-11.6743
▁Jan	-11.6745
▁8-	-11.6747
▁sorted	-11.6747
▁constantly	-11.6749
ranging	-11.675
▁straightforward	-11.675
▁detects	-11.6753
matched	-11.6754
▁SGs	-11.6754
▁patent	-11.6754
▁spiked	-11.6756
▁histidine	-11.6757
trans	-11.6758
▁turkey	-11.6762
▁́	-11.6763
FITC	-11.6764
▁impacted	-11.6764
▁sans	-11.6765
▁Calves	-11.6766
▁colonized	-11.6767
▁commitment	-11.6767
▁estudio	-11.6767
163	-11.6769
▁bedding	-11.677
pone	-11.6771
ICU	-11.6772
▁antiinflammatory	-11.6773
▁opened	-11.6774
▁resting	-11.6774
▁limbs	-11.6775
▁Ã	-11.6777
▁allogeneic	-11.6783
▁disposable	-11.6783
▁campaign	-11.6787
▁waves	-11.6788
▁pneumonitis	-11.6796
TT	-11.6798
▁solve	-11.6799
▁Quantitative	-11.6799
▁provider	-11.68
▁Primer	-11.68
▁adenocarcinoma	-11.6801
▁persisted	-11.6802
▁ε	-11.6804
▁histamine	-11.6811
▁borders	-11.6815
▁malignancies	-11.6815
ial	-11.6815
▁danger	-11.682
ck	-11.6823
▁stroma	-11.6824
DI	-11.6825
▁Region	-11.683
▁enfants	-11.6832
oma	-11.6833
▁(200	-11.6835
▁PubMed	-11.6836
0)	-11.6837
▁posed	-11.6838
▁Shigella	-11.6843
▁cultivation	-11.6843
▁crypts	-11.6844
DENV	-11.6847
▁uterus	-11.6848
po	-11.6849
1;	-11.685
▁roots	-11.6851
▁emergent	-11.6851
▁Med	-11.6851
AR	-11.6855
▁filtering	-11.6857
Zhang	-11.6861
▁Drosophila	-11.6862
gamma	-11.6863
▁salmonellosis	-11.6868
▁lie	-11.6869
▁subpopulations	-11.6869
▁conflicts	-11.687
NT	-11.6871
SF	-11.6879
▁faced	-11.688
▁0.2%	-11.688
▁drops	-11.6881
▁hybridized	-11.6884
▁ns	-11.6885
Acute	-11.6887
3%	-11.6887
See	-11.6888
▁Ho	-11.689
▁epithelia	-11.6891
-25	-11.6891
▁Hsp	-11.6893
▁zanamivir	-11.6895
▁dilated	-11.6895
▁waiting	-11.6896
▁homogenates	-11.6897
▁polarized	-11.6898
▁0.02	-11.6898
▁ECMO	-11.6901
▁row	-11.6903
pl	-11.6903
▁Es	-11.6903
▁σ	-11.6905
▁histopathologic	-11.6906
▁Ref	-11.6906
▁pseudovirus	-11.6907
▁discontinuous	-11.6908
▁TP	-11.6909
▁minority	-11.6909
▁oligomers	-11.6912
▁dehydrated	-11.6915
▁phenol	-11.6917
▁BALF	-11.6917
▁exclusive	-11.692
▁cognate	-11.6922
▁excitation	-11.6922
▁bronchi	-11.6924
▁MDR	-11.6927
▁employment	-11.6929
▁pmol	-11.693
▁innovation	-11.6933
▁arthropod	-11.6933
▁cerevisiae	-11.6934
▁accompanying	-11.6934
▁makers	-11.6936
▁Latin	-11.6937
▁Between	-11.6939
▁reinfection	-11.6939
▁responsibilities	-11.6941
▁bactericidal	-11.6941
▁VACV	-11.6943
▁asymmetric	-11.6945
density	-11.6947
▁rice	-11.6948
Next	-11.6953
▁rheumatoid	-11.6954
▁recycling	-11.6954
▁documentation	-11.6955
ors	-11.6955
box	-11.6957
▁diagnosing	-11.6961
▁Sierra	-11.6961
▁6.5	-11.6963
▁calicivirus	-11.6965
▁IE	-11.6966
▁Where	-11.6967
▁2015.	-11.697
▁spikes	-11.6971
rat	-11.6971
▁LP	-11.6974
edu	-11.6975
▁ancient	-11.6976
▁irreversible	-11.6981
▁humidified	-11.6981
▁PDB	-11.6986
▁journal	-11.6986
▁hematoxylin	-11.6988
▁am	-11.6989
▁inferior	-11.6989
▁LF	-11.699
▁importation	-11.6994
▁Reference	-11.6995
▁SM	-11.6997
▁(2008)	-11.6998
▁stand	-11.6999
▁homo	-11.6999
▁biogenesis	-11.7001
▁uncoating	-11.7001
▁knock	-11.7003
oid	-11.7004
▁FHV	-11.7006
▁pieces	-11.7006
▁1950	-11.7007
▁1976)	-11.7007
▁MARC	-11.7008
der	-11.7008
▁coded	-11.701
▁basement	-11.7012
▁Para	-11.7014
▁Nano	-11.7015
▁ver	-11.7016
▁TiO	-11.7018
▁testis	-11.7018
ph	-11.702
▁Hg	-11.7021
777	-11.7022
▁accelerate	-11.7023
▁lose	-11.7025
▁syphilis	-11.7034
▁rigid	-11.7038
ä	-11.7041
▁estos	-11.7043
▁eosin	-11.7045
▁Unit	-11.7049
▁herbs	-11.7051
4),	-11.7058
▁respiration	-11.706
▁ecosystem	-11.706
lived	-11.7063
▁LDH	-11.7064
More	-11.7068
▁HAI	-11.7068
▁␤-	-11.7068
fixed	-11.7068
▁summarize	-11.707
▁disinfectants	-11.7072
Patients	-11.7073
Gly	-11.7074
▁exerts	-11.7075
▁Bangladesh	-11.7075
restricted	-11.7079
▁hierarchical	-11.708
▁predisposing	-11.7081
▁weakly	-11.7083
▁(27)	-11.7084
▁muscular	-11.7085
▁recruits	-11.7087
▁encouraging	-11.709
▁CFTR	-11.709
ever	-11.7092
▁ASC	-11.7094
▁Common	-11.7095
▁Poisson	-11.7095
▁cours	-11.7096
▁ascertain	-11.7098
▁messages	-11.7099
▁meetings	-11.7101
▁ready	-11.7103
▁cDNAs	-11.7105
▁cavities	-11.7108
▁workforce	-11.7108
▁splice	-11.7111
▁→	-11.7112
about	-11.7116
▁administer	-11.7117
▁versions	-11.7117
HRP	-11.7117
▁Sanger	-11.7118
DL	-11.7118
▁feel	-11.7118
▁rVSV	-11.7119
▁virtual	-11.7121
▁germline	-11.7122
▁agglutination	-11.7124
▁dot	-11.7125
▁consuming	-11.7126
▁-10	-11.7127
▁bioavailability	-11.7128
Leu	-11.7129
▁compete	-11.7131
▁overexpressed	-11.7135
▁perfect	-11.7135
-3′	-11.7135
▁expresses	-11.7136
▁quantitatively	-11.7138
▁surfactant	-11.7142
▁Plus	-11.7145
▁iNOS	-11.7145
ger	-11.7146
▁handled	-11.7147
HV	-11.7147
▁civil	-11.7148
▁Services	-11.7149
NPs	-11.715
▁lacked	-11.7152
1%	-11.7152
▁UN	-11.7156
400	-11.7159
▁fluctuations	-11.7159
▁quantitation	-11.7162
▁excreted	-11.7163
▁Evaluation	-11.7166
▁want	-11.7166
▁rigorous	-11.7167
▁residence	-11.7168
▁scarce	-11.7168
▁Thr	-11.7168
▁truly	-11.7169
▁relatives	-11.7169
▁insufficiency	-11.717
▁Corp	-11.717
▁Helicobacter	-11.717
▁tRNAs	-11.7172
▁paramyxovirus	-11.7174
▁intron	-11.718
right	-11.7181
▁os	-11.7182
▁video	-11.7184
top	-11.7186
▁132	-11.7188
▁stream	-11.7189
▁inbred	-11.7195
▁lessons	-11.7196
▁Local	-11.7197
▁MB	-11.7208
▁Clearly	-11.7212
▁exerted	-11.7214
▁papillomavirus	-11.7216
▁autologous	-11.7217
▁mineral	-11.7217
▁confusion	-11.7218
CK	-11.7219
HE	-11.7223
▁malabsorption	-11.7223
▁[30,	-11.7225
▁redox	-11.7225
pi	-11.7227
▁smallest	-11.723
▁alphavirus	-11.723
▁gift	-11.7231
Ct	-11.7231
▁estudios	-11.7232
▁homologs	-11.7235
▁CB	-11.7236
luc	-11.7238
▁chromosomes	-11.7241
▁[96]	-11.7244
Saharan	-11.7244
▁114	-11.7244
▁registration	-11.7244
▁hypoxemia	-11.7251
▁geometric	-11.7251
▁camera	-11.7251
▁subacute	-11.7252
▁KCl	-11.7256
▁parturition	-11.7258
▁Une	-11.7259
▁Roche	-11.7261
incubated	-11.7264
▁fermentation	-11.7265
▁psychiatric	-11.7265
▁alkaloids	-11.7267
▁deeper	-11.7269
▁counteract	-11.7269
▁[31,	-11.7273
▁Sc	-11.7274
▁salts	-11.7275
AS	-11.7276
Ala	-11.7277
▁2003.	-11.7278
▁neumonía	-11.7278
▁Texas	-11.728
\\	-11.7283
▁progressed	-11.7284
▁TA	-11.7284
▁erythromycin	-11.7286
▁ciprofloxacin	-11.7291
▁static	-11.7291
▁respiratoire	-11.7292
▁45%	-11.7292
▁Black	-11.7295
▁-2	-11.73
▁sequentially	-11.7302
▁claims	-11.7304
▁bronchopneumonia	-11.7306
▁pharynx	-11.7307
▁ni	-11.7307
Man	-11.7308
87	-11.731
▁unilateral	-11.7311
▁uncontrolled	-11.7316
▁PID	-11.7317
^	-11.7317
▁APP	-11.7318
▁LV	-11.7319
▁euthanasia	-11.732
▁leucine	-11.7323
▁classify	-11.7324
▁clinique	-11.7326
▁livers	-11.7328
▁dem	-11.7329
▁imidazole	-11.7329
▁preexisting	-11.7329
▁5000	-11.7335
▁ranking	-11.7335
▁effectors	-11.7335
▁pseudoknots	-11.7336
▁expectations	-11.7337
▁rearrangements	-11.7337
▁Mar	-11.7339
ig	-11.734
▁33%	-11.7341
▁cant	-11.7342
▁37]	-11.7345
▁Numerous	-11.7346
▁Bo	-11.7347
▁connectivity	-11.7347
▁Seven	-11.7349
▁tension	-11.7349
▁spin	-11.735
▁neutrophilic	-11.7351
▁biosensors	-11.7353
▁38]	-11.7353
▁pyogenes	-11.7354
▁doxycycline	-11.7354
▁manufacture	-11.7356
▁Dans	-11.736
▁cleaned	-11.736
nes	-11.7361
▁catalyze	-11.7361
▁fails	-11.7361
▁disturbances	-11.7367
▁[95]	-11.7368
▁Relative	-11.7368
▁unpaired	-11.7369
▁(28)	-11.7369
▁acetone	-11.737
▁ultra	-11.7371
▁bear	-11.7376
▁oxidase	-11.7376
▁fill	-11.7381
ME	-11.7382
▁Alzheimer	-11.7383
▁uniformly	-11.7386
▁mycobacteria	-11.7386
▁constants	-11.7386
score	-11.7388
▁discomfort	-11.7389
eight	-11.7389
▁Mix	-11.739
▁representatives	-11.739
-35	-11.7394
▁milieu	-11.7395
▁pathologies	-11.7397
▁ultimate	-11.7401
▁RVA	-11.7402
▁Bartonella	-11.7404
▁Nigeria	-11.7404
-29	-11.7405
▁Typically	-11.7405
▁pneumophila	-11.741
▁polysaccharides	-11.7412
▁parenchymal	-11.7416
▁36,	-11.7417
▁hetero	-11.7418
▁stimulatory	-11.7419
▁degenerate	-11.7421
▁hospitalisation	-11.7424
sch	-11.7425
▁3-5	-11.7429
▁emotional	-11.743
×	-11.743
▁minimizing	-11.743
▁Leone	-11.7432
▁recording	-11.7432
Na	-11.7434
▁117	-11.7434
▁localize	-11.7435
104	-11.7437
▁twenty	-11.7437
▁satisfactory	-11.7438
▁groove	-11.7439
Recent	-11.7443
▁calibration	-11.7445
▁spleens	-11.7446
total	-11.7447
97	-11.7453
▁ICAM	-11.7453
101	-11.7454
▁globulin	-11.7454
▁besides	-11.7458
-␤	-11.7463
▁strengthening	-11.7463
lactam	-11.7463
▁conflicting	-11.7464
ct	-11.7464
▁summarizes	-11.7466
RF	-11.7466
▁piglet	-11.7467
GD	-11.7468
des	-11.7469
▁statistic	-11.7471
▁resist	-11.7471
▁glycol	-11.7472
▁[98]	-11.7473
▁Huang	-11.7476
tra	-11.748
▁35,	-11.748
▁wheeze	-11.748
▁south	-11.748
▁pollen	-11.7481
▁exceeding	-11.7481
aux	-11.7482
▁CYP	-11.7487
▁destinations	-11.7489
▁exacerbated	-11.7489
[94]	-11.7489
▁URI	-11.7489
▁Individual	-11.7489
▁sexually	-11.7491
▁stirred	-11.7494
▁ES	-11.7498
▁thickened	-11.75
▁withdrawal	-11.7501
▁nearby	-11.7503
▁adhere	-11.7503
▁bead	-11.7503
▁dé	-11.7504
emerging	-11.7506
▁erythrocyte	-11.7509
▁CRISPR	-11.7509
▁Assessment	-11.7509
▁contexts	-11.7512
▁etiologies	-11.7514
▁weighed	-11.7515
▁PPAR	-11.7516
PL	-11.7519
▁empiric	-11.752
responsive	-11.7521
▁(16	-11.7522
lactamase	-11.7523
▁item	-11.7523
▁hybridoma	-11.7524
-3,	-11.7525
CPE	-11.7528
onset	-11.7534
▁tonsils	-11.7535
▁depressed	-11.7536
▁Secondly	-11.7538
▁detector	-11.7539
▁Be	-11.7542
▁14%	-11.7543
nic	-11.7543
▁dying	-11.7543
▁Without	-11.7546
▁precipitate	-11.7549
▁gentamicin	-11.755
▁Spanish	-11.7552
▁1973	-11.7553
▁medial	-11.7553
▁3.6	-11.7554
Tables	-11.7554
▁Firstly	-11.7557
▁workplace	-11.7558
▁graphs	-11.7559
tumor	-11.7564
▁radius	-11.7564
▁endotracheal	-11.7564
▁Iran	-11.7564
▁programmed	-11.7565
▁destroyed	-11.7565
▁Por	-11.7567
▁internalized	-11.757
▁muy	-11.7572
▁heifers	-11.7572
▁32,	-11.7573
▁RM	-11.7573
▁118	-11.7575
▁deer	-11.7576
▁permitted	-11.7578
▁Sch	-11.7583
▁Flow	-11.7583
▁ammonia	-11.7585
▁aerobic	-11.7585
▁book	-11.7586
▁delta	-11.7588
▁astroviruses	-11.7588
▁glutamine	-11.759
▁bilirubin	-11.7592
▁ϫ	-11.7596
▁intriguing	-11.7597
▁Lipofectamine	-11.7599
▁mastitis	-11.7601
▁citizens	-11.7601
▁Perhaps	-11.7602
▁neighbor	-11.7602
002	-11.7603
▁hypothesize	-11.7603
▁distinguishing	-11.7605
▁Cases	-11.7606
▁contract	-11.7606
▁communications	-11.7609
▁BCG	-11.7609
▁tetra	-11.7613
▁entropy	-11.7614
▁chikungunya	-11.7614
▁IFITMs	-11.7617
MD	-11.7618
▁IT	-11.7619
▁affinities	-11.762
-14	-11.7626
▁GE	-11.7628
IFITM	-11.7629
▁3.4	-11.7633
pa	-11.7634
established	-11.7634
▁phone	-11.7635
sample	-11.7636
TS	-11.7636
▁Until	-11.7639
▁pigment	-11.7642
▁Database	-11.7643
▁vers	-11.7644
▁autophagosomes	-11.7645
▁attach	-11.7646
145	-11.765
▁advantageous	-11.7652
▁fluorescein	-11.7652
▁coverslips	-11.7652
Kim	-11.7653
▁allantoic	-11.7659
▁safely	-11.7661
six	-11.7666
▁proteolysis	-11.767
▁PLA	-11.7671
▁glutamate	-11.7672
▁carboxy	-11.7673
▁immunisation	-11.7673
kb	-11.7673
▁em	-11.7679
ik	-11.7679
▁herein	-11.768
▁138	-11.7681
▁12.5	-11.7683
▁inexpensive	-11.7684
▁Foundation	-11.7685
▁AND	-11.7686
▁11%	-11.7686
▁SOCS	-11.7687
SR	-11.7689
89	-11.7691
ova	-11.7691
family	-11.7691
▁rumen	-11.7692
▁clothing	-11.7693
▁cornea	-11.7694
▁imperative	-11.7699
▁Markov	-11.7702
▁[32,	-11.7703
▁Sequences	-11.7707
▁RS	-11.7708
▁Thirty	-11.771
▁windows	-11.771
using	-11.7714
▁[34,	-11.7715
▁SLE	-11.772
▁accept	-11.772
▁icosahedral	-11.772
▁shaking	-11.7721
▁fur	-11.7722
elle	-11.7722
13,	-11.7725
▁Water	-11.7727
▁occupied	-11.7728
▁Peyer	-11.7728
▁soit	-11.7729
▁endocrine	-11.7729
▁-4	-11.7729
▁transitions	-11.7729
▁Rather	-11.7729
▁116	-11.773
▁SUMO	-11.7731
usually	-11.7731
▁Changes	-11.7732
▁135	-11.7734
▁approximation	-11.7737
▁sustain	-11.7739
BSA	-11.774
▁histocompatibility	-11.7742
▁senior	-11.7742
▁eventual	-11.7742
▁arrow	-11.7744
▁geographically	-11.775
▁schemes	-11.7751
▁utilizes	-11.7751
▁anatomic	-11.7752
function	-11.7753
▁123	-11.7754
▁overt	-11.7759
▁Isolation	-11.7759
▁RR	-11.776
▁associates	-11.7763
approved	-11.7764
▁16%	-11.7765
▁PEI	-11.7766
▁proceed	-11.7767
▁CFR	-11.7767
ula	-11.777
ethyl	-11.777
▁exceptions	-11.7776
▁Regarding	-11.7777
▁ROC	-11.7778
▁unprecedented	-11.7778
▁Flaviviridae	-11.7778
dos	-11.7781
▁intramuscularly	-11.7781
▁Ce	-11.7782
▁operated	-11.7784
cap	-11.7785
▁119	-11.7791
▁4.1	-11.7792
mail	-11.7792
▁categorical	-11.7794
▁CDR	-11.7796
▁homolog	-11.7798
ées	-11.78
▁TMV	-11.78
<	-11.7804
through	-11.7807
▁mismatch	-11.7807
▁polarity	-11.7808
▁aviation	-11.7814
▁Gal	-11.7815
Thus	-11.7816
▁juvenile	-11.7817
▁cellules	-11.7818
▁VV	-11.7819
▁contemporary	-11.7821
▁placing	-11.7822
▁Virology	-11.7822
▁BamHI	-11.7824
▁[33,	-11.7826
▁3).	-11.7828
targeting	-11.7829
▁aliquot	-11.7829
▁Medium	-11.7829
▁femoral	-11.783
▁foxes	-11.783
▁stressed	-11.7832
▁Normal	-11.7832
▁127	-11.7833
▁Des	-11.7834
▁surveyed	-11.7838
▁mal	-11.7838
bed	-11.7838
ker	-11.7841
▁sh	-11.7842
protective	-11.7843
▁magnesium	-11.7844
▁adsorbed	-11.7846
▁Mc	-11.7846
▁cerebellar	-11.7851
▁exceeds	-11.7853
▁CCHFV	-11.7853
▁render	-11.7858
▁Sindbis	-11.7858
▁defence	-11.7861
▁2004,	-11.7864
▁gB	-11.7864
▁firms	-11.7865
▁Po	-11.7866
▁34,	-11.7866
▁aggregated	-11.7866
▁advised	-11.7866
▁accordingly	-11.7868
▁complicate	-11.787
▁PH	-11.7871
ncbi	-11.7872
▁streptococci	-11.7872
▁otros	-11.7873
cin	-11.7874
▁(2002)	-11.7876
▁(29)	-11.7877
AD	-11.7878
▁neurodegenerative	-11.7879
▁automatic	-11.7881
▁SB	-11.7882
▁outpatients	-11.7883
dis	-11.7884
▁unbound	-11.7887
▁seldom	-11.7887
▁acceptor	-11.7887
▁polarization	-11.7888
▁azithromycin	-11.7888
▁branching	-11.7888
▁2011,	-11.789
▁message	-11.789
▁PAR	-11.7891
▁keine	-11.7893
ino	-11.7895
▁linkages	-11.7896
▁2018;	-11.7899
▁arrivals	-11.79
▁specialist	-11.79
▁univariate	-11.7901
▁choices	-11.7903
▁organizational	-11.7903
▁pr	-11.7904
ise	-11.7904
▁lncRNA	-11.7905
▁oligosaccharide	-11.7905
CE	-11.7906
▁inserts	-11.7907
▁ve	-11.7907
▁begun	-11.7909
▁FS	-11.7909
▁capped	-11.7913
▁iris	-11.7913
ité	-11.7915
▁rectum	-11.7916
▁sheet	-11.7917
-60	-11.7919
▁pDC	-11.7919
encoding	-11.7919
▁descriptions	-11.792
▁organisations	-11.7923
▁inputs	-11.7924
Millipore	-11.7924
▁traveling	-11.7924
▁Patienten	-11.7925
▁perforation	-11.7926
▁imposed	-11.7926
▁suited	-11.7928
▁prospectively	-11.7931
▁Chang	-11.7937
▁fractionation	-11.7938
air	-11.7938
▁passing	-11.7938
▁Miller	-11.7939
PB	-11.7939
▁falls	-11.7939
▁suppurative	-11.794
▁Master	-11.794
▁cooling	-11.7941
▁Neither	-11.7943
light	-11.7945
▁imbalance	-11.7945
▁endocarditis	-11.7945
▁filamentous	-11.7945
ps	-11.7946
▁File	-11.795
▁arenaviruses	-11.795
▁adherent	-11.7951
▁Inter	-11.7953
▁sedimentation	-11.7953
▁robustness	-11.7954
▁ionic	-11.7956
▁metabolite	-11.7957
▁nation	-11.796
▁(24	-11.796
TP	-11.7961
▁EIA	-11.7963
▁Sa	-11.7965
▁transporter	-11.7966
EF	-11.7967
▁regards	-11.7968
▁adolescents	-11.797
▁specialists	-11.7972
▁über	-11.7974
▁swollen	-11.7975
▁possessed	-11.7976
▁rearrangement	-11.7978
▁pairing	-11.7979
MK	-11.7979
▁SPR	-11.798
▁boxes	-11.7981
▁ADAM	-11.7982
▁Turkey	-11.7983
▁dispersed	-11.7984
▁predicts	-11.7991
▁anesthetized	-11.7992
▁traced	-11.7994
phenyl	-11.7998
▁Material	-11.8001
▁gains	-11.8004
susceptible	-11.8007
LV	-11.801
▁BFA	-11.801
▁40]	-11.8012
▁predominance	-11.8012
bearing	-11.8012
/100	-11.8013
▁Vol	-11.8013
EBV	-11.8017
▁methicillin	-11.8019
▁137	-11.8024
fit	-11.8026
▁[99]	-11.8026
▁98%	-11.8028
Bo	-11.8028
▁(2012)	-11.803
▁(60	-11.8034
150	-11.8035
▁ethyl	-11.8035
▁inefficient	-11.8036
Over	-11.8039
▁Bar	-11.8041
▁augmented	-11.8042
▁exploit	-11.8045
HD	-11.8046
▁sow	-11.8046
cf	-11.8047
▁freely	-11.8047
▁chromosomal	-11.8048
▁infancy	-11.8049
▁conjunctival	-11.8051
ants	-11.8056
▁exploring	-11.8056
▁HCP	-11.8056
Lu	-11.8058
▁está	-11.8059
ica	-11.806
▁packaged	-11.806
▁240	-11.8064
▁GPs	-11.8065
▁connecting	-11.8066
▁coinfections	-11.8066
▁(2011)	-11.8066
▁Index	-11.8068
▁defines	-11.8068
VI	-11.8072
▁camelids	-11.8077
lanes	-11.8077
being	-11.8078
▁flavonoids	-11.8082
▁1972	-11.8083
OP	-11.8083
▁GmbH	-11.8086
▁sedation	-11.8086
▁microtiter	-11.8086
▁erythema	-11.8086
▁CQ	-11.8087
▁Social	-11.8088
▁triphosphate	-11.8088
▁⁄	-11.8094
▁perspectives	-11.8094
▁probiotic	-11.8097
-32	-11.8097
▁PRRs	-11.8098
▁toll	-11.8098
▁abstracts	-11.8099
▁PTSD	-11.8102
sub	-11.8109
▁33,	-11.8111
▁canis	-11.8113
characterized	-11.8115
ale	-11.812
▁sac	-11.812
▁interferes	-11.8121
▁seropositivity	-11.8123
▁litters	-11.8124
▁stabilizing	-11.8124
▁recommends	-11.8124
che	-11.8126
▁Lewis	-11.8126
▁2005,	-11.8127
glycosylation	-11.8128
▁Mortality	-11.8132
▁mink	-11.8135
▁foundation	-11.8136
FLAG	-11.8137
▁whenever	-11.8137
▁aquatic	-11.8138
Diagnosis	-11.8139
tro	-11.8142
▁delivering	-11.8146
▁adjust	-11.8147
▁Reagent	-11.8149
toxic	-11.815
don	-11.8151
▁uso	-11.8153
▁prion	-11.8153
▁inflamed	-11.8162
▁claimed	-11.8162
▁Jackson	-11.8163
▁flights	-11.8163
▁tetherin	-11.8163
▁argument	-11.8165
83	-11.8166
amide	-11.8168
▁grass	-11.817
40,	-11.8171
▁went	-11.8171
▁wk	-11.8173
CAP	-11.8173
▁exhaled	-11.8176
▁explaining	-11.8177
▁secreting	-11.8181
ya	-11.8183
▁30-	-11.8184
▁initiates	-11.8188
▁1975)	-11.8188
▁0.15	-11.8191
▁Understanding	-11.8194
▁133	-11.8197
▁prokaryotic	-11.8198
▁Listeria	-11.8199
flow	-11.8201
▁expressions	-11.8202
HI	-11.8202
▁realized	-11.8204
▁[100]	-11.8206
▁ect	-11.8209
▁counterpart	-11.821
250	-11.821
▁Americas	-11.8211
▁newer	-11.8214
▁rain	-11.8218
▁Ch	-11.8222
▁conditioning	-11.8222
▁fig	-11.8223
▁IFI	-11.8226
▁concurrently	-11.8227
▁width	-11.8227
▁advent	-11.8227
ome	-11.8227
▁Bacteria	-11.8228
▁ASFV	-11.8229
▁intercellular	-11.823
▁refined	-11.823
▁Primers	-11.823
▁releasing	-11.8232
▁press	-11.8232
▁really	-11.8233
180	-11.8234
▁SAS	-11.8235
▁catarrhalis	-11.8236
▁steric	-11.8237
▁downloaded	-11.8237
▁17%	-11.824
▁autophagosome	-11.8247
▁220	-11.8249
tive	-11.8249
ML	-11.825
▁simplicity	-11.8251
▁follicular	-11.8252
▁saturated	-11.8253
▁13%	-11.8254
▁physically	-11.8256
▁126	-11.8256
▁drying	-11.8257
▁1.9	-11.8259
▁meal	-11.8259
▁TG	-11.8263
▁fomites	-11.8265
▁transfusions	-11.8266
▁9%	-11.8266
▁complaints	-11.8266
▁nevertheless	-11.8266
▁ganglia	-11.8266
▁Open	-11.8272
▁rod	-11.8272
▁sensitivities	-11.8274
▁haemorrhagic	-11.8274
▁nodular	-11.8275
▁fight	-11.8279
▁incoming	-11.828
▁indispensable	-11.8281
coil	-11.8282
inducing	-11.8283
▁slaughter	-11.8283
▁Fast	-11.8284
▁histologically	-11.8287
▁Gel	-11.8287
▁NSs	-11.8287
▁forecast	-11.8288
▁Gln	-11.829
labelled	-11.829
▁budget	-11.829
▁restrictive	-11.8291
▁mildly	-11.8294
▁Project	-11.8295
▁husbandry	-11.8296
ef	-11.8297
▁willingness	-11.8297
world	-11.8299
▁circulate	-11.8299
▁try	-11.83
▁65%	-11.8307
cellular	-11.8307
▁Pneumonia	-11.8308
4).	-11.831
94	-11.8312
▁Trp	-11.8316
▁economically	-11.8316
▁seeds	-11.8317
▁transforming	-11.8318
▁gradients	-11.8319
▁spotted	-11.832
▁denatured	-11.8321
adjusted	-11.8321
▁clínica	-11.8323
sc	-11.8324
▁initiative	-11.8324
▁inverted	-11.8325
▁preferential	-11.8325
▁retrieval	-11.8327
Scenario	-11.8328
bacterial	-11.8329
TK	-11.833
▁20-	-11.8331
▁18%	-11.8334
cycle	-11.8334
tin	-11.8336
▁sides	-11.8336
▁Negative	-11.8337
▁alters	-11.8337
Mo	-11.8338
▁brush	-11.8338
▁capsids	-11.8342
▁vice	-11.8343
▁Toxoplasma	-11.8344
RdRp	-11.8344
▁nel	-11.8344
▁flock	-11.8346
▁marketing	-11.8346
▁preferences	-11.8348
▁spacer	-11.8349
▁Brucella	-11.8351
▁afford	-11.8352
▁intraperitoneally	-11.8352
▁MI	-11.8354
▁anthracis	-11.8357
▁ulcerative	-11.8358
MC	-11.8359
left	-11.8362
14,	-11.8363
▁SK	-11.8366
fer	-11.8366
Respiratory	-11.8367
▁relates	-11.8368
▁atomic	-11.8371
▁characterizing	-11.8373
▁AOM	-11.8374
▁MALDI	-11.8376
▁NE	-11.8377
▁morphologic	-11.8379
▁macrolides	-11.8379
▁Dis	-11.8381
▁preceded	-11.8382
▁Eight	-11.8384
▁painful	-11.8386
▁duplication	-11.8386
▁pull	-11.8386
▁NAC	-11.8387
ü	-11.8387
▁Apart	-11.839
▁explicit	-11.8394
▁interior	-11.8396
▁[101]	-11.8396
EP	-11.8397
▁RBC	-11.8401
▁epidermis	-11.8403
▁curvature	-11.8404
▁hemolysis	-11.8404
HRV	-11.8405
▁145	-11.8405
▁modulates	-11.8407
black	-11.8407
▁2002,	-11.8408
▁cytology	-11.8411
▁farming	-11.8416
▁resection	-11.8416
▁1:10	-11.8418
▁cerebellum	-11.8419
▁121	-11.8419
soluble	-11.8426
▁Occasionally	-11.8428
max	-11.8429
▁intracranial	-11.8432
-22	-11.8433
▁100-	-11.8434
▁irritation	-11.8434
▁suboptimal	-11.8434
▁amine	-11.8436
▁underestimated	-11.8437
PO	-11.8439
▁blind	-11.844
▁districts	-11.844
▁même	-11.844
▁compact	-11.8443
▁tetanus	-11.8443
▁ICD	-11.8447
▁SW	-11.8449
Statistical	-11.8449
oxy	-11.845
blood	-11.845
▁Chicago	-11.845
vis	-11.8451
▁patchy	-11.8451
▁feet	-11.8452
▁Avian	-11.8455
▁Office	-11.8457
Un	-11.8458
▁dont	-11.8458
▁neurotropic	-11.8458
▁HRSV	-11.8461
▁carboxyl	-11.8461
▁thrombin	-11.8461
▁radicals	-11.8462
▁multifunctional	-11.8463
▁IPEC	-11.8468
▁custom	-11.8472
▁CAR	-11.8478
▁dots	-11.8479
VLPs	-11.848
▁emphysema	-11.8481
▁draining	-11.8484
▁endonuclease	-11.8486
▁Values	-11.8488
ible	-11.8488
▁judged	-11.8489
▁SAA	-11.849
▁1640	-11.8494
Es	-11.8494
▁menos	-11.8495
▁Core	-11.8495
▁Experiments	-11.8496
▁MW	-11.8497
Sp	-11.8498
▁mediante	-11.8499
IT	-11.8499
▁yearly	-11.85
▁disadvantages	-11.8501
▁Ka	-11.8502
▁confers	-11.8502
▁Higher	-11.8503
▁1-4	-11.8503
▁homozygous	-11.8504
▁attracted	-11.8505
▁(30)	-11.8506
▁Sun	-11.8506
Vero	-11.8506
▁190	-11.851
▁cyto	-11.851
▁PERK	-11.8511
▁immunology	-11.8512
▁TT	-11.8514
▁adjusting	-11.8515
idae	-11.8517
▁DS	-11.852
▁Newcastle	-11.852
Ch	-11.8524
5),	-11.8524
Time	-11.8525
ZIKV	-11.8528
RIG	-11.853
▁noninfectious	-11.853
zione	-11.8531
▁trimester	-11.8533
linear	-11.8539
▁relaxation	-11.8543
▁acyclovir	-11.8544
▁immunizations	-11.8547
10)	-11.8547
Cells	-11.8548
Br	-11.8548
▁7.0	-11.8554
▁Tri	-11.8555
flu	-11.8555
▁lipoprotein	-11.8558
▁immunopathology	-11.8558
▁partir	-11.8558
▁metals	-11.856
▁Lastly	-11.8562
▁Nations	-11.8562
▁capillaries	-11.8566
84	-11.8569
▁galactose	-11.8569
▁occasions	-11.857
aria	-11.8574
▁woman	-11.8574
▁gently	-11.8574
▁taxonomy	-11.8574
▁Hendra	-11.8575
▁mites	-11.8576
▁sinuses	-11.8578
▁pasture	-11.8579
CF	-11.858
▁reflex	-11.8581
▁labour	-11.8582
attenuated	-11.8583
▁Neuro	-11.8585
16,	-11.8587
▁lowered	-11.8588
▁[35,	-11.8588
▁Plan	-11.8589
▁respiratoires	-11.8589
▁goblet	-11.859
▁Ò	-11.8592
fast	-11.8592
▁WB	-11.8594
▁race	-11.8594
▁sciences	-11.8595
Cy	-11.8595
▁actors	-11.86
▁assumes	-11.86
▁TMD	-11.8601
▁pharmacokinetic	-11.8603
▁Old	-11.8606
▁entries	-11.8606
▁θ	-11.8611
▁relied	-11.8613
▁rainfall	-11.8613
▁cultivated	-11.8615
ire	-11.8615
▁forecasting	-11.8616
▁Pulmonary	-11.8617
▁shelters	-11.8619
▁Bovine	-11.862
▁0.01,	-11.862
polymerase	-11.8623
economic	-11.8625
om	-11.8626
position	-11.8626
▁BA	-11.8628
▁offering	-11.8628
▁satisfaction	-11.8629
▁termini	-11.863
Die	-11.8631
▁mount	-11.8631
▁segmented	-11.8632
Â	-11.8633
▁1/2	-11.8635
▁seizure	-11.8635
▁firefly	-11.8637
▁AST	-11.8638
consuming	-11.8639
▁Institutes	-11.864
▁Flag	-11.8644
▁reasonably	-11.8645
▁Du	-11.8651
▁chlorine	-11.8653
▁consumers	-11.8653
▁Age	-11.8654
▁reproduce	-11.8655
▁rRT	-11.8655
▁diffi	-11.8656
▁PBST	-11.866
▁Waltham	-11.8661
▁draft	-11.8661
ki	-11.8663
cu	-11.8664
▁puncture	-11.8664
ru	-11.8665
mercaptoethanol	-11.8668
▁reconstituted	-11.8669
unpublished	-11.867
▁Mx	-11.8671
▁doubt	-11.8673
hand	-11.8673
▁TR	-11.8675
▁condensation	-11.8677
▁freezing	-11.8677
▁abilities	-11.8677
▁sheets	-11.8678
▁sandwich	-11.8679
▁histology	-11.8684
▁acidification	-11.8684
Infection	-11.8685
weight	-11.8686
▁env	-11.8687
▁FLAG	-11.8691
ile	-11.8692
pr	-11.8696
▁TE	-11.8697
▁malnutrition	-11.87
▁Guidelines	-11.8701
▁angiogenesis	-11.8701
▁replacer	-11.8701
tr	-11.8703
▁Liver	-11.8704
1.5	-11.8705
coupled	-11.8705
␣	-11.8705
▁leptospirosis	-11.8708
ga	-11.8709
our	-11.8709
Interestingly	-11.871
▁dos	-11.8713
▁Cas	-11.8715
▁hasta	-11.8716
▁Foster	-11.8718
▁operator	-11.872
▁disciplines	-11.8722
▁systemically	-11.8722
▁slope	-11.8724
▁discover	-11.8725
▁Trans	-11.8727
▁autumn	-11.8729
▁crop	-11.873
▁4.2	-11.873
Due	-11.873
tis	-11.8731
▁mention	-11.8733
▁MIP	-11.8733
Protein	-11.8738
▁societies	-11.8739
▁symmetry	-11.874
▁degrade	-11.8742
▁humanized	-11.8743
▁warrant	-11.8744
▁matches	-11.8744
▁theoretically	-11.8745
targeted	-11.8746
average	-11.8747
▁Academy	-11.8747
▁applicability	-11.8747
▁cessation	-11.8747
▁QIAamp	-11.8748
▁39]	-11.8754
lane	-11.8754
AG	-11.8759
▁biases	-11.8761
▁CypA	-11.8763
cost	-11.8763
▁Elsevier	-11.8763
▁discontinued	-11.8764
▁capping	-11.8765
▁alphaviruses	-11.8766
▁Blue	-11.8769
▁"(2)	-11.8769
▁PGE	-11.8769
▁predisposition	-11.877
▁aminotransferase	-11.8771
▁hypotension	-11.8771
post	-11.8773
▁Activation	-11.8774
2.1	-11.8775
factor	-11.8777
▁terrorist	-11.8779
▁cardiomyopathy	-11.8779
▁happen	-11.878
glutamine	-11.8785
▁holding	-11.8786
▁comments	-11.8788
ando	-11.879
Lys	-11.879
ida	-11.8795
▁proviral	-11.8796
▁700	-11.8797
▁260	-11.8798
bar	-11.88
▁41]	-11.88
▁124	-11.8802
▁vacuum	-11.8803
▁airlines	-11.8804
▁hrs	-11.8807
▁hub	-11.8809
galactosidase	-11.8811
▁ultracentrifugation	-11.8811
▁streptococcal	-11.8813
▁Antiviral	-11.8815
▁circle	-11.8816
▁cruzi	-11.8819
FS	-11.882
220	-11.8821
nlm	-11.8825
▁glutaraldehyde	-11.8827
76	-11.8828
▁134	-11.8828
▁Cap	-11.8831
▁quarter	-11.8831
▁translate	-11.8831
▁0.05;	-11.8832
▁sugars	-11.8833
▁prey	-11.8834
▁don	-11.8835
▁excised	-11.8836
▁1974	-11.8838
▁impaction	-11.8838
▁Der	-11.8839
▁(2001)	-11.8839
▁[102]	-11.8844
▁Google	-11.8844
▁unfolded	-11.8844
Severe	-11.8845
▁Plates	-11.8847
▁lived	-11.8849
▁update	-11.8849
▁rings	-11.885
▁Han	-11.8853
▁suppressive	-11.8855
▁dimeric	-11.8855
SG	-11.8855
▁(2013)	-11.8857
▁caring	-11.8858
▁preservation	-11.886
▁croup	-11.886
pressure	-11.8862
▁collectively	-11.8862
▁42]	-11.8867
▁[103]	-11.8867
▁infectiousness	-11.8867
▁PT	-11.8869
▁(31)	-11.8869
7%	-11.8869
▁habitats	-11.8874
▁cryptosporidiosis	-11.8875
ot	-11.8876
▁testicular	-11.8876
▁[23	-11.8876
▁portable	-11.8877
distance	-11.8878
▁looked	-11.888
hybrid	-11.8881
▁breaks	-11.8882
▁companion	-11.8883
▁discrepancies	-11.8884
▁Yersinia	-11.8885
▁consumer	-11.8885
▁(2014)	-11.8888
▁prM	-11.8889
▁sales	-11.889
ante	-11.8891
AI	-11.8892
▁multidisciplinary	-11.89
▁flasks	-11.89
▁350	-11.89
▁workflow	-11.8901
LD	-11.8902
localization	-11.8903
National	-11.8911
▁noting	-11.8914
▁unidentified	-11.8918
▁colocalization	-11.8918
▁bronchioles	-11.892
MB	-11.8922
▁BV	-11.8922
▁cartilage	-11.8923
▁lactose	-11.8923
Cys	-11.8923
▁cleft	-11.8925
standard	-11.8925
▁veins	-11.8926
par	-11.8928
▁neighbors	-11.8932
▁restoration	-11.8932
▁jugular	-11.8932
▁Host	-11.8934
▁hypothetical	-11.8938
▁toxoplasmosis	-11.894
▁phospholipid	-11.8941
▁notification	-11.8942
mar	-11.8947
▁Qiagen	-11.8948
▁embargo	-11.8948
▁trapped	-11.8949
▁proline	-11.8951
▁capita	-11.8953
ura	-11.8953
▁islands	-11.8956
▁[37,	-11.8958
▁leishmaniasis	-11.8964
TA	-11.8967
eIF	-11.897
-28	-11.897
▁10)	-11.8972
▁bronchiseptica	-11.8972
▁port	-11.8973
▁permet	-11.8974
resistance	-11.8975
core	-11.8976
107	-11.8976
▁parte	-11.8976
▁carbonyl	-11.8979
class	-11.8979
▁unsuccessful	-11.8979
SDS	-11.8979
▁Picornaviridae	-11.8981
▁dilation	-11.8981
▁devoid	-11.8982
▁prednisolone	-11.8982
▁dermal	-11.8984
Cr	-11.8989
▁randomised	-11.8991
macrophages	-11.8993
▁Complete	-11.8993
▁fate	-11.8994
▁RI	-11.8995
▁CTLs	-11.8995
▁explanations	-11.8997
▁chief	-11.8997
▁convenience	-11.8997
▁Sf	-11.8998
▁2.9	-11.8999
▁NR	-11.9004
▁jet	-11.9005
▁estrogen	-11.9005
▁electric	-11.9006
▁exhaust	-11.9007
▁fulminant	-11.9008
▁utero	-11.9008
▁contre	-11.9011
So	-11.9011
▁RH	-11.9014
▁getting	-11.9014
11,	-11.9016
▁ideas	-11.9016
▁untranslated	-11.9018
▁144	-11.9018
cl	-11.9018
▁distention	-11.9021
▁hampered	-11.9022
▁behaviours	-11.9023
ix	-11.9024
▁freshly	-11.9024
▁probiotics	-11.9026
▁reform	-11.9026
LT	-11.903
▁brucellosis	-11.903
▁differentiating	-11.903
▁jejuni	-11.903
blind	-11.9034
PCV	-11.9036
▁Valley	-11.9038
▁simplified	-11.9039
▁GD	-11.9042
TR	-11.9043
▁assign	-11.9043
▁applies	-11.9046
▁seriously	-11.9046
▁ρ	-11.905
reaction	-11.905
▁shortness	-11.9051
▁village	-11.9054
‬	-11.9054
▁SINV	-11.9057
inter	-11.9059
▁shaped	-11.9061
▁fibrinogen	-11.9061
rate	-11.9062
▁interspecies	-11.9064
▁Natural	-11.9065
▁Key	-11.9066
▁TH	-11.9068
▁failures	-11.9068
▁beliefs	-11.9068
China	-11.9069
IS	-11.9071
▁mitogen	-11.9074
▁Philippines	-11.9075
Van	-11.9075
▁palpation	-11.9079
▁HFMD	-11.9082
▁Fecal	-11.9084
▁Brown	-11.9085
▁empirically	-11.9086
▁spectrometer	-11.9087
▁[104]	-11.9087
▁Feline	-11.9088
set	-11.9088
▁fuse	-11.9089
▁amide	-11.9091
▁Me	-11.9094
sheet	-11.9096
▁2.5%	-11.9098
▁DQ	-11.9098
▁filoviruses	-11.9098
▁sg	-11.91
▁ADEM	-11.9102
▁protozoan	-11.9102
▁bath	-11.9103
▁Enterobacteriaceae	-11.9104
▁dysregulation	-11.9104
▁bronchiolar	-11.9104
▁modifying	-11.9106
▁breastfeeding	-11.9112
▁computing	-11.9112
▁sero	-11.9119
▁possessing	-11.912
▁demographics	-11.912
affected	-11.9121
▁conference	-11.9121
▁residential	-11.9122
vaccination	-11.9126
▁phenyl	-11.9127
Myc	-11.9129
▁Representative	-11.9129
▁cords	-11.9129
▁accidental	-11.913
▁premises	-11.913
▁afforded	-11.913
▁hoc	-11.9131
▁alleviate	-11.9133
▁HTS	-11.9135
▁Wild	-11.9136
▁uncomplicated	-11.9137
6%	-11.9138
▁unfolding	-11.9138
▁launched	-11.9139
ium	-11.9139
▁Uganda	-11.914
▁(0.2	-11.9141
1-4	-11.9144
▁dysplasia	-11.9146
ah	-11.9146
▁Nasal	-11.9149
▁Elle	-11.915
▁causa	-11.9152
▁Mac	-11.9153
▁opacities	-11.9153
▁ozone	-11.9154
-26	-11.9154
▁cGAS	-11.9155
▁MCF	-11.9156
▁um	-11.9159
▁confirmatory	-11.9162
▁ethnic	-11.9162
va	-11.9162
▁climatic	-11.9165
▁mycobacterial	-11.9165
▁virales	-11.9166
HPV	-11.9169
▁cabin	-11.9169
▁cruise	-11.917
▁hazardous	-11.9171
▁blinded	-11.9174
▁22%	-11.9176
▁SeV	-11.9177
IFA	-11.9178
▁sustainability	-11.9178
▁dexamethasone	-11.9179
▁marmosets	-11.9179
▁Norwalk	-11.9179
▁clues	-11.9179
▁Guangzhou	-11.9179
▁bonding	-11.918
▁transmissions	-11.9181
▁Immunization	-11.9181
▁[105]	-11.9186
▁internet	-11.9187
▁Johnson	-11.9188
Infectious	-11.9189
▁historically	-11.9191
▁Hz	-11.9195
▁amplitude	-11.9196
▁lethality	-11.9197
▁urgently	-11.9198
▁playing	-11.9199
▁cAMP	-11.9199
▁morphologically	-11.9199
RP	-11.9201
▁physicochemical	-11.9203
▁stepwise	-11.9204
ö	-11.9205
▁IA	-11.9207
▁Images	-11.921
▁186	-11.9216
▁Ro	-11.9216
▁modalities	-11.9219
▁remyelination	-11.922
▁microplate	-11.922
▁IGF	-11.9221
63-	-11.9222
Further	-11.9222
▁transferrin	-11.9223
Flag	-11.9224
▁north	-11.9225
▁dromedaries	-11.9228
▁hippocampus	-11.9228
▁preparing	-11.9228
▁microfluidic	-11.9228
ISG	-11.9229
▁broken	-11.923
▁Signaling	-11.923
▁Buffer	-11.923
▁phylogenetically	-11.9231
▁bud	-11.9232
▁sham	-11.9235
▁neonate	-11.9236
LA	-11.9237
▁inducer	-11.9237
▁poxvirus	-11.9237
▁migrating	-11.9238
ator	-11.9238
▁[27	-11.9238
▁Israel	-11.9242
▁175	-11.9242
op	-11.9245
▁occupancy	-11.9245
▁contracted	-11.9247
▁59-	-11.9249
nuclear	-11.9249
bo	-11.925
pathogenic	-11.925
▁(11	-11.9251
▁Lactobacillus	-11.9254
▁handwashing	-11.9254
▁things	-11.9254
▁(2.5	-11.9257
▁repetitive	-11.926
▁definite	-11.926
late	-11.9262
▁chart	-11.9262
▁respiratoria	-11.9262
▁MM	-11.9266
Studies	-11.9267
73	-11.9268
▁comfort	-11.9269
▁Much	-11.927
qui	-11.9273
▁cascades	-11.9276
ini	-11.9276
▁prerequisite	-11.9279
minute	-11.9279
▁Ge	-11.9279
▁(2000)	-11.9279
▁conceptual	-11.928
▁(1999)	-11.928
▁turkeys	-11.9281
▁LTR	-11.9282
▁(32)	-11.9284
▁7.4	-11.9286
ogenic	-11.9288
▁atrial	-11.9291
▁consequent	-11.9293
▁presencia	-11.9295
▁pneumothorax	-11.9295
▁silent	-11.9295
▁plasticity	-11.9296
▁aspirin	-11.9296
white	-11.9298
toxin	-11.9299
▁CAT	-11.9299
▁epigenetic	-11.9303
linking	-11.9307
▁panic	-11.9307
▁standing	-11.9307
▁4-6	-11.931
▁[20	-11.9311
▁aus	-11.9315
▁dosages	-11.9316
let	-11.9317
▁scaffolds	-11.9318
▁leukopenia	-11.9321
▁housekeeping	-11.9321
74	-11.9322
▁goods	-11.9325
▁preclude	-11.9326
SO	-11.9326
ribose	-11.9326
▁Chest	-11.9327
▁stems	-11.9328
▁3.8	-11.9328
▁122	-11.9329
▁competence	-11.933
depleted	-11.9332
▁inpatients	-11.9333
thirds	-11.9333
▁answers	-11.9336
▁CAV	-11.9337
▁Forty	-11.9339
▁Gross	-11.9341
▁THP	-11.9341
TF	-11.9341
▁electro	-11.9346
▁OTU	-11.9347
▁Histologically	-11.9349
▁pulmonar	-11.9351
▁LL	-11.9352
▁pneumocytes	-11.9353
▁immunodominant	-11.9354
▁willing	-11.9357
▁39,	-11.9357
▁Russia	-11.9358
iz	-11.9361
▁benefi	-11.9362
▁gathering	-11.9366
▁imaged	-11.9368
▁[107]	-11.9371
▁ensures	-11.9372
|	-11.9373
▁(14	-11.9375
▁appearing	-11.9376
▁vicinity	-11.9379
▁membranous	-11.9381
▁FPR	-11.9381
▁RAW	-11.9382
-24	-11.9386
▁perinuclear	-11.9388
▁confluence	-11.9388
▁insoluble	-11.939
ud	-11.9391
▁Nidovirales	-11.9396
▁[108]	-11.9397
▁GVHD	-11.9399
▁Sera	-11.9405
▁destroy	-11.9409
What	-11.9409
organ	-11.9413
▁pestis	-11.9415
▁Exposure	-11.9416
absence	-11.9416
▁Pr	-11.9421
▁ultrasonography	-11.9422
▁distancing	-11.9422
▁TGE	-11.9422
▁disturbance	-11.9423
▁integrating	-11.9423
▁synaptic	-11.9424
▁ODN	-11.9424
▁allocated	-11.9425
ative	-11.9428
▁MC	-11.9429
PEG	-11.943
▁Peninsula	-11.943
▁morning	-11.9431
▁Antigen	-11.9432
▁pCMV	-11.9434
▁declines	-11.9435
nine	-11.9435
▁Mutations	-11.9435
▁Fas	-11.9437
▁Canine	-11.9439
▁[106]	-11.9439
▁fatalities	-11.9439
▁Lyme	-11.944
▁mite	-11.9441
▁tooth	-11.9442
▁38,	-11.9442
az	-11.9442
▁ii	-11.9443
▁diphtheria	-11.9446
▁FMD	-11.9447
ms	-11.9448
▁Acinetobacter	-11.9448
▁positioning	-11.9449
▁terminated	-11.9451
▁goes	-11.9454
▁mitotic	-11.9456
▁Gn	-11.9457
▁attended	-11.9458
▁0.06	-11.946
▁488	-11.9465
▁Usually	-11.9466
▁circles	-11.9467
MLV	-11.9467
▁disc	-11.9468
▁IFNa	-11.947
lasting	-11.9475
▁Cre	-11.9476
▁Image	-11.9476
▁hemorrhages	-11.9478
▁deposits	-11.9478
▁recherche	-11.9478
▁purchase	-11.948
ick	-11.948
▁dispersal	-11.9481
▁"(1)	-11.9483
▁tipo	-11.9485
▁ALV	-11.9486
▁21%	-11.9486
▁attenuate	-11.9488
▁Ireland	-11.949
▁internationally	-11.9492
HS	-11.9492
bis	-11.9494
▁exported	-11.9495
▁mTOR	-11.9495
ados	-11.9496
▁Immunology	-11.9499
▁exotic	-11.95
▁tables	-11.95
FIP	-11.9501
▁ether	-11.9502
▁convert	-11.9505
▁fiebre	-11.9508
▁2007,	-11.9508
▁serologically	-11.951
▁boosted	-11.9512
▁Let	-11.9514
ita	-11.9515
cal	-11.9515
▁Agriculture	-11.9516
▁exemplified	-11.9516
▁traveler	-11.9517
EU	-11.9517
▁nidoviruses	-11.9517
▁stationary	-11.9518
▁Vaccines	-11.9518
ser	-11.9518
▁dish	-11.952
TCID	-11.952
▁autosomal	-11.9524
▁cynomolgus	-11.9524
▁phospholipids	-11.9525
▁Renilla	-11.9525
kin	-11.9526
79	-11.9527
▁requested	-11.9528
ster	-11.9529
▁aunque	-11.9533
▁biochemistry	-11.9533
Analysis	-11.9536
assisted	-11.9536
▁Emerging	-11.9538
▁HF	-11.9538
▁retro	-11.9539
▁vestibular	-11.9542
1.3	-11.9544
▁wasting	-11.9545
detection	-11.9546
▁communicate	-11.9549
▁sure	-11.9552
date	-11.9553
▁Young	-11.9554
▁[115	-11.9556
▁3'-	-11.9557
▁principally	-11.9558
▁ICS	-11.9558
▁nomenclature	-11.9559
▁charges	-11.9561
▁road	-11.9561
▁niche	-11.9562
▁Out	-11.9565
▁filaments	-11.9569
transformed	-11.9573
▁eat	-11.9573
▁ESBL	-11.9573
▁ideally	-11.9575
1111111111	-11.9576
PM	-11.9577
▁139	-11.9577
lung	-11.9577
▁mesenchymal	-11.9578
▁aguda	-11.9578
Furthermore	-11.958
▁MCMV	-11.9581
93	-11.9582
▁sensitized	-11.9583
▁(33)	-11.9585
▁ET	-11.9587
▁haemolytica	-11.9587
▁lifetime	-11.9589
▁abuse	-11.9591
▁safer	-11.9591
▁tremendous	-11.9591
▁arenavirus	-11.9593
▁gravity	-11.9593
▁TREM	-11.9595
First	-11.9595
▁sludge	-11.9595
▁grids	-11.9596
ali	-11.9597
Il	-11.9598
▁claim	-11.9599
▁mo	-11.9599
▁lymphomas	-11.9602
▁binomial	-11.9603
▁149	-11.9604
▁themes	-11.9606
▁hospitalised	-11.9606
▁trimers	-11.9607
▁tolerate	-11.9608
▁todo	-11.961
003	-11.9611
NI	-11.9612
Lin	-11.9614
▁Groups	-11.9616
▁1:100	-11.9617
Each	-11.9617
▁cytologic	-11.9618
2;	-11.9618
▁+1	-11.9619
▁trachomatis	-11.9619
▁trading	-11.9619
▁Finland	-11.9619
▁freedom	-11.9619
▁mimicry	-11.962
δ	-11.9623
▁sand	-11.9624
▁flying	-11.9626
té	-11.9627
LS	-11.9628
▁measurable	-11.9628
▁Regional	-11.9628
▁migratory	-11.9629
▁pendant	-11.9629
▁unavailable	-11.9629
▁belief	-11.963
í	-11.9631
▁versa	-11.9632
2.2	-11.9634
▁geometry	-11.9637
▁globular	-11.9637
▁Community	-11.9639
▁stalk	-11.9639
▁ω	-11.964
▁(1996)	-11.9641
▁regime	-11.9641
▁2014.	-11.9642
sky	-11.9644
▁nombre	-11.9645
▁signes	-11.9645
▁saw	-11.9646
▁‫	-11.9646
▁reconstructed	-11.9646
▁147	-11.9647
▁Regardless	-11.9648
▁contracting	-11.9649
▁AH	-11.9653
▁136	-11.9654
▁(34)	-11.9654
▁44]	-11.9654
▁encompassing	-11.9657
▁tanto	-11.9657
▁behavioural	-11.9659
ien	-11.966
cut	-11.9662
▁55%	-11.9663
▁flanked	-11.9664
▁47]	-11.9665
ré	-11.9666
▁moves	-11.9669
▁Ko	-11.9669
zu	-11.9671
▁biodiversity	-11.9671
▁frecuencia	-11.9672
▁attribute	-11.9672
▁violet	-11.9673
▁tax	-11.9673
mes	-11.9673
who	-11.9674
cdc	-11.9675
▁1974)	-11.9676
▁favored	-11.9677
after	-11.9677
▁più	-11.968
▁Sia	-11.9681
▁Go	-11.9681
▁était	-11.9682
chloro	-11.9682
▁RANTES	-11.9683
▁methodological	-11.9684
mannose	-11.9684
▁Shi	-11.9684
▁submucosa	-11.9686
▁burn	-11.9687
▁glucocorticoids	-11.9688
▁alimentary	-11.9689
▁enterotoxin	-11.9691
▁disinfectant	-11.9692
▁Cellular	-11.9692
/3	-11.9692
▁45]	-11.9695
5).	-11.9695
▁Ki	-11.9695
▁polymorphic	-11.9698
▁culturing	-11.9699
▁168	-11.9701
▁unmodified	-11.9701
za	-11.9702
▁Forest	-11.9703
▁25-	-11.9704
▁authentic	-11.9705
▁11)	-11.9705
▁governmental	-11.9705
2-3	-11.9705
▁grant	-11.9706
▁1971	-11.9707
▁unbiased	-11.9707
▁immunologically	-11.9707
cc	-11.9708
▁Sections	-11.9708
▁existe	-11.971
▁Free	-11.9713
▁pens	-11.9714
▁4.6	-11.9714
▁Bordetella	-11.9716
▁transplanted	-11.9719
▁theories	-11.9719
▁impairs	-11.9721
▁0.04	-11.9725
▁DV	-11.9726
▁shrimp	-11.9726
wise	-11.9726
▁incorrect	-11.9727
▁rose	-11.9728
▁Can	-11.9728
▁ADV	-11.9728
2.0	-11.9729
assay	-11.9733
▁recessive	-11.9733
Non	-11.9733
▁umbilical	-11.9733
Health	-11.9735
▁session	-11.9736
▁143	-11.9737
▁waterborne	-11.9738
first	-11.9739
▁respiratorias	-11.9741
8%	-11.9741
▁palate	-11.9742
▁colorimetric	-11.9742
▁Pneumocystis	-11.9743
▁slices	-11.9743
▁immunoblot	-11.9744
▁train	-11.9749
▁metric	-11.9751
▁Allergy	-11.9751
▁∈	-11.9751
▁suicide	-11.9753
▁Hyper	-11.9753
secreting	-11.9754
▁fragmented	-11.9754
▁competencies	-11.9759
▁osteonecrosis	-11.9759
▁présence	-11.9759
▁6:	-11.9759
▁glandular	-11.9761
▁mismatches	-11.9761
▁noninvasive	-11.9765
▁elle	-11.9765
▁suggestion	-11.9768
▁wheat	-11.9768
▁convergence	-11.9768
▁scaling	-11.9769
▁maintains	-11.9769
▁allograft	-11.9771
▁oocyst	-11.9771
HLA	-11.9771
ax	-11.9773
▁egress	-11.9773
▁97%	-11.9773
Group	-11.9775
▁Certain	-11.9778
▁Genes	-11.9778
PIV	-11.9779
▁[36,	-11.9781
▁colorectal	-11.9785
91	-11.9786
▁immobilization	-11.9786
▁FIGURE	-11.9787
▁FPV	-11.9788
▁φ	-11.9789
▁assisted	-11.9789
▁sessions	-11.9792
▁pAPN	-11.9793
head	-11.9794
▁tachycardia	-11.9794
▁loose	-11.9795
▁Often	-11.9798
▁hepatocyte	-11.9798
▁gases	-11.9799
2.5	-11.9801
▁BH	-11.9801
▁HCoVs	-11.9801
▁Zhou	-11.9802
▁tumours	-11.9803
▁concordance	-11.9803
rin	-11.9804
▁fevers	-11.9804
▁2006,	-11.981
▁(13	-11.9811
▁aspergillosis	-11.9812
▁ya	-11.9813
▁presently	-11.9813
DS	-11.9816
▁augmentation	-11.9817
ndo	-11.9818
▁nonlinear	-11.9818
▁URTI	-11.9819
9%	-11.9819
▁dysentery	-11.9821
▁jump	-11.9822
▁instruction	-11.9822
▁RVP	-11.9822
123	-11.9823
▁synthetase	-11.9824
▁CRS	-11.9826
▁AV	-11.9826
▁films	-11.9826
-33	-11.9827
▁disadvantage	-11.9828
▁deadly	-11.9828
▁lysozyme	-11.983
▁nur	-11.9831
▁dodecyl	-11.9831
PT	-11.9832
114	-11.9834
▁HCl	-11.9837
▁annotations	-11.9838
▁anion	-11.9838
Akt	-11.9838
▁considers	-11.9841
▁aminopeptidase	-11.9843
han	-11.9845
▁nationwide	-11.9848
▁glomerular	-11.9849
▁messenger	-11.9852
substituted	-11.9852
hi	-11.9852
▁minimized	-11.9852
▁Very	-11.9854
▁Ha	-11.9854
▁HCC	-11.9855
▁NLS	-11.9855
▁disrupting	-11.9856
▁typhimurium	-11.9856
▁intergenic	-11.9857
▁ELISAs	-11.9857
▁reversion	-11.9859
▁encapsulated	-11.9861
}	-11.9862
▁ganglion	-11.9865
▁[109]	-11.9865
▁Dicer	-11.9865
▁4.3	-11.9867
▁thymic	-11.9867
size	-11.9869
▁secure	-11.9871
▁niclosamide	-11.9874
▁exacerbate	-11.9875
▁supplements	-11.9876
▁pores	-11.9881
volume	-11.9882
▁zoster	-11.9882
▁proliferate	-11.9883
▁something	-11.9884
▁Special	-11.9885
▁constrained	-11.9886
GG	-11.9888
▁coil	-11.9889
▁BVD	-11.9891
▁Less	-11.9892
▁strips	-11.9894
▁rendered	-11.9894
▁SAM	-11.9895
ates	-11.9897
▁donation	-11.9897
osa	-11.9897
336	-11.99
▁friends	-11.99
▁meningoencephalitis	-11.9901
Supplemental	-11.9905
▁5.2	-11.9907
fat	-11.9907
▁plexus	-11.9908
12-	-11.9908
▁alternatively	-11.9909
▁können	-11.991
▁metaplasia	-11.991
▁worm	-11.9911
▁hydration	-11.9911
▁tryptophan	-11.9912
▁NM	-11.9914
▁antagonize	-11.9916
▁arose	-11.9918
af	-11.9919
▁superoxide	-11.9919
▁[110]	-11.9919
lan	-11.9921
respiratory	-11.9922
▁Diarrhea	-11.9923
▁guanine	-11.9923
140	-11.9923
▁2008,	-11.9924
5/	-11.9928
▁civet	-11.9928
▁acetonitrile	-11.9929
▁VRS	-11.9929
▁fluoroquinolones	-11.9931
▁EMCV	-11.9934
▁syn	-11.9935
▁BK	-11.9936
▁[113]	-11.9937
LF	-11.9938
▁scattering	-11.994
activity	-11.9941
▁labels	-11.9942
▁1969	-11.9945
▁ultraviolet	-11.9945
index	-11.9946
▁Cr	-11.9948
DP	-11.9949
▁colour	-11.9949
ack	-11.9952
▁′	-11.9954
▁également	-11.9954
▁immunostaining	-11.9955
▁observing	-11.9955
▁polymerization	-11.9956
▁crowding	-11.9957
▁inversely	-11.9957
▁46]	-11.996
▁grossly	-11.9962
▁Method	-11.9963
▁(17	-11.9964
▁larval	-11.9965
iti	-11.9965
Introduction	-11.9968
▁MRC	-11.9971
▁AC	-11.9972
700	-11.9972
▁Reed	-11.9973
▁frecuente	-11.9976
▁mining	-11.9976
▁Oct	-11.9978
▁contig	-11.9978
▁gD	-11.9978
ani	-11.998
▁scanned	-11.9981
pan	-11.9982
▁worst	-11.9982
particularly	-11.9986
tail	-11.9988
▁oedema	-11.9991
▁Adenovirus	-11.9991
▁169	-11.9992
▁≈	-11.9993
▁chimera	-11.9995
▁obese	-11.9997
▁overseas	-11.9999
▁guided	-12.0003
▁bypass	-12.0004
▁Ces	-12.0005
▁bright	-12.0009
▁graves	-12.001
▁OS	-12.0013
▁dyes	-12.0014
▁necessitate	-12.0015
▁DUBs	-12.0015
Similar	-12.0017
▁Ru	-12.0019
▁exercises	-12.002
High	-12.0021
disease	-12.0023
▁Sample	-12.0023
ence	-12.0024
▁RBCs	-12.0025
▁postnatal	-12.0026
were	-12.0026
▁crossing	-12.0028
▁chills	-12.003
▁reproduced	-12.0031
small	-12.0032
▁comparatively	-12.0034
▁elusive	-12.0036
types	-12.004
▁collections	-12.0042
▁BAC	-12.0042
▁King	-12.0046
Huang	-12.005
▁ICUs	-12.005
▁QTL	-12.0051
-3'	-12.0053
▁cooperative	-12.0053
1-3	-12.0053
pA	-12.0054
▁starvation	-12.0054
▁counties	-12.0055
▁aortic	-12.0056
▁hnRNP	-12.0057
MR	-12.0062
Ho	-12.0063
▁antagonism	-12.0063
▁2017,	-12.0063
▁Amplification	-12.0064
molecule	-12.0071
▁stations	-12.0074
▁GBS	-12.0074
Mar	-12.0076
University	-12.0076
my	-12.0079
▁stresses	-12.0082
▁formats	-12.0082
▁nidovirus	-12.0088
▁uid	-12.009
▁economies	-12.009
▁meant	-12.0091
Ko	-12.0091
▁prefer	-12.0093
activating	-12.0094
▁Purified	-12.0094
stimulating	-12.0096
▁spatially	-12.0096
▁tracer	-12.0097
▁lactis	-12.0099
tal	-12.01
▁identifiable	-12.01
▁ignored	-12.01
ox	-12.0102
▁(35)	-12.0107
▁Lab	-12.0107
▁3.7	-12.0109
▁Factors	-12.0113
3%)	-12.0116
▁efflux	-12.0117
▁unexplained	-12.0117
▁tachypnea	-12.0117
▁enhancer	-12.0119
probe	-12.0123
▁expectation	-12.0124
▁storm	-12.0124
▁polyomavirus	-12.0125
▁ELISPOT	-12.0128
▁Scheme	-12.013
ure	-12.0133
▁(1985)	-12.0133
▁[111]	-12.0136
▁meningococcal	-12.0136
IF	-12.0136
ér	-12.0137
thio	-12.0137
82	-12.0139
▁relatedness	-12.0139
iva	-12.0141
bl	-12.0143
▁1500	-12.0144
ising	-12.0144
▁mutual	-12.0145
IAV	-12.0146
▁thorax	-12.0147
▁12)	-12.0147
▁incentives	-12.0149
▁expenditure	-12.0149
len	-12.015
▁hip	-12.015
▁leg	-12.015
19,	-12.0154
▁statements	-12.0154
▁clindamycin	-12.0154
▁Washington	-12.0155
EAE	-12.0156
105	-12.0156
Do	-12.0156
DG	-12.0157
Val	-12.0157
▁PTB	-12.0157
▁decide	-12.0158
▁Few	-12.0159
▁Beta	-12.0159
▁augment	-12.0159
rank	-12.0163
▁controversy	-12.0163
cancer	-12.0163
109	-12.0164
▁eliciting	-12.0166
▁23%	-12.0168
dT	-12.0171
▁disappeared	-12.0173
▁Death	-12.0179
▁albopictus	-12.0181
800	-12.0182
▁pCAGGS	-12.0182
▁Potential	-12.0182
▁arrangements	-12.0184
▁migrants	-12.0184
▁6-8	-12.0186
▁kappa	-12.0188
▁amenable	-12.019
▁money	-12.0191
lymphocytes	-12.0191
▁Error	-12.0191
▁gathered	-12.0192
▁IPC	-12.0192
▁electroporation	-12.0192
▁unwinding	-12.0193
ogen	-12.0194
▁enfermedades	-12.0196
▁146	-12.0196
▁vapor	-12.0197
▁mission	-12.0198
▁overlaps	-12.02
▁colostral	-12.0201
▁herb	-12.0202
▁oligodendrocyte	-12.0206
▁Amino	-12.0208
Sch	-12.0209
▁Remarkably	-12.0211
110	-12.0211
MO	-12.0211
▁?	-12.0212
7.5	-12.0213
▁Supplemental	-12.0214
▁virome	-12.0215
ORFs	-12.0215
▁TBEV	-12.0215
▁1968	-12.0218
acute	-12.0218
mal	-12.0219
▁strengths	-12.0219
▁156	-12.022
▁needles	-12.0224
▁41,	-12.0226
self	-12.0226
▁sgRNA	-12.0227
▁hematologic	-12.0227
▁societal	-12.0228
▁Increasing	-12.0228
▁FT	-12.0229
▁Almost	-12.023
▁42,	-12.0231
▁Sec	-12.0231
▁oriented	-12.0232
aba	-12.0233
▁reflection	-12.0234
eau	-12.0235
▁Congo	-12.0235
▁pelvic	-12.0237
▁chaperones	-12.0243
lipid	-12.0245
▁evacuation	-12.0246
▁cope	-12.0246
▁multivalent	-12.0246
▁mycoplasma	-12.0249
▁amplifying	-12.0249
▁Symptoms	-12.0249
▁corn	-12.0249
face	-12.025
ow	-12.0251
▁pollutant	-12.0251
▁jaundice	-12.0252
▁RNeasy	-12.0256
▁homogenate	-12.026
▁152	-12.0262
RL	-12.0263
15-	-12.0266
▁labelling	-12.0266
ill	-12.0267
▁compensate	-12.0267
▁158	-12.0267
Amersham	-12.0269
▁Nucleic	-12.0271
▁MOG	-12.0273
▁0.08	-12.0273
▁1972)	-12.0273
▁shortage	-12.0275
▁aspartate	-12.0276
▁logical	-12.0278
▁preserve	-12.028
▁acyl	-12.0281
▁CRCoV	-12.0282
contact	-12.0282
was	-12.0283
▁helping	-12.0285
▁−80	-12.0287
▁eradicate	-12.0289
▁Pakistan	-12.0289
▁Or	-12.029
▁pneumonias	-12.029
▁bold	-12.0292
BC	-12.0297
▁civets	-12.0298
WNV	-12.0298
▁acetic	-12.0298
section	-12.0301
▁sold	-12.0302
▁hidden	-12.0302
1%)	-12.0303
cy	-12.0303
▁AuNPs	-12.0305
▁60°	-12.0306
▁2001,	-12.0306
▁AY	-12.0308
▁boosting	-12.0309
▁lentivirus	-12.0309
ists	-12.031
▁larynx	-12.0311
proteins	-12.0311
▁drastically	-12.0311
▁chemiluminescence	-12.0311
this	-12.0311
▁cytometric	-12.0311
▁investments	-12.0313
▁hotels	-12.0314
▁Objective	-12.0315
▁COS	-12.0316
▁restricting	-12.0317
ble	-12.0319
med	-12.0324
▁carnivores	-12.0324
RO	-12.0325
␤	-12.0328
▁excision	-12.0329
▁infrequent	-12.0329
▁circulatory	-12.033
▁HTNV	-12.033
bottom	-12.0332
Coronaviruses	-12.0336
▁7.4)	-12.0337
▁Number	-12.0338
▁census	-12.0339
▁substitute	-12.0341
▁weapons	-12.0342
ola	-12.0343
▁PNA	-12.0345
▁sparse	-12.0346
▁soap	-12.0347
▁gastritis	-12.0348
▁declining	-12.0348
▁brainstem	-12.0349
Ha	-12.0351
▁macromolecules	-12.0355
▁obligate	-12.0355
▁EMS	-12.0356
▁venom	-12.0356
MM	-12.0356
▁triad	-12.0356
▁JE	-12.0356
FA	-12.0358
▁tea	-12.0361
▁Porcine	-12.0361
▁deficit	-12.0363
▁lifestyle	-12.0363
▁covariates	-12.0365
▁overlaid	-12.0367
▁aff	-12.0367
▁myeloma	-12.0369
▁TCA	-12.037
boost	-12.0373
▁signed	-12.0375
▁niveau	-12.0376
▁bones	-12.0376
▁poorer	-12.0377
▁Coronaviruses	-12.0377
▁avant	-12.0377
▁rendering	-12.038
▁complexed	-12.038
fr	-12.038
▁rec	-12.038
▁electrolytes	-12.0384
ful	-12.0385
▁Freund	-12.0386
▁avidity	-12.0387
▁letters	-12.0388
▁driver	-12.0388
▁$1	-12.0388
▁NOD	-12.039
▁NHS	-12.0393
▁spectrophotometer	-12.0395
▁distension	-12.0395
ERK	-12.0396
▁plusieurs	-12.0396
▁prednisone	-12.0396
▁Ultra	-12.0396
▁pharmacokinetics	-12.0397
▁factores	-12.04
▁immunoassays	-12.0401
Currently	-12.0401
▁thinking	-12.0402
▁metronidazole	-12.0404
418	-12.0409
das	-12.0411
▁TBS	-12.0413
▁baumannii	-12.0413
▁compensatory	-12.0414
▁multivariable	-12.0414
▁PCP	-12.0415
▁hinder	-12.0418
▁prostaglandin	-12.042
▁fund	-12.0421
fluoro	-12.0422
▁pEGFP	-12.0424
▁shortened	-12.0424
mortem	-12.0425
early	-12.0427
▁2010.	-12.0428
▁(2015)	-12.0439
▁Others	-12.0439
▁underway	-12.0439
number	-12.044
▁organelle	-12.044
▁pink	-12.0441
▁atherosclerosis	-12.0442
▁enzootic	-12.0442
▁diaphragm	-12.0442
ari	-12.0443
▁Detailed	-12.0445
▁bank	-12.0446
5%)	-12.0447
nature	-12.0447
▁subtilis	-12.0448
6),	-12.0448
without	-12.0448
▁Resistance	-12.0453
tor	-12.0453
▁longest	-12.0453
▁ecosystems	-12.0454
▁Liberia	-12.0454
EMC	-12.0454
▁grows	-12.0456
methionine	-12.0456
▁expense	-12.0457
▁respiratorio	-12.0457
▁chimpanzee	-12.0458
▁investigator	-12.0458
▁SAR	-12.0459
▁anatomical	-12.046
▁arbitrary	-12.0461
▁sterilization	-12.0461
▁ch	-12.0462
▁PRO	-12.047
▁Pasteurella	-12.0471
▁diminish	-12.0472
ba	-12.0473
san	-12.0473
350	-12.0475
NE	-12.0475
▁client	-12.0476
AM	-12.0478
▁multifactorial	-12.048
▁ambulatory	-12.048
[...]
