<unk>	0
<s>	0
</s>	0
covid-19	0
▁the	-3.20329
,	-3.24834
.	-3.49853
▁of	-3.51938
▁and	-3.706
▁in	-3.92841
-	-4.16455
▁to	-4.1781
▁(	-4.31889
▁a	-4.37557
▁with	-4.82097
▁for	-4.86584
▁is	-4.92771
)	-4.96048
▁"	-5.08815
▁that	-5.11077
▁.	-5.13022
"	-5.13747
▁were	-5.22098
▁was	-5.22108
▁by	-5.25327
▁as	-5.28108
▁are	-5.44529
▁be	-5.50642
▁or	-5.54897
▁from	-5.56648
s	-5.56844
▁on	-5.71058
▁this	-5.77823
▁at	-5.78771
▁et	-5.84713
▁al	-5.88352
▁an	-5.93124
▁cells	-5.94053
/	-5.99465
▁not	-6.03587
▁have	-6.06513
▁virus	-6.08682
a	-6.19575
▁which	-6.20767
▁these	-6.23497
1	-6.24318
▁been	-6.2742
▁1	-6.29159
▁2	-6.31699
▁infection	-6.32682
▁it	-6.32758
▁may	-6.34619
▁has	-6.3518
▁also	-6.38963
▁we	-6.39326
▁can	-6.39782
'	-6.40963
▁,	-6.44048
;	-6.44084
).	-6.48909
▁viral	-6.5651
▁other	-6.58501
e	-6.586
:	-6.59033
▁protein	-6.59924
.,	-6.60218
▁using	-6.60548
c	-6.60884
▁cell	-6.61519
▁disease	-6.62221
▁patients	-6.63006
▁3	-6.63099
▁used	-6.63488
),	-6.64337
2	-6.66363
▁study	-6.67657
▁all	-6.69048
▁but	-6.71303
▁more	-6.72461
▁between	-6.74597
▁de	-6.75807
▁than	-6.7618
▁s	-6.76583
b	-6.79086
n	-6.80723
▁such	-6.81491
the	-6.8202
▁after	-6.84218
▁h	-6.85044
▁c	-6.8564
▁their	-6.87601
▁one	-6.9057
▁two	-6.91671
▁viruses	-6.92758
▁data	-6.93366
▁t	-6.9538
▁p	-6.96477
▁most	-6.96993
▁however	-6.98985
▁no	-6.99821
▁5	-7.00407
▁human	-7.00801
▁into	-7.02695
▁rna	-7.02997
▁both	-7.03535
▁	-7.04229
▁4	-7.04557
▁results	-7.05579
3	-7.06251
▁only	-7.07964
▁during	-7.0834
▁studies	-7.08722
▁health	-7.08879
g	-7.09307
▁b	-7.09544
▁10	-7.12062
▁proteins	-7.12487
▁high	-7.1381
▁different	-7.14334
▁there	-7.14996
▁when	-7.16976
▁each	-7.17869
▁e	-7.19699
▁clinical	-7.19823
▁cases	-7.19982
▁respiratory	-7.21479
▁control	-7.21626
▁time	-7.21966
▁expression	-7.23276
▁found	-7.23857
▁number	-7.24818
▁infected	-7.2539
▁analysis	-7.25813
▁they	-7.2622
▁its	-7.26301
▁had	-7.26678
d	-7.27066
i	-7.27266
▁la	-7.28524
▁influenza	-7.28693
▁n	-7.2894
▁some	-7.29127
▁i	-7.29234
▁treatment	-7.29307
▁shown	-7.29599
▁our	-7.29861
p	-7.31561
▁mice	-7.31624
▁well	-7.32084
▁reported	-7.32751
▁l	-7.3281
▁could	-7.33401
▁use	-7.3484
▁group	-7.3574
4	-7.35882
▁samples	-7.36225
in	-7.36252
▁associated	-7.37175
▁first	-7.38478
▁=	-7.38752
▁activity	-7.38846
▁response	-7.39255
▁infections	-7.39324
▁gene	-7.3999
fig	-7.40193
▁m	-7.40341
▁should	-7.41143
▁6	-7.41799
l	-7.42249
▁against	-7.43416
▁observed	-7.44679
▁).	-7.44904
▁system	-7.45093
▁including	-7.4566
▁will	-7.45808
cov	-7.46634
▁within	-7.46958
▁non	-7.47888
▁sars	-7.489
-1	-7.49928
▁d	-7.50026
▁three	-7.50194
▁immune	-7.50504
▁if	-7.50733
▁days	-7.52043
▁model	-7.52621
▁host	-7.53122
▁through	-7.53466
▁figure	-7.53613
▁levels	-7.53855
▁cd	-7.54062
▁important	-7.55224
▁compared	-7.56079
▁g	-7.56367
▁increased	-7.56963
▁specific	-7.57218
▁anti	-7.58164
▁those	-7.58806
▁because	-7.59027
▁dna	-7.59111
5	-7.5977
▁significant	-7.61274
▁showed	-7.61935
▁further	-7.62421
▁similar	-7.6277
▁although	-7.63
▁sequence	-7.63517
t	-7.63519
▁many	-7.64156
▁risk	-7.64234
▁present	-7.64241
▁described	-7.64834
▁positive	-7.65076
\"	-7.65716
▁blood	-7.66132
▁new	-7.66457
▁\"	-7.66498
▁based	-7.66958
▁animals	-7.67418
▁performed	-7.67957
m	-7.68411
▁antibody	-7.6868
▁diseases	-7.68905
▁vaccine	-7.69077
▁species	-7.69115
▁then	-7.69726
▁type	-7.69787
▁identified	-7.69921
▁due	-7.70091
▁while	-7.70269
▁several	-7.70682
▁fig	-7.72252
▁among	-7.72407
▁low	-7.72423
▁higher	-7.7252
▁il	-7.72876
▁who	-7.7296
▁detected	-7.73296
▁replication	-7.73499
▁infectious	-7.73519
▁addition	-7.74767
h	-7.74963
▁effect	-7.75334
▁role	-7.75469
▁potential	-7.7593
▁binding	-7.7684
▁antibodies	-7.76945
▁genes	-7.77031
▁case	-7.77346
r	-7.77953
▁+	-7.78546
▁same	-7.78728
▁)	-7.79377
▁development	-7.79424
▁acid	-7.79529
▁rate	-7.79931
▁thus	-7.80156
▁strains	-7.80864
▁ifn	-7.81202
▁transmission	-7.81332
▁severe	-7.81637
▁table	-7.81682
▁over	-7.81998
▁detection	-7.82404
▁following	-7.82693
▁7	-7.82971
▁common	-7.83095
▁en	-7.8421
to	-7.84413
▁presence	-7.84908
▁r	-7.85132
▁-	-7.85794
▁years	-7.86004
▁any	-7.8679
▁level	-7.86844
▁respectively	-7.86868
▁pcr	-7.87415
▁acute	-7.87419
▁would	-7.87627
▁test	-7.87646
▁0	-7.87685
▁therefore	-7.87752
▁patient	-7.87861
▁large	-7.8788
▁age	-7.87957
▁population	-7.88152
▁sequences	-7.88271
▁small	-7.88754
▁groups	-7.88944
▁assay	-7.8933
▁effects	-7.8984
▁factors	-7.89974
▁total	-7.90911
▁membrane	-7.91492
▁information	-7.91947
▁serum	-7.92066
▁cause	-7.92187
▁per	-7.92406
▁production	-7.93083
▁available	-7.93445
▁under	-7.93763
▁single	-7.94249
▁increase	-7.94701
▁significantly	-7.95295
ml	-7.95467
▁genome	-7.95811
▁children	-7.96333
▁where	-7.96468
▁result	-7.96505
▁known	-7.97555
▁8	-7.97709
▁care	-7.98072
▁about	-7.98566
▁previously	-7.99102
▁animal	-7.99163
▁hiv	-7.998
▁obtained	-7.99979
▁less	-8.00526
or	-8.00652
▁μ	-8.01337
▁research	-8.01789
▁without	-8.02097
▁mg	-8.02304
▁methods	-8.03093
▁co	-8.03232
▁responses	-8.04157
▁function	-8.04458
▁lower	-8.04883
▁region	-8.04967
6	-8.05007
▁mm	-8.05045
▁surface	-8.05063
▁possible	-8.05495
▁did	-8.05805
▁include	-8.05923
▁early	-8.0622
▁public	-8.06561
▁method	-8.07099
▁50	-8.07144
▁structure	-8.07312
▁likely	-8.07421
f	-8.07582
▁changes	-8.07693
▁strain	-8.07736
▁min	-8.07941
▁pathogens	-8.08134
▁culture	-8.08221
7	-8.08594
▁before	-8.08933
specific	-8.08961
▁y	-8.09326
▁tissue	-8.09665
(	-8.09752
]	-8.10601
▁day	-8.11054
▁often	-8.11276
▁either	-8.11325
▁out	-8.11451
▁since	-8.11461
▁lung	-8.11711
▁major	-8.12259
▁very	-8.13418
▁site	-8.13777
▁negative	-8.13869
▁target	-8.13918
▁developed	-8.14594
▁considered	-8.14662
based	-8.14826
▁evidence	-8.15133
▁demonstrated	-8.15338
▁antigen	-8.16469
▁bacterial	-8.1659
▁process	-8.16639
▁related	-8.16754
▁conditions	-8.16926
▁example	-8.17231
▁sample	-8.17371
▁mers	-8.17381
▁being	-8.17987
▁20	-8.18143
8	-8.18162
▁multiple	-8.18207
▁might	-8.18321
▁complex	-8.18786
▁period	-8.1893
▁containing	-8.1926
▁cellular	-8.19266
▁up	-8.19456
▁30	-8.19821
▁so	-8.19868
▁cats	-8.20057
▁effective	-8.20158
▁symptoms	-8.20412
▁à	-8.20678
▁highly	-8.21239
▁outbreak	-8.21499
▁antiviral	-8.21651
▁diagnosis	-8.21674
▁even	-8.21687
▁countries	-8.22279
▁receptor	-8.22756
▁determined	-8.22781
▁required	-8.22887
▁concentration	-8.23224
▁whether	-8.23598
▁primary	-8.2364
▁hospital	-8.23866
▁given	-8.24346
▁ml	-8.24663
▁f	-8.25127
▁recent	-8.25338
▁o	-8.25362
▁various	-8.25794
▁vaccines	-8.26334
▁activation	-8.26638
▁q	-8.26651
▁provide	-8.26813
▁molecular	-8.26948
▁form	-8.27003
▁four	-8.27068
▁k	-8.27277
▁tested	-8.2787
▁laboratory	-8.2788
▁collected	-8.27952
▁humans	-8.28474
▁involved	-8.28633
▁reduced	-8.28716
▁•	-8.29702
▁caused	-8.29855
▁amino	-8.2986
▁models	-8.29975
▁values	-8.30075
▁pneumonia	-8.30248
▁12	-8.30262
▁do	-8.30269
▁therapy	-8.30289
▁post	-8.30483
-2	-8.30969
▁coronavirus	-8.31556
▁9	-8.32145
▁normal	-8.32162
▁included	-8.32693
▁long	-8.32717
▁factor	-8.32824
▁isolated	-8.32862
▁via	-8.32907
▁differences	-8.33071
▁water	-8.3365
▁medical	-8.33973
▁24	-8.34213
▁size	-8.34251
▁occur	-8.3431
▁mortality	-8.34521
▁treated	-8.34541
▁systems	-8.34579
▁growth	-8.35053
▁domain	-8.35269
like	-8.35462
▁drug	-8.35542
▁signs	-8.35608
infected	-8.36032
▁dogs	-8.36045
▁expressed	-8.36063
▁range	-8.36128
▁<	-8.36256
pcr	-8.36387
v	-8.36663
▁according	-8.37017
▁approach	-8.37398
o	-8.37399
▁followed	-8.37914
▁vitro	-8.37942
▁un	-8.38496
and	-8.38669
▁individual	-8.38774
▁previous	-8.38898
▁least	-8.39016
▁china	-8.39488
▁15	-8.39558
▁individuals	-8.39983
▁bacteria	-8.40043
▁another	-8.40234
▁second	-8.40356
▁exposure	-8.40584
▁findings	-8.40594
▁des	-8.40704
table	-8.40734
▁sites	-8.4099
▁chronic	-8.41793
▁rt	-8.4215
k	-8.42155
▁vaccination	-8.42537
▁mean	-8.42659
▁additional	-8.43333
▁usually	-8.43409
▁contact	-8.43429
▁spread	-8.43472
▁agents	-8.43519
▁'	-8.4361
▁value	-8.43767
▁reaction	-8.43852
▁100	-8.44151
▁induced	-8.44721
ing	-8.4474
▁mouse	-8.44757
▁indicated	-8.4485
▁syndrome	-8.45052
▁regions	-8.45177
▁whereas	-8.4547
▁fever	-8.45904
▁above	-8.46096
▁lesions	-8.46306
▁temperature	-8.46824
▁standard	-8.47017
▁show	-8.47177
▁order	-8.47523
▁does	-8.47665
▁confirmed	-8.477
▁need	-8.47979
▁areas	-8.47989
▁determine	-8.48308
▁v	-8.48496
▁[	-8.48521
▁assays	-8.48703
▁particles	-8.49095
▁el	-8.49235
▁weeks	-8.49371
▁made	-8.49517
▁interaction	-8.49534
▁work	-8.49602
▁recently	-8.49622
▁types	-8.49918
▁seen	-8.49963
▁ii	-8.50016
▁genetic	-8.50107
▁rates	-8.50267
▁family	-8.51378
▁epidemic	-8.51506
▁experiments	-8.51649
▁fusion	-8.51717
▁concentrations	-8.51734
▁analyzed	-8.51899
▁set	-8.51915
▁pathogen	-8.52335
▁le	-8.52493
▁x	-8.52522
▁active	-8.52756
▁contrast	-8.52942
▁times	-8.53128
▁general	-8.53202
▁secondary	-8.53536
▁affected	-8.5356
▁suggest	-8.54008
▁mrna	-8.54026
▁mechanism	-8.54118
9	-8.5443
▁testing	-8.54479
▁distribution	-8.54536
▁les	-8.54623
▁change	-8.54799
▁ability	-8.55101
▁resistance	-8.55468
▁igg	-8.55588
▁dose	-8.56131
▁peptide	-8.56187
▁usa	-8.56285
▁u	-8.56368
▁limited	-8.56439
▁plasma	-8.56682
▁formation	-8.56711
induced	-8.56789
▁liver	-8.57081
▁part	-8.57137
▁months	-8.57148
▁mechanisms	-8.57358
▁inflammatory	-8.57582
▁tract	-8.57836
▁surveillance	-8.57951
▁direct	-8.58574
▁novel	-8.58691
▁incubated	-8.58694
▁still	-8.58915
▁death	-8.59054
▁resulting	-8.59215
▁how	-8.59224
▁local	-8.59254
▁products	-8.59446
▁calves	-8.59524
▁recombinant	-8.59533
▁inhibition	-8.59676
▁pigs	-8.59982
▁people	-8.60125
▁diagnostic	-8.60229
▁residues	-8.60437
▁initial	-8.60508
▁must	-8.60791
see	-8.60933
▁revealed	-8.61099
▁interactions	-8.61692
▁support	-8.61919
▁pre	-8.62063
▁ph	-8.62079
▁them	-8.62716
▁outbreaks	-8.62934
▁identify	-8.63081
▁few	-8.63186
▁especially	-8.63299
▁produced	-8.63614
▁loss	-8.63654
▁provided	-8.6416
▁added	-8.64164
▁current	-8.64213
▁que	-8.64301
▁immunity	-8.64394
▁diarrhea	-8.64869
▁medium	-8.6496
▁illness	-8.65351
▁rsv	-8.65443
▁sensitivity	-8.65591
▁se	-8.65659
▁14	-8.66237
▁measured	-8.66265
▁phase	-8.66294
▁occurs	-8.66386
▁tests	-8.66475
▁decreased	-8.66648
▁vivo	-8.66838
es	-8.67463
▁air	-8.67474
▁global	-8.67588
▁tissues	-8.67723
▁relative	-8.67799
▁pathway	-8.67808
▁greater	-8.67918
▁wild	-8.6792
▁causes	-8.68278
▁rapid	-8.68462
▁end	-8.68731
▁management	-8.68749
▁synthesis	-8.68755
▁impact	-8.68765
▁suggested	-8.68786
▁molecules	-8.68859
▁transcription	-8.6889
▁experimental	-8.69416
▁able	-8.69524
▁furthermore	-8.69718
▁life	-8.69725
▁;	-8.69728
▁entry	-8.69989
▁protection	-8.70028
▁inflammation	-8.70076
▁nsp	-8.70436
cell	-8.70843
▁natural	-8.71043
▁reduction	-8.71071
▁much	-8.71123
▁difference	-8.71228
▁develop	-8.7132
▁body	-8.71391
▁11	-8.71446
▁hours	-8.71585
▁incidence	-8.71879
▁structures	-8.71971
▁macrophages	-8.71987
▁state	-8.72364
▁particular	-8.72443
▁vector	-8.7254
▁signaling	-8.72585
▁di	-8.72752
▁1)	-8.72849
mediated	-8.72957
as	-8.73217
▁five	-8.73283
▁approximately	-8.73349
▁real	-8.73476
▁drugs	-8.73494
▁selected	-8.73495
we	-8.73542
▁cross	-8.73558
▁critical	-8.7369
▁prior	-8.74102
▁world	-8.74327
▁particularly	-8.74529
▁structural	-8.74618
▁compounds	-8.74726
▁national	-8.75616
▁area	-8.75656
▁states	-8.75669
▁generated	-8.75757
▁16	-8.76017
▁year	-8.76336
▁lead	-8.76339
▁suggesting	-8.764
x	-8.76714
▁isolates	-8.76755
▁overall	-8.76982
▁acids	-8.76995
▁biological	-8.77121
▁cancer	-8.77304
▁defined	-8.77344
▁report	-8.77387
dependent	-8.7743
▁nm	-8.77613
▁events	-8.77642
▁directly	-8.77647
▁association	-8.7766
▁international	-8.77685
▁complete	-8.77847
▁los	-8.77888
▁numbers	-8.77932
y	-8.78252
▁point	-8.78347
▁mutations	-8.7836
▁absence	-8.78433
▁us	-8.7921
figure	-8.79263
▁administration	-8.79438
▁lack	-8.79524
▁consistent	-8.79713
▁essential	-8.79748
▁weight	-8.79823
▁upon	-8.79979
▁presented	-8.80019
▁prevalence	-8.80035
▁populations	-8.80308
▁increasing	-8.80406
▁buffer	-8.80669
▁average	-8.81132
▁brain	-8.81378
▁activities	-8.8149
▁ha	-8.81566
▁sequencing	-8.81753
▁pro	-8.81984
▁detect	-8.81991
▁measures	-8.8202
▁pandemic	-8.82058
▁18	-8.82176
α	-8.82471
▁solution	-8.82501
▁indicate	-8.8256
▁conducted	-8.82664
▁induce	-8.82711
▁pedv	-8.83071
▁functional	-8.83077
▁better	-8.83163
▁epithelial	-8.8353
▁reduce	-8.83724
▁food	-8.8387
▁signal	-8.83991
▁evaluated	-8.84431
▁here	-8.84583
▁challenge	-8.84618
▁receptors	-8.8473
▁review	-8.84833
▁moreover	-8.84838
▁appropriate	-8.84887
▁enzyme	-8.84892
▁con	-8.84962
▁community	-8.84978
1,	-8.85078
▁key	-8.85351
▁fluid	-8.85658
▁identification	-8.85974
▁isolation	-8.86041
▁ns	-8.86056
▁produce	-8.86077
▁become	-8.86106
▁applied	-8.86164
▁ca	-8.86214
▁calculated	-8.86342
▁analyses	-8.8666
▁future	-8.86739
▁line	-8.8688
▁network	-8.86916
▁full	-8.87058
▁pbs	-8.87372
▁examined	-8.87407
type	-8.87525
▁generally	-8.87794
▁prevent	-8.87829
▁13	-8.8792
▁shows	-8.87955
▁characterized	-8.87981
▁together	-8.87986
▁relatively	-8.88086
▁intestinal	-8.88171
▁main	-8.88262
▁derived	-8.88274
▁±	-8.88365
▁expected	-8.88448
▁quality	-8.88483
▁ratio	-8.88735
▁pulmonary	-8.88758
▁25	-8.88826
▁across	-8.89059
▁commonly	-8.89089
▁re	-8.89189
▁controls	-8.89302
▁antigens	-8.89361
▁combination	-8.89395
▁knowledge	-8.89424
▁orf	-8.89438
▁until	-8.89441
▁coli	-8.89874
▁necessary	-8.89929
▁agent	-8.90035
▁healthy	-8.90049
ly	-8.90143
▁release	-8.9021
▁peptides	-8.90251
▁functions	-8.90802
▁gp	-8.90831
▁purified	-8.90968
fold	-8.90978
▁later	-8.91092
▁decrease	-8.91208
▁inhibitors	-8.91349
▁specificity	-8.9141
10	-8.91578
▁susceptible	-8.91586
▁hepatitis	-8.91711
ed	-8.9212
▁environment	-8.92161
for	-8.92179
associated	-8.9236
▁estimated	-8.92549
▁rather	-8.92747
▁short	-8.9285
▁suggests	-8.92868
▁resulted	-8.92905
▁oral	-8.93004
▁taken	-8.93194
▁needed	-8.93221
▁severity	-8.93255
▁class	-8.93306
://	-8.93359
▁48	-8.93415
▁induction	-8.93467
▁like	-8.93538
▁flow	-8.93764
▁established	-8.94084
▁occurred	-8.94588
▁primers	-8.94791
▁leading	-8.94858
▁comparison	-8.94923
▁prevention	-8.95086
▁source	-8.9515
▁reports	-8.95228
▁nasal	-8.95322
▁hand	-8.95359
β	-8.9555
▁efficacy	-8.95567
▁subsequent	-8.95683
time	-8.95694
en	-8.95788
▁reference	-8.95948
▁responsible	-8.95976
▁field	-8.96292
▁cycle	-8.96414
▁fact	-8.96801
▁specimens	-8.96843
▁remains	-8.96879
▁volume	-8.96931
▁length	-8.96993
▁onset	-8.97141
▁titers	-8.9716
▁cultures	-8.97204
▁strategies	-8.97401
▁j	-8.97777
▁ibv	-8.9782
▁skin	-8.97891
▁×	-8.98102
▁central	-8.98186
▁incubation	-8.98251
▁corresponding	-8.984
▁lines	-8.98417
related	-8.98436
▁currently	-8.98463
▁37	-8.98718
kg	-8.98915
▁affect	-8.99031
▁cytokines	-8.99218
▁six	-8.99227
▁mhv	-8.99266
▁product	-8.99461
▁play	-8.99463
▁understanding	-8.99504
▁hcv	-8.99541
▁frequently	-8.9986
▁polymerase	-9.00002
▁parameters	-9.00039
▁despite	-9.00108
▁conserved	-9.00126
-3	-9.00154
▁certain	-9.0021
▁importance	-9.0036
▁therapeutic	-9.00384
▁useful	-9.00437
positive	-9.00731
terminal	-9.00769
▁now	-9.00783
▁elisa	-9.00823
▁mass	-9.00866
▁media	-9.00917
▁tumor	-9.01056
▁40	-9.01211
▁studied	-9.01426
▁nucleotide	-9.01449
▁components	-9.01555
▁pathways	-9.01594
▁survival	-9.01797
▁selection	-9.01931
▁failure	-9.0198
▁reverse	-9.02034
▁kit	-9.0246
▁frequency	-9.02537
▁screening	-9.02605
▁2)	-9.02645
▁investigated	-9.02705
▁free	-9.02829
▁properties	-9.02919
▁inhibitor	-9.02961
▁characteristics	-9.02969
▁processes	-9.0304
▁difficult	-9.03114
▁united	-9.03331
▁damage	-9.03437
▁room	-9.03538
▁environmental	-9.03552
▁amount	-9.03578
▁represent	-9.03809
▁pattern	-9.03826
▁good	-9.04118
▁strong	-9.04286
▁genomic	-9.04481
▁asthma	-9.04502
▁features	-9.04552
▁&	-9.04622
▁proposed	-9.04717
1)	-9.04729
▁stress	-9.04974
▁yet	-9.05394
▁final	-9.05397
▁carried	-9.05409
▁protective	-9.05507
▁capacity	-9.05596
▁step	-9.05853
▁chain	-9.06119
▁social	-9.06122
▁contain	-9.06206
▁une	-9.06229
▁indicating	-9.06276
▁history	-9.06321
▁preprint	-9.0664
▁mutant	-9.06716
▁er	-9.07029
▁mutation	-9.07217
▁genomes	-9.07414
▁mild	-9.07547
▁design	-9.07571
▁clear	-9.07622
▁best	-9.0764
▁emergency	-9.08096
▁whole	-9.08481
▁ms	-9.08668
▁21	-9.08669
▁status	-9.08671
▁safety	-9.0878
▁membranes	-9.08862
▁primer	-9.09126
1-	-9.09177
▁pressure	-9.09421
▁strategy	-9.09423
▁independent	-9.09436
▁examination	-9.09596
▁bovine	-9.0999
er	-9.10144
▁mainly	-9.1021
▁around	-9.10353
▁innate	-9.10513
▁distinct	-9.10616
▁exposed	-9.11134
▁developing	-9.1122
▁cost	-9.11335
▁th	-9.11355
▁est	-9.1136
▁pathogenesis	-9.11377
▁highest	-9.11385
▁require	-9.11418
▁intracellular	-9.11651
▁plasmid	-9.11667
▁10%	-9.11671
▁next	-9.11673
▁milk	-9.11677
▁cleavage	-9.11681
▁provides	-9.11777
▁increases	-9.11993
▁members	-9.12136
▁patterns	-9.12219
▁predicted	-9.12226
▁variety	-9.12413
▁inhibit	-9.12434
▁cattle	-9.12609
▁appears	-9.12774
▁adult	-9.128
▁healthcare	-9.12856
▁amplification	-9.13059
▁transport	-9.13106
▁published	-9.13155
▁unknown	-9.13253
▁course	-9.13295
▁17	-9.13478
▁received	-9.13747
▁2009	-9.13795
▁apoptosis	-9.14031
▁delivery	-9.14096
▁evaluation	-9.14383
▁contains	-9.14498
▁alone	-9.1455
▁60	-9.1462
▁targets	-9.1465
▁side	-9.14688
▁domains	-9.14701
▁translation	-9.14702
▁daily	-9.14727
▁located	-9.14744
▁material	-9.14758
▁techniques	-9.14811
▁stage	-9.14841
▁western	-9.14851
▁position	-9.15024
▁software	-9.15167
j	-9.15198
▁emerging	-9.15257
▁organisms	-9.15288
▁cannot	-9.15463
▁enhanced	-9.15598
▁section	-9.15606
▁university	-9.15735
▁designed	-9.15794
▁improve	-9.15817
▁systemic	-9.159
2,	-9.15944
▁efficiency	-9.1597
▁others	-9.1599
▁antibiotic	-9.16072
▁program	-9.1614
▁vp	-9.16147
▁injury	-9.16234
▁influence	-9.16248
▁appear	-9.16463
▁variable	-9.16537
▁prepared	-9.16538
▁adults	-9.16576
▁every	-9.16588
▁washed	-9.16741
▁approaches	-9.1692
▁means	-9.17108
▁help	-9.17121
▁terms	-9.17136
▁close	-9.17189
▁sensitive	-9.17278
▁antibiotics	-9.17286
▁protease	-9.17382
▁der	-9.17391
▁rapidly	-9.17519
▁assessed	-9.1771
▁along	-9.17798
▁forms	-9.17872
▁hospitals	-9.17975
▁unique	-9.17995
▁plus	-9.18029
▁majority	-9.18174
▁lymphocytes	-9.18296
▁potentially	-9.18311
▁participants	-9.1836
▁what	-9.18454
▁tlr	-9.18592
▁correlation	-9.18605
▁interest	-9.18687
▁cns	-9.18855
▁below	-9.1886
▁subsequently	-9.18948
▁young	-9.18951
▁del	-9.19318
▁du	-9.19364
▁relationship	-9.19388
▁bat	-9.1939
▁requires	-9.19505
▁:	-9.19578
▁rats	-9.19588
▁make	-9.19647
▁allow	-9.19766
▁sera	-9.19851
▁self	-9.19866
▁proportion	-9.19874
▁neutralizing	-9.19946
▁light	-9.20197
▁specifically	-9.20199
▁%	-9.20207
▁nature	-9.20233
▁improved	-9.20285
cd	-9.20401
▁duration	-9.2055
▁pathogenic	-9.20621
▁cytokine	-9.20643
▁assess	-9.20721
▁avian	-9.20921
▁finally	-9.21018
▁relevant	-9.21137
?	-9.21461
▁basis	-9.21523
▁staining	-9.21903
▁contribute	-9.22056
▁red	-9.22084
▁coronaviruses	-9.22195
▁/	-9.22267
▁score	-9.22315
▁see	-9.22444
▁degree	-9.22453
▁collection	-9.22486
▁probably	-9.22866
▁live	-9.22922
▁noted	-9.22929
▁targeting	-9.22975
▁authors	-9.23223
▁once	-9.23393
▁susceptibility	-9.23402
ii	-9.23669
▁recognized	-9.23699
▁series	-9.23738
▁vs	-9.23756
▁statistical	-9.24048
▁core	-9.24051
▁led	-9.24053
▁action	-9.24103
▁third	-9.24147
an	-9.24155
▁"•	-9.24168
▁lipid	-9.24236
▁par	-9.24456
▁peak	-9.24502
▁having	-9.24567
▁larger	-9.246
binding	-9.24627
▁plates	-9.24804
▁gel	-9.24844
▁performance	-9.24888
▁similarly	-9.24981
▁criteria	-9.25056
▁way	-9.25163
▁subjects	-9.25169
it	-9.25226
▁outcome	-9.25536
▁modified	-9.2556
▁upper	-9.25572
▁bats	-9.25652
▁variation	-9.2566
▁density	-9.2575
▁recommended	-9.25757
▁condition	-9.26033
▁evaluate	-9.26077
▁procedures	-9.2609
▁poor	-9.26127
▁immunization	-9.2617
▁activated	-9.2625
▁bind	-9.26293
▁combined	-9.26354
▁efficient	-9.26358
▁expressing	-9.26366
up	-9.26912
▁cdna	-9.27138
▁little	-9.27217
▁die	-9.27244
▁mixed	-9.27319
▁19	-9.27403
▁last	-9.27728
▁throughout	-9.27741
▁stable	-9.27885
▁he	-9.28159
▁cat	-9.28216
well	-9.28254
▁access	-9.28381
▁problem	-9.28387
▁mucosal	-9.28499
▁β	-9.28657
▁nucleic	-9.2885
▁base	-9.28913
▁nuclear	-9.28922
▁protocol	-9.29102
▁technology	-9.29111
▁wt	-9.29224
▁assessment	-9.29369
▁variables	-9.29427
▁his	-9.2979
▁reactions	-9.29958
▁medicine	-9.30038
▁horses	-9.3026
▁interestingly	-9.30427
▁administered	-9.30436
▁50%	-9.30444
▁extracted	-9.30446
▁typically	-9.30452
▁event	-9.30475
infection	-9.30543
▁indicates	-9.30614
▁3)	-9.30706
▁finding	-9.30834
▁las	-9.30851
▁late	-9.31059
▁chemical	-9.31224
▁points	-9.31334
▁antimicrobial	-9.31341
▁week	-9.31508
▁prrsv	-9.31511
▁alternative	-9.31582
▁application	-9.31664
▁million	-9.31789
▁training	-9.3179
▁tnf	-9.31839
▁longer	-9.31875
▁panel	-9.31906
▁travel	-9.31967
▁trials	-9.3199
▁fluorescence	-9.31997
▁removed	-9.3211
▁recognition	-9.32285
▁workers	-9.32287
▁staff	-9.32529
▁database	-9.32587
);	-9.32598
▁economic	-9.32904
▁demonstrate	-9.3291
▁28	-9.32999
org	-9.33013
▁generation	-9.33064
▁5%	-9.33102
▁airway	-9.33284
▁infants	-9.33598
▁regarding	-9.33811
▁ace	-9.33861
▁far	-9.33876
▁lungs	-9.33928
▁transfected	-9.34021
▁1⁄4	-9.34034
▁almost	-9.34067
▁vectors	-9.34099
▁place	-9.34109
▁),	-9.34288
▁heart	-9.34385
▁transfer	-9.344
term	-9.34449
▁dans	-9.34613
▁indeed	-9.34736
▁resistant	-9.34737
day	-9.34811
▁basic	-9.34853
▁kidney	-9.34868
▁interferon	-9.34904
▁>	-9.35345
▁hosts	-9.35681
▁dependent	-9.35778
th	-9.35985
▁una	-9.36286
▁index	-9.36297
▁double	-9.36344
▁processing	-9.36691
▁practice	-9.3672
data	-9.36753
▁vero	-9.36767
▁wide	-9.36781
▁underlying	-9.36844
▁hcov	-9.36939
▁pneumoniae	-9.3701
▁regulation	-9.37161
▁outcomes	-9.37252
▁remain	-9.37504
▁probability	-9.37626
▁possibility	-9.37631
free	-9.37634
▁ebola	-9.37722
on	-9.37834
▁w	-9.37971
▁bone	-9.37986
▁[1]	-9.38008
▁es	-9.38097
▁phylogenetic	-9.38233
▁''	-9.38534
▁molecule	-9.38534
▁causing	-9.38574
▁variants	-9.3867
▁assembly	-9.38722
▁complexes	-9.38727
▁procedure	-9.38743
▁widely	-9.38791
▁affinity	-9.38887
▁enzymes	-9.3889
▁context	-9.38974
▁allowed	-9.39011
▁cap	-9.39054
▁unit	-9.39087
▁birds	-9.39283
11	-9.39302
▁physical	-9.39302
▁monoclonal	-9.39351
▁proliferation	-9.39398
▁leads	-9.39489
▁sirna	-9.39586
▁literature	-9.39851
▁services	-9.39975
▁investigation	-9.40038
▁compound	-9.40193
▁evolution	-9.40271
▁glycoprotein	-9.40391
▁primarily	-9.40412
▁experiment	-9.405
▁clearly	-9.40607
▁government	-9.40708
▁peripheral	-9.40772
▁half	-9.40809
▁inhibited	-9.40904
▁degradation	-9.40907
▁swine	-9.40946
▁ci	-9.40952
▁substrate	-9.41012
▁laboratories	-9.41036
▁deaths	-9.4111
sars	-9.41409
▁percentage	-9.4143
-6	-9.41489
ic	-9.41496
▁date	-9.41508
▁resources	-9.41593
15	-9.41614
▁additionally	-9.41628
▁fecal	-9.41732
▁includes	-9.41852
▁por	-9.41854
▁contained	-9.41953
▁scientific	-9.41997
▁spp	-9.42103
treated	-9.4213
▁units	-9.42212
▁middle	-9.42282
▁22	-9.42287
▁poly	-9.42316
▁[4]	-9.42359
▁sufficient	-9.42403
▁done	-9.42406
▁2005)	-9.4243
▁measure	-9.42501
▁problems	-9.42544
▁codon	-9.42547
▁origin	-9.42705
▁nodes	-9.42797
at	-9.42946
▁represents	-9.42962
▁open	-9.42974
▁investigate	-9.43068
▁fixed	-9.43077
▁95%	-9.43115
▁act	-9.43203
▁[8]	-9.43206
▁though	-9.43224
▁α	-9.43318
▁guidelines	-9.43333
▁diversity	-9.43417
▁monitoring	-9.4347
▁[5]	-9.43603
▁[3]	-9.43621
▁tgev	-9.43626
▁inoculated	-9.43698
▁discussed	-9.43738
▁broad	-9.43905
▁old	-9.44118
▁chinese	-9.44126
▁significance	-9.44139
▁suspected	-9.4414
▁[6]	-9.44149
▁epitopes	-9.44261
▁generate	-9.44391
▁focus	-9.44474
▁probe	-9.44543
▁center	-9.44567
▁sub	-9.44577
▁[7]	-9.44622
il	-9.44764
▁component	-9.44815
▁200	-9.44819
▁inhibitory	-9.44864
~	-9.44935
▁rotavirus	-9.45015
▁[9]	-9.45057
▁renal	-9.45078
▁maximum	-9.45095
u	-9.45203
γ	-9.45246
▁necrosis	-9.4537
▁africa	-9.45378
▁(2)	-9.45398
▁(1)	-9.45514
this	-9.45523
▁dengue	-9.45674
▁country	-9.45727
▁manufacturer	-9.45853
▁na	-9.45917
▁observation	-9.45963
▁follow	-9.46055
▁cultured	-9.46056
which	-9.46061
▁manner	-9.46173
▁[11]	-9.46314
▁adenovirus	-9.46378
▁linked	-9.46433
▁2004)	-9.46447
▁epithelium	-9.4645
▁closely	-9.46511
▁right	-9.46541
one	-9.46696
▁content	-9.46876
▁[12]	-9.46891
▁doses	-9.46898
▁microscopy	-9.46927
▁extent	-9.47041
▁2006)	-9.47087
▁recombination	-9.47129
▁sampling	-9.47262
▁past	-9.47334
▁envelope	-9.47395
▁down	-9.47432
▁mediated	-9.47441
▁[13]	-9.47485
▁rare	-9.4763
▁[10]	-9.47638
▁scale	-9.47666
▁ventilation	-9.47747
▁23	-9.47878
▁worldwide	-9.47963
▁mutants	-9.48072
▁conclusion	-9.4809
▁2007)	-9.48166
▁quantitative	-9.48194
▁stability	-9.48238
▁vaccinated	-9.48245
▁organization	-9.48247
derived	-9.48281
human	-9.48448
▁take	-9.48529
▁regulatory	-9.48568
▁35	-9.48591
▁iii	-9.48596
▁pi	-9.48654
2)	-9.48711
▁achieved	-9.48825
▁2003)	-9.48895
▁needs	-9.49041
▁plant	-9.4906
▁left	-9.49083
▁[14]	-9.49098
▁infect	-9.49106
▁already	-9.49287
▁titer	-9.49293
▁2013)	-9.49305
▁technique	-9.49381
▁injection	-9.49386
▁internal	-9.49508
▁2012)	-9.49574
reviewed	-9.49805
▁mixture	-9.49881
▁energy	-9.50074
▁hsv	-9.50272
▁intestine	-9.50323
▁muscle	-9.504
▁[15]	-9.50423
▁[2]	-9.50459
▁earlier	-9.50504
▁rat	-9.50528
▁cough	-9.50584
all	-9.50722
▁allows	-9.50767
▁south	-9.50919
▁2008)	-9.50946
12	-9.50989
▁recovery	-9.51049
▁z	-9.51148
▁und	-9.5141
▁stimulation	-9.51453
z	-9.51513
▁mammalian	-9.51515
▁conventional	-9.51548
▁thought	-9.51806
▁sections	-9.51833
▁domestic	-9.51853
▁clinically	-9.5188
2-	-9.51882
▁policy	-9.52021
▁particle	-9.52064
▁observations	-9.52085
▁2010)	-9.52141
▁72	-9.52265
▁efforts	-9.52286
w	-9.5231
▁stages	-9.52323
▁mucosa	-9.52463
▁targeted	-9.52517
▁potent	-9.5257
▁elevated	-9.52573
negative	-9.52595
▁stem	-9.52636
▁oxygen	-9.5265
▁paper	-9.52718
-10	-9.5275
▁account	-9.52754
▁accumulation	-9.52889
▁median	-9.52902
▁mab	-9.52944
▁inoculation	-9.53038
▁simple	-9.53269
▁sources	-9.53273
▁virions	-9.53554
▁feline	-9.53663
▁2011)	-9.53742
de	-9.53774
▁spike	-9.53839
_	-9.53845
''	-9.5385
▁versus	-9.53869
▁[16]	-9.53926
▁bound	-9.54013
▁except	-9.54019
▁epitope	-9.54052
al	-9.54068
▁epidemiological	-9.5412
▁zikv	-9.54144
▁ou	-9.54192
no	-9.542
▁load	-9.54221
-4	-9.54222
▁fraction	-9.54263
▁recorded	-9.54303
▁fully	-9.54315
▁white	-9.5436
▁virulence	-9.54386
▁[17]	-9.54604
▁technologies	-9.54644
▁seven	-9.54649
▁dilution	-9.54772
▁extensive	-9.54833
▁called	-9.54952
▁hr	-9.54999
▁strongly	-9.55002
▁limit	-9.55097
▁older	-9.55235
▁dynamics	-9.55242
▁lymph	-9.55357
▁author	-9.55492
▁rabbit	-9.55575
▁0.5	-9.5577
▁porcine	-9.55785
▁secretion	-9.55961
▁location	-9.56001
▁frequent	-9.56016
▁rnas	-9.56031
▁2014)	-9.56039
▁matrix	-9.56054
▁typical	-9.56055
▁successful	-9.56253
▁amounts	-9.56288
▁tool	-9.56295
▁trial	-9.56513
of	-9.56515
▁admission	-9.56529
▁route	-9.5662
▁diluted	-9.56742
▁intervention	-9.56752
▁reducing	-9.5685
▁commercial	-9.56914
▁ng	-9.57045
▁contacts	-9.57116
▁encoding	-9.57169
▁experience	-9.57195
▁numerous	-9.57201
▁approved	-9.57248
▁[18]	-9.57286
▁hence	-9.57311
▁emergence	-9.57605
▁transmitted	-9.57718
▁japan	-9.57858
▁space	-9.57869
▁synthesized	-9.57869
▁introduced	-9.57952
▁initially	-9.57984
▁exhibited	-9.58003
▁piglets	-9.58063
▁formed	-9.58068
▁26	-9.58202
▁promoter	-9.5836
▁log	-9.58476
▁capable	-9.58572
▁stained	-9.58627
▁issues	-9.58729
▁nt	-9.58785
▁ed	-9.58804
▁elements	-9.58897
▁np	-9.58932
ms	-9.58995
▁latter	-9.59009
▁women	-9.59017
▁maintained	-9.59035
▁canine	-9.59133
▁multi	-9.59228
▁acquired	-9.59251
▁optimal	-9.59286
▁[19]	-9.59337
▁phosphorylation	-9.59387
▁fragment	-9.59519
▁kong	-9.596
▁completely	-9.59628
▁depending	-9.59769
▁seems	-9.5977
▁pain	-9.5984
▁promote	-9.59954
old	-9.59967
▁signals	-9.60025
▁tuberculosis	-9.60103
▁*	-9.60113
▁asymptomatic	-9.60126
▁gastrointestinal	-9.60142
▁statistically	-9.60203
▁ensure	-9.60385
▁residue	-9.60493
▁ifitm	-9.60497
▁confirm	-9.60499
▁stored	-9.60503
▁fragments	-9.60536
▁follows	-9.60757
▁search	-9.60837
▁enhance	-9.60961
▁neutrophils	-9.6101
▁sp	-9.61014
▁murine	-9.61034
▁estimates	-9.61168
▁introduction	-9.61206
▁random	-9.61263
▁note	-9.61265
16	-9.61275
▁hypothesis	-9.61324
▁morbidity	-9.61414
▁setting	-9.61435
▁hrv	-9.61537
+	-9.61539
▁obtain	-9.61568
▁moderate	-9.61678
▁organism	-9.61686
0	-9.61687
▁disorders	-9.61747
▁providing	-9.61756
▁estimate	-9.61824
▁detailed	-9.61881
▁correlated	-9.61901
▁kinase	-9.6195
▁[20]	-9.61951
▁probes	-9.61976
▁45	-9.62024
▁zoonotic	-9.62034
▁cluster	-9.62036
▁motif	-9.62044
▁steps	-9.62054
▁sodium	-9.62146
▁hong	-9.62252
▁presentation	-9.62461
▁display	-9.62476
▁spleen	-9.6269
▁involvement	-9.6271
▁behavior	-9.62738
q	-9.6274
▁background	-9.62823
▁ct	-9.6289
▁[21]	-9.62903
▁denv	-9.62913
▁showing	-9.62962
▁rv	-9.63026
▁complications	-9.63084
▁differential	-9.63138
3,	-9.63237
▁genus	-9.63393
▁survey	-9.63404
▁electron	-9.63513
▁concern	-9.63569
▁minutes	-9.63585
▁roles	-9.6371
▁green	-9.63718
▁routine	-9.63885
▁classified	-9.6392
▁ad	-9.63936
▁1%	-9.64119
▁understand	-9.64245
▁materials	-9.6426
▁veterinary	-9.64297
▁distance	-9.64375
▁antigenic	-9.6444
▁gram	-9.64459
▁nf	-9.64526
▁department	-9.64562
▁preparation	-9.64586
▁involving	-9.6464
▁mhc	-9.64644
▁settings	-9.64767
▁genotype	-9.64875
▁27	-9.64934
▁reads	-9.65022
▁yield	-9.65036
▁controlled	-9.65072
▁facilities	-9.65159
▁facilitate	-9.65165
▁contamination	-9.65168
▁infectivity	-9.65203
▁rabbits	-9.65347
▁identity	-9.65463
▁always	-9.65486
▁copies	-9.65499
▁diagnosed	-9.65517
▁32	-9.65629
▁linear	-9.65665
▁great	-9.65768
▁documented	-9.65845
▁identical	-9.65948
▁extraction	-9.65985
▁germany	-9.66192
inflammatory	-9.66235
▁isolate	-9.66239
▁(10	-9.66303
▁2015)	-9.66311
▁cytoplasm	-9.66329
▁smaller	-9.66578
▁cytoplasmic	-9.66628
▁europe	-9.6668
▁male	-9.66808
▁making	-9.6682
▁adverse	-9.66844
▁characteristic	-9.66965
▁iv	-9.67055
▁tools	-9.67067
▁[22]	-9.67078
▁possibly	-9.67354
▁supernatant	-9.67358
▁amplified	-9.67411
▁icu	-9.67693
▁intensity	-9.67719
▁scores	-9.67723
▁eight	-9.67728
▁circulating	-9.67781
nt	-9.67897
▁discovery	-9.67906
▁nk	-9.67918
▁alveolar	-9.67926
▁near	-9.67956
by	-9.68023
▁seasonal	-9.6804
▁remaining	-9.68093
▁diverse	-9.68113
▁cov	-9.68124
▁term	-9.68161
▁shedding	-9.68163
▁37°	-9.68167
▁progression	-9.68209
▁just	-9.68325
▁entire	-9.68363
▁placed	-9.68475
▁occurring	-9.6858
▁separate	-9.68586
▁interventions	-9.68603
▁kda	-9.68702
is	-9.68714
▁[23]	-9.68982
▁capsid	-9.69012
▁organ	-9.69014
▁supported	-9.69175
▁para	-9.69178
▁initiation	-9.69234
▁persistent	-9.693
▁chest	-9.6932
▁thereby	-9.69384
▁programs	-9.69391
▁markers	-9.69433
▁organs	-9.6944
▁serious	-9.69462
▁induces	-9.695
▁subunit	-9.69664
▁hbv	-9.69793
▁consider	-9.6981
▁express	-9.69922
▁calf	-9.69933
▁networks	-9.69964
▁36	-9.70052
▁4)	-9.70053
stranded	-9.70144
▁employed	-9.70161
▁cardiac	-9.7021
▁differentiation	-9.7038
▁heat	-9.70652
although	-9.7073
▁coverage	-9.70737
▁interact	-9.70752
▁person	-9.70753
▁immediately	-9.70871
▁pig	-9.70967
▁tree	-9.70982
▁29	-9.71097
▁profile	-9.71181
▁industry	-9.71232
▁appeared	-9.71291
▁reporting	-9.71393
▁remained	-9.71471
▁asia	-9.71544
▁template	-9.71567
▁successfully	-9.7169
la	-9.71739
▁downstream	-9.71787
▁malaria	-9.71878
▁female	-9.71984
▁easily	-9.72083
▁regression	-9.72093
▁fi	-9.72109
▁persons	-9.72158
▁similarity	-9.72306
▁ma	-9.72394
resistant	-9.72405
▁urine	-9.72473
▁peer	-9.72601
▁benefit	-9.72648
▁0.1	-9.72653
ha	-9.72695
▁attention	-9.72756
there	-9.72764
▁focused	-9.72786
▁apparent	-9.72854
▁tb	-9.73031
▁plays	-9.73091
▁[24]	-9.73112
13	-9.73208
▁largely	-9.73291
▁bp	-9.73436
▁crucial	-9.73465
▁microbial	-9.73512
▁autophagy	-9.73623
▁st	-9.73623
▁released	-9.73648
▁doi	-9.7371
▁enteric	-9.73791
▁find	-9.73873
▁regional	-9.73879
▁examples	-9.73957
▁practices	-9.73965
▁cold	-9.73987
▁protect	-9.73998
▁−	-9.74088
▁rabies	-9.74183
▁avoid	-9.74213
▁plaque	-9.74213
▁true	-9.74228
▁tumors	-9.74267
▁cm	-9.74425
▁imaging	-9.74447
▁attenuated	-9.74501
▁complement	-9.74548
▁uk	-9.74568
▁loop	-9.74593
▁birth	-9.74644
▁removal	-9.74675
▁hepatic	-9.74678
▁original	-9.74833
▁swabs	-9.74866
▁(3)	-9.7489
▁city	-9.74977
▁market	-9.75026
▁feces	-9.75153
▁threshold	-9.75189
▁recovered	-9.75255
▁detectable	-9.75294
▁briefly	-9.75313
▁endemic	-9.7532
▁count	-9.75364
▁divided	-9.75407
▁burden	-9.75457
▁exist	-9.75457
▁twice	-9.7547
3-	-9.75498
▁towards	-9.75518
▁improvement	-9.75562
▁[25]	-9.75634
▁outside	-9.75822
▁again	-9.75834
▁þ	-9.75838
▁au	-9.75879
protein	-9.75943
à	-9.75951
▁continuous	-9.76115
▁applications	-9.7612
linked	-9.76202
▁instead	-9.76208
▁working	-9.76274
▁comparable	-9.763
▁constant	-9.76353
▁equal	-9.7641
▁serve	-9.76436
▁newly	-9.76449
▁100%	-9.76613
▁sds	-9.76657
▁dc	-9.76678
40	-9.76801
▁situation	-9.76877
▁toxicity	-9.76927
▁plants	-9.76972
▁clones	-9.77037
▁partial	-9.77206
▁2002)	-9.77216
▁cc	-9.77236
▁substantial	-9.77283
▁si	-9.77356
▁lps	-9.77396
▁phenotype	-9.77405
▁costs	-9.77421
▁traditional	-9.7749
▁occurrence	-9.77572
▁subjected	-9.77599
▁neutralization	-9.77634
▁[26]	-9.77649
▁candidate	-9.77844
▁repeated	-9.77878
▁epidemics	-9.77883
▁blot	-9.78067
un	-9.78271
▁transfection	-9.78299
▁european	-9.78361
▁clusters	-9.78497
doi	-9.78502
ph	-9.78517
▁vsv	-9.78533
▁onto	-9.78608
▁layer	-9.78609
▁none	-9.78619
▁baseline	-9.78634
▁variant	-9.78645
▁supplementary	-9.78785
▁nucleotides	-9.78826
▁aureus	-9.78953
▁https	-9.78964
▁block	-9.79013
▁periods	-9.79088
▁member	-9.79189
▁minimal	-9.79193
▁families	-9.79196
▁surgical	-9.79274
▁mrnas	-9.79336
length	-9.79359
▁slightly	-9.79368
▁existing	-9.79428
▁transcripts	-9.79538
▁ev	-9.79716
▁address	-9.79749
▁surfaces	-9.79813
▁ligand	-9.79832
▁questions	-9.79908
▁risks	-9.79941
▁coding	-9.80087
▁transferred	-9.80252
▁version	-9.80378
▁east	-9.80473
▁fetal	-9.80494
▁encephalitis	-9.80511
▁marker	-9.80543
▁ill	-9.80604
▁toward	-9.80632
▁chickens	-9.80665
▁cohort	-9.80738
▁nevertheless	-9.80766
www	-9.80828
▁decision	-9.81063
▁constructed	-9.81069
▁composition	-9.8114
▁implementation	-9.81147
▁feature	-9.81265
▁counts	-9.81303
▁cmv	-9.81333
▁nucleus	-9.81394
▁vary	-9.81459
▁sont	-9.81497
▁poultry	-9.81529
▁explain	-9.81536
▁virion	-9.81554
▁[27]	-9.8156
▁deletion	-9.81644
▁barrier	-9.81648
▁synthetic	-9.81671
▁challenges	-9.8181
▁plate	-9.8183
▁bio	-9.81835
▁marked	-9.81876
▁2003	-9.81892
▁31	-9.81925
▁effectively	-9.81984
▁died	-9.81987
▁tourism	-9.8201
▁selective	-9.82095
▁involves	-9.82111
▁describe	-9.8212
▁luciferase	-9.82375
▁education	-9.82385
▁respect	-9.82392
▁question	-9.82409
▁[28]	-9.82442
▁90	-9.82444
▁fatal	-9.82496
▁binds	-9.82522
▁treatments	-9.82528
▁interval	-9.82536
▁prediction	-9.82616
▁curve	-9.82662
uc	-9.82696
▁sometimes	-9.82896
▁representative	-9.82915
▁effectiveness	-9.82976
▁dpi	-9.83009
▁suitable	-9.83051
▁aged	-9.83107
▁spectrum	-9.83115
▁prolonged	-9.83323
▁grown	-9.83351
14	-9.83378
▁copyright	-9.83436
▁plasmids	-9.83446
▁flu	-9.83464
▁immunized	-9.83474
rna	-9.83493
▁neurons	-9.83648
▁whose	-9.8373
▁rhinovirus	-9.83745
▁adaptive	-9.83758
▁fluorescent	-9.83759
containing	-9.83902
▁view	-9.83929
▁mabs	-9.83936
▁holder	-9.84097
▁neonatal	-9.84104
year	-9.84118
▁unclear	-9.84287
▁80	-9.84298
▁dog	-9.84351
▁irf	-9.8436
▁treat	-9.8437
▁golgi	-9.844
▁resolution	-9.84432
▁institute	-9.8467
viral	-9.84749
▁marrow	-9.8488
▁2000)	-9.84957
▁500	-9.85
▁[29]	-9.85076
▁sepsis	-9.85164
▁equipment	-9.85215
▁endothelial	-9.8529
▁(5	-9.85346
▁yeast	-9.85458
▁building	-9.85476
▁(1	-9.85501
▁limitations	-9.85532
▁edema	-9.85551
▁rarely	-9.85561
▁glycoproteins	-9.85662
▁inactivated	-9.85747
▁column	-9.85759
▁cdc	-9.85832
▁supplemented	-9.85856
▁clearance	-9.85862
▁33	-9.85892
▁extended	-9.85901
re	-9.85917
▁communication	-9.85967
▁extract	-9.85975
▁own	-9.8603
▁alignment	-9.86076
▁positions	-9.8608
▁tube	-9.86117
▁endogenous	-9.86136
▁evolutionary	-9.86153
▁compare	-9.86252
▁glucose	-9.86304
▁west	-9.86359
▁sets	-9.86522
▁preventing	-9.86604
▁agreement	-9.8666
▁labeled	-9.86675
▁sheep	-9.86688
▁give	-9.86767
▁hydrophobic	-9.86868
▁likelihood	-9.86927
▁classification	-9.86928
▁2000	-9.86931
▁exhibit	-9.8704
▁itself	-9.87109
▁restriction	-9.87111
▁depends	-9.87153
▁displayed	-9.87158
▁progress	-9.87296
▁migration	-9.8732
▁separated	-9.87331
▁iga	-9.87332
▁safe	-9.87368
▁issue	-9.87486
▁epidemiology	-9.87488
▁personal	-9.87492
▁farms	-9.87504
▁examine	-9.8755
▁pathology	-9.87553
▁aspects	-9.87593
▁movement	-9.87601
▁contaminated	-9.87605
▁vascular	-9.87637
▁mock	-9.87649
▁extracellular	-9.8768
▁instance	-9.87696
▁aim	-9.87718
▁inhibits	-9.87737
▁mode	-9.87755
with	-9.87911
▁gut	-9.87984
▁csf	-9.88002
▁minimum	-9.88021
▁reason	-9.88096
▁2016)	-9.88245
▁abdominal	-9.88249
▁service	-9.88336
▁reasons	-9.88361
▁blue	-9.88367
▁adequate	-9.88431
▁gas	-9.88538
▁toxin	-9.88566
▁efficiently	-9.88611
▁localization	-9.8877
▁supernatants	-9.88788
▁excluded	-9.88803
▁accurate	-9.89147
▁represented	-9.89164
▁home	-9.8925
▁uptake	-9.89348
▁perform	-9.89408
ab	-9.89526
us	-9.89573
▁2001)	-9.89583
▁spatial	-9.89601
▁modification	-9.89715
▁face	-9.89719
▁mostly	-9.89757
▁cycles	-9.89767
▁metabolic	-9.89867
▁[30]	-9.89882
▁power	-9.89929
▁article	-9.8994
▁ranging	-9.89949
▁pairs	-9.89985
▁intermediate	-9.90003
▁vesicles	-9.90023
▁altered	-9.90039
▁hospitalized	-9.90188
▁harvested	-9.90202
▁head	-9.90269
▁subject	-9.9028
▁wall	-9.90314
▁gfp	-9.90337
▁committee	-9.90486
▁spinal	-9.90643
▁instructions	-9.90673
▁taiwan	-9.90707
▁fip	-9.90768
▁hla	-9.90785
▁inter	-9.90811
▁parameter	-9.90879
▁algorithm	-9.90967
▁ebov	-9.91039
funder	-9.91082
▁north	-9.91115
▁stat	-9.91135
▁salmonella	-9.91146
▁soluble	-9.91199
▁chicken	-9.91203
▁iav	-9.9123
▁achieve	-9.91338
▁proteases	-9.91399
▁pour	-9.91415
▁became	-9.91423
▁reporter	-9.9147
▁mature	-9.91494
▁distributed	-9.91498
▁availability	-9.91526
▁indirect	-9.91527
▁measles	-9.91529
ns	-9.91572
25	-9.91743
▁maintain	-9.91818
▁composed	-9.91833
▁lesion	-9.91843
▁genotypes	-9.91972
▁profiles	-9.91975
▁korea	-9.92158
▁differ	-9.92207
▁establish	-9.92298
▁predict	-9.92477
▁saline	-9.92494
▁turn	-9.92529
our	-9.92531
▁2009)	-9.92532
▁centers	-9.92546
▁tm	-9.92588
st	-9.92653
▁referred	-9.92701
▁gastric	-9.92801
▁interesting	-9.92807
▁intensive	-9.92891
▁restricted	-9.92987
▁foreign	-9.93004
▁diameter	-9.93035
▁symptom	-9.93105
▁monocytes	-9.93143
▁processed	-9.93175
▁nor	-9.93218
▁trans	-9.93282
▁consensus	-9.93305
▁researchers	-9.93352
20	-9.93366
3)	-9.93398
▁inclusion	-9.93411
▁measurements	-9.9345
▁sequenced	-9.93501
▁consists	-9.93528
▁feeding	-9.93571
▁allowing	-9.93607
▁implemented	-9.93607
▁list	-9.93625
▁20%	-9.93678
▁purification	-9.93698
▁ic	-9.93725
▁library	-9.93742
▁appearance	-9.93902
▁error	-9.93923
▁urban	-9.93943
▁protocols	-9.93949
▁reviewed	-9.94018
▁disaster	-9.94133
▁threat	-9.94185
▁reflect	-9.94394
▁monitored	-9.94469
▁transmembrane	-9.94497
▁feed	-9.94605
▁putative	-9.9468
▁abnormalities	-9.94728
cl	-9.94794
▁parts	-9.94818
▁[31]	-9.94858
▁advantage	-9.94861
57	-9.94877
▁readily	-9.94937
▁images	-9.94957
▁attachment	-9.94991
min	-9.95019
▁hygiene	-9.95138
▁serial	-9.95195
▁personnel	-9.95407
▁donor	-9.9547
▁identifying	-9.95488
▁parasite	-9.95492
▁pregnancy	-9.9556
▁recommendations	-9.95641
▁segments	-9.95696
▁start	-9.95755
▁license	-9.95896
▁season	-9.96085
▁sputum	-9.9615
▁dr	-9.9633
κ	-9.96356
▁accuracy	-9.96374
▁phosphate	-9.96389
virus	-9.96439
▁mentioned	-9.96502
▁school	-9.96503
▁34	-9.9652
▁ion	-9.96569
▁39	-9.97017
▁diet	-9.97023
▁micro	-9.97136
▁rig	-9.9717
▁promising	-9.97171
▁hmpv	-9.97282
▁surgery	-9.97424
▁perhaps	-9.9744
▁child	-9.97523
▁pfu	-9.97526
▁nanoparticles	-9.97578
▁bias	-9.97686
▁ten	-9.97691
▁colleagues	-9.97848
▁autoimmune	-9.97978
▁framework	-9.98011
▁considering	-9.98047
▁fibrosis	-9.98108
▁dcs	-9.98174
▁42	-9.98289
▁extracts	-9.9835
▁nearly	-9.98373
▁metabolism	-9.98447
▁continued	-9.98457
▁project	-9.98457
▁living	-9.98459
▁overnight	-9.98459
▁cloned	-9.98546
▁memory	-9.98642
▁construct	-9.98726
▁deficiency	-9.98812
▁admitted	-9.98906
▁january	-9.98935
▁igm	-9.98999
invitrogen	-9.99014
▁concept	-9.99105
▁directed	-9.99127
▁assumed	-9.99143
▁back	-9.9917
▁importantly	-9.99173
▁america	-9.99249
▁[32]	-9.99263
▁measurement	-9.99392
▁parasites	-9.99408
▁segment	-9.99454
▁pa	-9.99479
▁special	-9.99495
▁shock	-9.99509
▁comparing	-9.99544
▁purpose	-9.99583
▁respond	-9.99645
▁lethal	-9.99739
▁receiving	-9.99823
▁naturally	-9.99836
63	-9.99837
▁science	-9.99922
▁run	-9.99955
▁american	-9.99955
▁intravenous	-9.99996
▁[33]	-10.0003
▁modifications	-10.0007
▁gain	-10.0008
▁ferrets	-10.0009
▁affecting	-10.001
▁growing	-10.0011
▁sex	-10.0013
▁investigations	-10.002
rt	-10.0037
▁partially	-10.0037
▁biology	-10.0039
▁false	-10.0042
▁70	-10.0042
▁serotypes	-10.0044
▁hospitalization	-10.0048
▁implicated	-10.0054
▁maintenance	-10.006
▁herd	-10.007
▁continue	-10.0081
▁etc	-10.0099
▁share	-10.01
▁nurses	-10.0108
▁lymphoid	-10.0111
▁considerable	-10.0117
▁physicians	-10.0127
▁centrifugation	-10.0127
▁definition	-10.0128
▁liquid	-10.0131
▁reservoir	-10.0133
▁becomes	-10.0143
▁cord	-10.0149
▁nervous	-10.0152
▁file	-10.0153
▁recruitment	-10.0168
▁minor	-10.0184
une	-10.0184
17	-10.0184
▁african	-10.0189
▁robust	-10.0195
▁strand	-10.0203
▁node	-10.0205
▁fold	-10.0207
▁ribavirin	-10.0209
▁diabetes	-10.0213
page	-10.0219
▁2014	-10.022
▁reached	-10.0222
▁evident	-10.023
▁recipients	-10.023
▁toxic	-10.0231
▁standards	-10.024
▁virulent	-10.0242
ci	-10.0243
▁plan	-10.0246
▁eif	-10.0254
▁enough	-10.0255
▁relationships	-10.0263
▁map	-10.0264
▁regulated	-10.0268
▁shift	-10.0273
▁1999)	-10.0276
▁widespread	-10.0284
▁pcv	-10.0288
▁characterization	-10.0289
▁farm	-10.0295
▁herds	-10.0299
▁rise	-10.0306
▁blocking	-10.0315
▁shared	-10.0319
▁exact	-10.0325
ac	-10.0326
▁external	-10.0328
▁listed	-10.0336
▁lacking	-10.0339
▁starting	-10.0346
▁attributed	-10.0347
▁multiplex	-10.0349
▁discovered	-10.0354
▁®	-10.0356
▁maternal	-10.0358
▁microorganisms	-10.0365
▁catalytic	-10.037
▁38	-10.0376
▁chains	-10.0378
▁objective	-10.0381
▁replicate	-10.0388
▁requirements	-10.0391
▁dynamic	-10.0399
▁2004;	-10.0401
▁stimulated	-10.0404
▁dsrna	-10.0405
level	-10.0409
▁[34]	-10.041
▁extremely	-10.0418
▁choice	-10.0427
▁fresh	-10.043
▁too	-10.043
▁details	-10.045
▁comprehensive	-10.0457
▁producing	-10.046
▁2005;	-10.0465
▁infiltration	-10.0466
▁solid	-10.0478
▁allergic	-10.0482
▁summary	-10.0483
▁remove	-10.0492
▁involve	-10.0494
▁symptomatic	-10.0508
▁parallel	-10.0515
▁activate	-10.0519
▁native	-10.0522
▁analysed	-10.0536
▁defense	-10.0536
risk	-10.0539
▁sur	-10.0546
▁consequently	-10.0547
▁abnormal	-10.055
▁facility	-10.0557
▁success	-10.0566
▁mir	-10.0572
▁rnase	-10.0576
sigma	-10.0585
▁affects	-10.059
▁reading	-10.0593
19	-10.0597
▁hybridization	-10.0598
▁chapter	-10.0607
▁trend	-10.061
▁percent	-10.0611
▁benefits	-10.0615
▁frame	-10.062
▁im	-10.0622
▁beyond	-10.0625
▁matter	-10.063
mers	-10.0633
▁variability	-10.0634
▁encoded	-10.0638
▁immunofluorescence	-10.064
▁supply	-10.0642
▁dysfunction	-10.0648
▁greatly	-10.065
▁1000	-10.0651
&	-10.0654
▁failed	-10.0654
18	-10.0657
▁integrated	-10.0662
▁makes	-10.0663
▁mechanical	-10.0676
▁platform	-10.0678
▁passage	-10.0679
▁reach	-10.0681
▁2003;	-10.0683
▁occasionally	-10.0687
▁planning	-10.0726
▁calcium	-10.0729
aa	-10.0732
▁dry	-10.0735
▁nine	-10.0742
▁hev	-10.0743
▁tris	-10.0748
▁[35]	-10.0753
▁ongoing	-10.0755
▁discharge	-10.0756
▁mitochondrial	-10.0758
43	-10.0765
▁filter	-10.0767
cells	-10.077
▁experimentally	-10.077
▁effector	-10.0773
▁conformation	-10.0775
▁terminal	-10.079
▁subtypes	-10.079
bl	-10.0799
▁quarantine	-10.0801
21	-10.0804
▁90%	-10.081
▁intra	-10.0819
ch	-10.0819
▁colostrum	-10.0832
▁impaired	-10.0859
▁colon	-10.086
▁beneficial	-10.0872
▁2%	-10.0875
▁blocked	-10.0879
▁go	-10.0879
▁fluids	-10.0879
▁cut	-10.088
▁poorly	-10.0884
▁man	-10.0885
▁chosen	-10.0885
▁consumption	-10.0889
▁beta	-10.0889
▁solutions	-10.0902
▁top	-10.0907
▁month	-10.0915
▁°	-10.0918
▁replaced	-10.0919
▁fungal	-10.0921
▁2012	-10.0921
▁cytotoxic	-10.0923
▁150	-10.0931
▁pregnant	-10.0937
50	-10.0946
▁copd	-10.0954
▁locations	-10.0955
▁her	-10.0961
▁concerns	-10.0963
▁normally	-10.0983
▁washing	-10.0985
▁fed	-10.0995
▁reproductive	-10.0996
co	-10.1002
▁channel	-10.1003
if	-10.1007
▁2005	-10.1008
▁crystal	-10.101
▁actual	-10.1012
▁clone	-10.1015
▁confidence	-10.1016
▁rbd	-10.1017
▁specimen	-10.1019
71	-10.1038
▁diarrhoea	-10.1048
▁electrophoresis	-10.1054
hiv	-10.1061
▁cas	-10.1061
▁gag	-10.1064
▁2.5	-10.1065
▁0.05	-10.1065
▁derivatives	-10.1065
▁advanced	-10.1066
▁candidates	-10.1073
▁gastroenteritis	-10.1076
mouse	-10.1079
▁province	-10.1088
▁intervals	-10.1091
▁progressive	-10.1095
▁determining	-10.1098
▁otherwise	-10.1099
▁understood	-10.1101
▁adjuvant	-10.1102
▁2013	-10.1106
▁canada	-10.111
▁assigned	-10.1113
▁capture	-10.1116
▁[36]	-10.1121
▁2006;	-10.1126
▁reveal	-10.1128
▁variations	-10.1139
38	-10.1142
▁80%	-10.1153
▁simultaneously	-10.1155
▁quite	-10.1157
▁usage	-10.1158
▁hpi	-10.117
▁substitution	-10.1183
▁pair	-10.1184
▁detecting	-10.1184
▁ebv	-10.1187
▁eine	-10.1197
▁exchange	-10.1199
▁lysis	-10.1206
▁consequence	-10.1212
▁pediatric	-10.1214
from	-10.1215
▁simulation	-10.1218
▁predominantly	-10.122
▁placebo	-10.1226
▁uv	-10.1236
▁largest	-10.1242
▁43	-10.1242
▁syncytial	-10.1246
▁why	-10.1246
▁quantified	-10.1248
▁humoral	-10.125
▁cholesterol	-10.1252
▁microarray	-10.126
▁herpes	-10.1265
▁respective	-10.1265
▁household	-10.1287
▁ligands	-10.1292
▁proper	-10.1295
▁obstruction	-10.1297
▁bodies	-10.1298
▁sd	-10.1298
man	-10.1302
▁you	-10.1305
oc	-10.1305
▁(2	-10.1311
▁1.5	-10.1316
▁notably	-10.1317
▁reagent	-10.1323
▁consequences	-10.1328
strand	-10.1336
▁2010	-10.134
▁seem	-10.1341
di	-10.1346
▁transient	-10.1347
▁2017)	-10.1357
▁created	-10.1359
com	-10.1362
▁tail	-10.1364
▁taking	-10.1372
▁categories	-10.1375
▁biopsy	-10.1382
▁read	-10.1395
▁depletion	-10.1399
▁guinea	-10.1399
120	-10.1402
▁su	-10.1405
▁episodes	-10.1409
▁immunoglobulin	-10.1413
▁â	-10.1414
▁fl	-10.1416
▁[37]	-10.1419
▁define	-10.1419
▁utilized	-10.142
▁australia	-10.1425
▁array	-10.1427
▁95	-10.143
▁immunodeficiency	-10.1437
▁circulation	-10.1437
▁goat	-10.1438
▁hemorrhagic	-10.144
▁regulate	-10.1442
▁2004	-10.1443
▁intact	-10.1448
59	-10.1449
▁airborne	-10.1451
▁fit	-10.1458
▁mammals	-10.1462
▁believed	-10.1468
-5	-10.1468
▁(4)	-10.1472
▁yellow	-10.1472
▁hydrogen	-10.1475
bio	-10.1475
▁protected	-10.1485
gp	-10.1497
iii	-10.1509
borne	-10.1516
▁von	-10.1518
▁homologous	-10.152
test	-10.152
▁recognize	-10.1521
▁preparedness	-10.1521
▁beginning	-10.1525
▁ser	-10.1526
▁discussion	-10.1528
▁phage	-10.1528
▁obvious	-10.1544
▁invasive	-10.1549
▁localized	-10.1553
http	-10.1557
▁maturation	-10.1561
▁stock	-10.1562
▁dataset	-10.1566
▁serological	-10.1566
▁equivalent	-10.1569
▁gold	-10.1571
▁adjacent	-10.1573
▁emerged	-10.1577
▁explained	-10.1579
▁abundance	-10.1581
▁homology	-10.1584
4,	-10.1585
conjugated	-10.1587
▁1998)	-10.1592
▁correct	-10.1594
▁adhesion	-10.1597
-1,	-10.1599
▁avec	-10.1604
▁expansion	-10.1609
▁mit	-10.1611
▁portion	-10.1619
▁alpha	-10.1631
▁nucleocapsid	-10.1634
▁forward	-10.1635
▁uninfected	-10.1636
▁delayed	-10.1636
▁suppression	-10.1638
μ	-10.1639
▁5)	-10.1639
▁camels	-10.1639
▁reliable	-10.1653
▁extension	-10.1654
▁isg	-10.1654
▁rdrp	-10.1655
▁fast	-10.1662
▁analyze	-10.1665
▁41	-10.1666
▁uses	-10.1667
41	-10.1672
▁consisting	-10.1695
▁[38]	-10.1709
▁technical	-10.1716
▁exists	-10.172
▁inhibiting	-10.1721
▁purchased	-10.1727
▁65	-10.1732
▁cavity	-10.1732
▁caspase	-10.1736
▁penicillin	-10.1737
▁da	-10.1737
▁lymphocyte	-10.1745
▁trypsin	-10.1747
▁transplantation	-10.175
▁contribution	-10.1755
▁presenting	-10.1764
-8	-10.1769
▁viability	-10.177
▁exacerbations	-10.1771
▁aids	-10.1772
▁students	-10.1774
▁biochemical	-10.1774
▁neither	-10.178
-7	-10.1787
▁polyclonal	-10.1788
▁unlike	-10.1791
including	-10.18
▁lysates	-10.1811
▁initiated	-10.1818
▁therapies	-10.1821
▁supporting	-10.1822
▁increasingly	-10.1824
▁serotype	-10.1825
▁resource	-10.1827
▁articles	-10.1827
▁enter	-10.1831
▁motifs	-10.1838
▁injected	-10.1854
le	-10.1855
▁create	-10.1859
▁untreated	-10.1862
▁cytotoxicity	-10.1868
ifn	-10.1873
▁conclusions	-10.1874
▁eggs	-10.1875
▁receive	-10.1876
▁2015	-10.1883
▁macrophage	-10.1885
ct	-10.1891
eg	-10.1894
▁varied	-10.1895
▁determination	-10.1902
▁weak	-10.1902
▁4°	-10.1903
▁30%	-10.1908
▁donors	-10.191
▁sense	-10.1913
▁cities	-10.1919
▁chez	-10.1922
▁diagnostics	-10.1922
▁gi	-10.193
▁2007;	-10.1934
▁tcid	-10.1941
▁causative	-10.1948
▁elderly	-10.1949
▁stay	-10.1954
▁systematic	-10.1954
▁swab	-10.1959
dl	-10.196
▁security	-10.196
▁55	-10.1967
bp	-10.1972
▁inducing	-10.1992
▁experienced	-10.1995
▁input	-10.1999
▁disorder	-10.2002
▁randomly	-10.2007
▁son	-10.2008
▁gradient	-10.2013
▁300	-10.2015
▁communities	-10.2018
▁microscope	-10.2023
▁frameshifting	-10.2032
▁kept	-10.2032
▁pathogenicity	-10.2046
▁classes	-10.205
▁throat	-10.2056
▁gc	-10.207
▁decreases	-10.2073
▁[39]	-10.2077
▁alter	-10.2081
▁reactive	-10.2084
▁wells	-10.2084
▁bei	-10.2089
▁enveloped	-10.2089
▁physiological	-10.2094
▁lc	-10.21
regulated	-10.2101
▁2008;	-10.2102
▁diffuse	-10.2105
▁parainfluenza	-10.2106
li	-10.2109
▁females	-10.2114
where	-10.2119
▁regard	-10.2119
-12	-10.2122
▁vomiting	-10.2135
▁nacl	-10.2137
labeled	-10.2146
▁rights	-10.2147
off	-10.2147
▁team	-10.2154
▁screened	-10.2159
▁transcriptional	-10.216
▁interpretation	-10.2168
▁monitor	-10.2171
▁1995)	-10.2173
▁dilutions	-10.2186
▁changed	-10.2189
▁raised	-10.2191
▁cows	-10.2199
▁quickly	-10.2204
▁prophylaxis	-10.2207
▁2-	-10.221
▁ubiquitin	-10.221
▁fractions	-10.2212
▁varying	-10.2214
▁nursing	-10.2219
▁2+	-10.2224
▁(95%	-10.2224
▁detail	-10.2229
▁1997)	-10.2239
gfp	-10.224
▁dendritic	-10.2245
scale	-10.2251
▁prevalent	-10.2257
▁cxcl	-10.226
▁2009;	-10.2268
▁genetically	-10.2268
nd	-10.2271
▁annual	-10.2275
ca	-10.2275
▁reduces	-10.2278
▁contributed	-10.2279
range	-10.2287
▁modeling	-10.2294
mm	-10.2294
▁upstream	-10.2296
▁france	-10.2298
▁prominent	-10.2299
▁kb	-10.2301
ge	-10.2301
▁image	-10.2301
▁band	-10.2313
▁chromatography	-10.2327
▁pr	-10.2336
▁secreted	-10.2337
▁goal	-10.234
▁conformational	-10.2354
▁unable	-10.2367
▁pas	-10.2375
▁abundant	-10.2378
▁absorption	-10.2382
▁passive	-10.2382
▁crisis	-10.2383
▁inactivation	-10.2384
▁ways	-10.2387
▁44	-10.2393
▁march	-10.2394
▁accompanied	-10.2394
▁hpv	-10.2399
δ	-10.2417
▁qui	-10.2422
▁representing	-10.2422
▁challenged	-10.2437
▁controlling	-10.2439
▁aerosol	-10.2439
▁pacientes	-10.2441
▁tend	-10.2443
▁ring	-10.2443
▁293	-10.2447
▁como	-10.2452
▁delay	-10.2454
▁[40]	-10.2455
▁ccl	-10.2458
se	-10.246
end	-10.2461
▁replicates	-10.2462
▁online	-10.2479
▁wnv	-10.2494
▁etiology	-10.2497
▁subset	-10.2508
ar	-10.2511
▁hela	-10.2512
▁insertion	-10.2516
▁attack	-10.2521
▁hbov	-10.2526
▁genbank	-10.2527
▁2010;	-10.2529
▁she	-10.2531
▁lineage	-10.2534
▁policies	-10.2539
▁ce	-10.254
▁neurological	-10.2543
▁requiring	-10.2543
▁effort	-10.2544
▁unlikely	-10.2545
▁younger	-10.2551
▁neutrophil	-10.256
▁validated	-10.2567
1/	-10.2568
▁off	-10.2574
▁started	-10.2578
▁lost	-10.2584
▁prospective	-10.2587
▁geographic	-10.2587
▁phenomenon	-10.2597
▁scenario	-10.26
▁society	-10.2605
▁microglia	-10.2607
▁cytometry	-10.2608
life	-10.2616
▁demand	-10.2621
▁nosocomial	-10.2622
▁quantification	-10.2631
4-	-10.2635
▁climate	-10.2637
▁raw	-10.2638
24	-10.2644
rich	-10.2647
▁routes	-10.2653
▁decades	-10.2654
▁trade	-10.266
▁theory	-10.2661
▁secretions	-10.2663
▁depend	-10.2667
▁carbon	-10.2672
▁consideration	-10.2672
▁lymphoma	-10.2675
▁foals	-10.2679
▁59	-10.2683
▁transition	-10.2686
▁ab	-10.2688
▁−1	-10.2689
▁screen	-10.2694
▁storage	-10.2705
▁accession	-10.2708
▁kinetics	-10.2709
▁outer	-10.2722
▁link	-10.2726
▁heavy	-10.2734
▁[41]	-10.2735
27	-10.2741
pro	-10.2744
▁excess	-10.275
▁persistence	-10.275
▁cleaved	-10.2753
▁designated	-10.2753
▁proven	-10.2766
▁ratios	-10.2767
▁illnesses	-10.2768
▁advantages	-10.2771
such	-10.2795
▁records	-10.2799
▁felv	-10.28
▁nerve	-10.28
▁2013;	-10.2813
▁2007	-10.2814
▁classical	-10.2816
▁incorporated	-10.2818
þ	-10.282
▁sterile	-10.2821
▁interface	-10.2822
na	-10.2828
▁interstitial	-10.2831
▁fc	-10.2832
▁breast	-10.2833
▁ice	-10.284
▁black	-10.2845
step	-10.2845
▁manifestations	-10.2845
▁[1,	-10.2853
▁75	-10.2854
▁pet	-10.2855
▁1990	-10.2862
▁shape	-10.2867
▁fcov	-10.2871
▁ranged	-10.2877
▁5-	-10.2883
▁come	-10.2894
▁balance	-10.2895
▁1992	-10.29
▁1996)	-10.2902
▁transplant	-10.2905
▁absent	-10.2907
▁centrifuged	-10.2908
▁lo	-10.2917
▁stool	-10.2929
▁respondents	-10.2929
▁focal	-10.2929
▁substrates	-10.2931
▁2006	-10.2937
▁transfusion	-10.294
▁reagents	-10.2947
▁comparisons	-10.2951
▁mrsa	-10.2956
▁temperatures	-10.2958
▁easy	-10.2961
▁relation	-10.2966
▁cpv	-10.2969
▁bronchiolitis	-10.2969
▁2011	-10.2973
▁fewer	-10.2975
▁met	-10.2979
▁urinary	-10.2992
▁immunocompromised	-10.2994
▁diffusion	-10.2995
▁implications	-10.2996
▁aimed	-10.2998
▁force	-10.2998
▁dairy	-10.3014
▁nuclei	-10.302
▁46	-10.3022
▁summarized	-10.3023
▁precursor	-10.3023
two	-10.3025
▁substitutions	-10.3026
▁explore	-10.3029
▁constructs	-10.3047
▁situations	-10.3048
▁normalized	-10.3054
▁text	-10.3056
▁extensively	-10.3057
▁complementary	-10.3066
care	-10.3068
▁vlps	-10.3069
▁kg	-10.3071
▁(3	-10.3071
▁subtype	-10.3072
▁trigger	-10.3073
*	-10.3074
▁winter	-10.3078
▁magnitude	-10.308
▁infl	-10.3081
▁exception	-10.3082
▁2011;	-10.3087
▁env	-10.309
▁0.2	-10.3091
▁consent	-10.3102
▁inside	-10.3103
▁forming	-10.3105
▁47	-10.311
nc	-10.3112
▁invasion	-10.3112
▁myelin	-10.3113
▁chikv	-10.3114
▁regardless	-10.3122
53	-10.3126
▁livestock	-10.3126
▁saudi	-10.3128
▁mosquito	-10.3135
ray	-10.3136
▁[42]	-10.3139
▁56	-10.3142
▁cysteine	-10.3142
▁coefficient	-10.3143
▁sampled	-10.3148
▁treating	-10.315
▁compliance	-10.3155
▁neuronal	-10.3158
▁2008	-10.3165
week	-10.3166
▁dual	-10.3166
▁requirement	-10.317
▁rodents	-10.3173
▁96	-10.3174
▁independently	-10.3175
▁4.0	-10.3177
▁wildlife	-10.3185
▁1994)	-10.3186
▁nasopharyngeal	-10.3194
▁questionnaire	-10.3195
▁secretory	-10.3197
▁airways	-10.3197
▁possess	-10.3198
▁temporal	-10.3198
▁copy	-10.3205
▁sizes	-10.3205
▁δ	-10.3206
▁lowest	-10.3206
▁vessels	-10.3207
▁encodes	-10.3212
▁element	-10.3218
▁hour	-10.3221
▁males	-10.3223
wt	-10.3232
▁2012;	-10.3234
▁completed	-10.3241
supplementary	-10.3244
▁prognosis	-10.3246
▁|	-10.3249
▁consistently	-10.3261
▁april	-10.3265
▁más	-10.3273
▁regular	-10.3278
▁escape	-10.3279
▁7,	-10.3288
▁influenced	-10.329
▁integration	-10.3292
▁suspension	-10.3297
▁distress	-10.33
▁dominant	-10.3302
▁ccr	-10.3313
▁shed	-10.3313
▁preventive	-10.3315
▁namely	-10.3316
▁reproduction	-10.3321
▁morphology	-10.3323
▁hek	-10.3326
▁eventually	-10.3326
▁complexity	-10.3328
▁informed	-10.3333
▁immediate	-10.3337
▁addressed	-10.334
▁transgenic	-10.3341
▁inc	-10.3342
el	-10.335
▁alterations	-10.3351
▁immunological	-10.3351
▁[43]	-10.3352
▁category	-10.3354
▁vaccinia	-10.3354
▁pathological	-10.3355
▁ultimately	-10.3368
deficient	-10.3376
▁actions	-10.339
▁eye	-10.3391
▁balb	-10.3394
▁rural	-10.3396
▁hcws	-10.3406
dna	-10.3412
▁zika	-10.3415
▁mo	-10.3419
▁ne	-10.342
▁trauma	-10.3421
▁explored	-10.3421
mer	-10.3425
▁compartment	-10.3425
▁coupled	-10.3429
▁overlapping	-10.343
▁000	-10.3431
▁stimulate	-10.3441
▁speed	-10.3442
▁mmol	-10.3445
▁never	-10.3448
terminus	-10.345
▁know	-10.3457
▁immunogenicity	-10.3459
▁fipv	-10.3465
▁shorter	-10.3469
▁astrocytes	-10.3469
▁concentrated	-10.3474
expressing	-10.3474
▁figures	-10.3483
▁breeding	-10.349
▁aid	-10.3498
▁themselves	-10.3499
▁valuable	-10.3499
▁49	-10.3503
▁vitamin	-10.3517
▁kind	-10.3519
host	-10.3521
▁decline	-10.3523
▁enable	-10.3526
▁frequencies	-10.3529
▁rule	-10.353
▁perceived	-10.3537
os	-10.3542
▁devices	-10.3542
▁medrxiv	-10.3545
▁validation	-10.3546
▁moi	-10.3552
▁fish	-10.3557
▁insulin	-10.3557
▁demonstrating	-10.3564
▁1993	-10.3564
▁sialic	-10.3566
▁slow	-10.3568
▁mix	-10.3574
▁basal	-10.3576
▁deep	-10.3578
▁purposes	-10.3579
▁varies	-10.3597
▁adopted	-10.36
▁characterize	-10.3604
▁visits	-10.3606
▁color	-10.3608
▁equine	-10.3612
▁private	-10.362
▁carcinoma	-10.3625
▁precautions	-10.3627
▁hemorrhage	-10.3629
▁deviation	-10.363
▁glycosylation	-10.3631
▁wind	-10.3635
▁environments	-10.3638
▁colonization	-10.3642
▁reactivity	-10.365
ra	-10.3653
▁li	-10.3654
ie	-10.3657
▁1980	-10.3662
▁adjusted	-10.3667
▁colony	-10.3667
▁2014;	-10.3676
▁[44]	-10.3681
▁financial	-10.3681
▁demyelination	-10.3693
▁colonies	-10.3695
▁surrounding	-10.37
▁combinations	-10.3702
▁latent	-10.3708
▁offer	-10.3722
▁bands	-10.3722
▁mucus	-10.3729
group	-10.3729
▁1991)	-10.373
▁bal	-10.373
▁adapted	-10.3731
iv	-10.3735
▁replacement	-10.3741
®	-10.375
▁adaptation	-10.3761
▁concluded	-10.3767
▁inserted	-10.3769
▁fungi	-10.378
▁apparently	-10.3781
▁disruption	-10.3784
▁recurrent	-10.3785
▁tropism	-10.3798
▁separation	-10.3801
▁biorxiv	-10.3804
▁translocation	-10.381
▁predictive	-10.3811
▁[45]	-10.3817
▁absolute	-10.3817
▁improving	-10.3825
▁fisher	-10.3838
▁1993)	-10.3838
▁bronchitis	-10.3845
▁positively	-10.3848
▁streptococcus	-10.3849
me	-10.3849
▁get	-10.385
▁proved	-10.3855
▁cl	-10.3858
▁evolved	-10.3865
▁bond	-10.387
▁sa	-10.3872
non	-10.3873
▁ex	-10.3873
▁]	-10.3874
▁existence	-10.3875
ma	-10.3876
▁gross	-10.3877
▁oil	-10.3881
▁2002;	-10.3885
▁zinc	-10.389
▁albumin	-10.3895
nsp	-10.3902
▁device	-10.3905
▁pp	-10.3905
▁mapping	-10.3914
▁southern	-10.3915
▁equation	-10.3919
5-	-10.3921
▁glands	-10.3931
control	-10.3934
▁120	-10.3937
▁produces	-10.394
▁70%	-10.3941
▁exacerbation	-10.3944
who	-10.3948
▁ribosomal	-10.3949
▁pool	-10.3953
▁excellent	-10.3954
▁practical	-10.396
▁december	-10.3971
▁1992)	-10.3983
▁decreasing	-10.3985
▁charge	-10.3987
▁awareness	-10.3996
▁preparations	-10.3997
▁poliovirus	-10.4008
▁proinflammatory	-10.4012
▁authorities	-10.4026
▁acts	-10.4032
▁2002	-10.4035
▁heterogeneity	-10.4039
▁substantially	-10.4046
▁agarose	-10.405
549	-10.4056
▁distinguish	-10.4057
▁pooled	-10.4059
▁retrospective	-10.4069
▁mononuclear	-10.4072
▁mediate	-10.4077
▁viable	-10.4082
▁van	-10.4094
▁actually	-10.4098
▁anemia	-10.4104
▁febrile	-10.4106
▁northern	-10.4107
▁markedly	-10.4113
nl	-10.4116
▁em	-10.412
5,	-10.4124
=	-10.4124
▁enzymatic	-10.4127
▁residents	-10.4128
▁trees	-10.4133
▁carrying	-10.4136
▁exercise	-10.4137
▁spreading	-10.4141
▁named	-10.4142
▁beads	-10.4142
▁simulations	-10.4142
▁analytical	-10.4145
anti	-10.4152
▁vital	-10.4155
▁men	-10.4158
▁clustering	-10.416
▁overcome	-10.4161
▁predominant	-10.4177
▁universal	-10.4178
▁organizations	-10.4182
▁institutional	-10.4187
▁negatively	-10.4204
sign	-10.4205
▁incorporation	-10.4206
since	-10.4208
▁box	-10.4208
qiagen	-10.421
▁undergo	-10.4211
▁visible	-10.4213
▁oxidative	-10.4215
▁severely	-10.4224
▁subunits	-10.4232
▁output	-10.4235
▁-1	-10.4237
▁40%	-10.4238
▁interacts	-10.4239
4)	-10.4239
▁52	-10.4242
▁carriers	-10.4244
▁dpp	-10.4247
▁databases	-10.4252
▁dmem	-10.4254
▁trends	-10.4267
▁rest	-10.4274
▁toxins	-10.4274
/6	-10.4275
▁conservation	-10.4275
▁fat	-10.4275
▁precise	-10.4281
▁curves	-10.4283
▁fiv	-10.4285
▁contributes	-10.4285
▁associations	-10.4286
▁entre	-10.4287
▁leukemia	-10.4287
▁physician	-10.4289
vp	-10.4289
▁alcohol	-10.4293
▁chemokines	-10.4311
▁96-	-10.4312
▁zone	-10.4316
▁atp	-10.4324
▁code	-10.4331
▁construction	-10.4333
▁adding	-10.434
▁stop	-10.4353
▁web	-10.4356
▁intake	-10.4357
▁genera	-10.4358
▁coated	-10.4359
▁(5)	-10.4368
▁3-	-10.4375
▁institutions	-10.4378
▁51	-10.4379
▁carry	-10.4381
▁participate	-10.4384
▁elsewhere	-10.4385
▁mycoplasma	-10.4388
▁statistics	-10.4388
▁measuring	-10.4389
▁congenital	-10.439
▁takes	-10.4392
▁round	-10.4392
▁codons	-10.4399
▁bases	-10.44
▁http	-10.4401
▁trna	-10.4402
▁alternatively	-10.4405
▁hi	-10.4405
▁accordance	-10.4412
▁ros	-10.4412
▁variance	-10.4424
▁agencies	-10.4437
▁être	-10.4437
▁direction	-10.4438
▁thermal	-10.444
independent	-10.445
▁february	-10.4451
▁ec	-10.4453
after	-10.4456
▁serine	-10.4464
▁probable	-10.4465
▁transcript	-10.4469
▁wuhan	-10.4481
9]	-10.4483
▁randomized	-10.4485
28	-10.4487
▁consisted	-10.4494
▁bronchial	-10.4495
▁manuscript	-10.4505
▁frozen	-10.4509
▁ag	-10.4509
▁enrolled	-10.4512
▁orally	-10.4512
▁ethanol	-10.4513
▁sustained	-10.4514
▁[46]	-10.452
▁determinants	-10.4524
▁highlighted	-10.4526
▁joint	-10.453
▁complicated	-10.4535
▁visualized	-10.4537
▁~	-10.4552
▁covs	-10.4553
▁qpcr	-10.4558
▁repair	-10.456
▁gave	-10.4564
▁ards	-10.4571
▁visit	-10.4573
▁delivered	-10.4573
▁threats	-10.4576
▁select	-10.4582
▁meningitis	-10.4584
▁infecting	-10.4588
45	-10.4593
▁infant	-10.4594
▁submitted	-10.4601
▁covered	-10.4602
▁ch	-10.4604
▁digestion	-10.4613
▁june	-10.4618
▁1990)	-10.4618
▁[47]	-10.4622
▁platelet	-10.4624
rs	-10.4627
▁2001	-10.4627
▁losses	-10.4631
▁54	-10.4641
▁rs	-10.4642
▁nonspecific	-10.4644
▁md	-10.4645
▁2001;	-10.4647
▁presents	-10.4647
▁sirnas	-10.4648
▁gland	-10.4648
not	-10.465
▁comparative	-10.4655
▁catheter	-10.4657
▁elimination	-10.4664
▁lumen	-10.4666
▁encode	-10.4669
▁tag	-10.4674
▁53	-10.4683
▁distributions	-10.4684
▁escherichia	-10.4689
▁ko	-10.4691
▁depression	-10.4693
ment	-10.4693
▁fall	-10.4695
▁commercially	-10.4696
▁polyprotein	-10.47
▁pol	-10.4703
▁conjugated	-10.4703
▁recruited	-10.4705
▁excessive	-10.4705
▁400	-10.4706
▁helpful	-10.4708
▁changing	-10.4711
▁repeat	-10.4723
mean	-10.4728
▁6-	-10.4734
▁insights	-10.4744
▁resuspended	-10.4746
.\"	-10.4752
▁machinery	-10.4752
▁supports	-10.4754
▁pg	-10.476
▁bowel	-10.4762
▁agar	-10.4764
▁pleural	-10.4766
▁cp	-10.4777
▁eukaryotic	-10.4782
ncov	-10.4791
▁promotes	-10.4794
▁minimize	-10.4795
▁horse	-10.4802
▁return	-10.4803
▁defects	-10.4816
▁enhancement	-10.4819
▁relevance	-10.4825
▁2000;	-10.4827
▁guide	-10.4828
▁enrichment	-10.4828
▁funding	-10.4832
▁interfere	-10.4838
▁promoting	-10.4842
▁organic	-10.4843
▁budding	-10.4845
ta	-10.4846
▁lamp	-10.4847
▁meta	-10.4852
▁ili	-10.4854
▁differentially	-10.4864
▁limits	-10.4867
▁mixing	-10.4874
▁mask	-10.4879
▁transduction	-10.4894
▁extra	-10.4894
▁bile	-10.4895
▁aeruginosa	-10.4895
▁upregulated	-10.4898
▁besides	-10.4899
▁advances	-10.49
30	-10.49
hr	-10.49
▁evaluating	-10.4901
▁political	-10.4914
dose	-10.4918
70	-10.4919
▁connected	-10.493
▁pd	-10.4934
way	-10.4935
▁spontaneous	-10.4937
amino	-10.4941
▁ferret	-10.4943
▁items	-10.4944
▁yielded	-10.4945
▁simply	-10.4948
100	-10.4951
est	-10.4952
▁century	-10.4956
▁overexpression	-10.4961
▁inner	-10.4961
22	-10.4961
▁preliminary	-10.4966
▁unless	-10.497
▁fatty	-10.4972
▁greatest	-10.4976
▁transcriptase	-10.4978
▁allele	-10.4985
▁acquisition	-10.4987
▁trafficking	-10.4988
-21	-10.4989
▁å	-10.499
rsv	-10.4998
▁[48]	-10.5002
▁pb	-10.5004
treatment	-10.5009
▁asian	-10.5009
▁attempt	-10.5015
▁challenging	-10.5016
▁termed	-10.5021
influenza	-10.5023
▁ocular	-10.5025
▁dead	-10.5027
▁0.1%	-10.5028
▁25%	-10.5028
▁po	-10.503
▁contents	-10.5033
▁mediators	-10.5033
reactive	-10.5035
▁destruction	-10.5035
when	-10.5035
▁peaks	-10.5037
▁oseltamivir	-10.5039
▁enriched	-10.504
▁cardiovascular	-10.5045
▁indicator	-10.5045
1),	-10.5046
▁60%	-10.5048
▁law	-10.505
▁critically	-10.5051
les	-10.5052
▁overlap	-10.5052
▁routinely	-10.5054
▁permeability	-10.5057
▁microscopic	-10.5061
▁clinic	-10.5067
▁apoptotic	-10.5069
▁chimeric	-10.5072
▁nmr	-10.5084
▁tolerance	-10.509
▁enterovirus	-10.5091
▁presumably	-10.5096
▁expanded	-10.5097
▁clinicians	-10.5097
▁lateral	-10.5103
▁staphylococcus	-10.5104
▁atypical	-10.5111
▁travelers	-10.5112
▁leukocytes	-10.5114
▁opportunity	-10.5114
-1)	-10.5116
▁property	-10.5117
▁compartments	-10.512
▁demonstrates	-10.5126
▁herpesvirus	-10.5128
▁whom	-10.5131
▁geographical	-10.5135
▁zu	-10.5135
▁retention	-10.5135
▁mid	-10.5135
▁parental	-10.514
do	-10.5144
▁fitness	-10.5146
▁demographic	-10.5147
▁58	-10.5149
▁blotting	-10.515
▁explanation	-10.5161
▁arabia	-10.5164
▁name	-10.5169
▁markets	-10.517
able	-10.5172
▁singapore	-10.5175
▁decisions	-10.5179
293	-10.5189
▁cumulative	-10.5196
▁2016	-10.5198
▁ist	-10.52
é	-10.5204
▁limiting	-10.5208
▁droplets	-10.5219
most	-10.522
▁professionals	-10.5221
▁assume	-10.5223
▁residual	-10.5228
▁differentiate	-10.5229
orf	-10.5243
09	-10.525
▁belonging	-10.5252
▁ige	-10.5255
ers	-10.5263
▁proteolytic	-10.5265
▁san	-10.5265
▁accepted	-10.5278
▁metal	-10.5279
▁1989)	-10.5283
da	-10.5283
▁closed	-10.5289
▁datasets	-10.5291
▁corticosteroids	-10.5292
▁reserved	-10.5295
te	-10.5301
▁den	-10.5305
▁september	-10.5318
▁maintaining	-10.5319
▁package	-10.5323
▁labeling	-10.5334
▁spectra	-10.5336
▁estimation	-10.5336
▁illustrated	-10.5338
▁1.0	-10.5342
▁hadv	-10.5342
▁lectin	-10.5343
▁[49]	-10.5349
▁stomach	-10.5356
▁intranasal	-10.5362
▁(50	-10.5363
95	-10.5392
line	-10.5393
▁helix	-10.5394
▁interference	-10.5394
▁sc	-10.5394
▁principal	-10.5399
▁allergy	-10.54
these	-10.5402
▁eae	-10.5403
2/	-10.5408
▁(20	-10.5421
▁student	-10.543
▁cf	-10.543
▁id	-10.5432
▁imported	-10.5436
▁ear	-10.544
▁investigators	-10.544
▁werden	-10.5444
▁integrity	-10.5446
value	-10.5447
▁impacts	-10.5454
▁loads	-10.5457
▁bvdv	-10.5463
▁fbs	-10.5465
▁degeneration	-10.5465
▁enteritis	-10.5467
red	-10.5468
▁objectives	-10.5478
▁ones	-10.548
▁confirmation	-10.5481
▁5'	-10.5487
▁ndv	-10.5489
▁unusual	-10.5491
▁ifns	-10.5491
▁regulations	-10.5496
▁insect	-10.5496
▁primates	-10.5503
▁equilibrium	-10.5503
▁intrinsic	-10.5504
35	-10.5504
▁250	-10.5509
▁contributing	-10.5512
▁rrna	-10.5513
▁10-	-10.5519
▁accordingly	-10.5519
▁pdcov	-10.5522
▁pan	-10.5523
▁sl	-10.553
▁eu	-10.5535
▁india	-10.5544
▁separately	-10.5549
▁magnetic	-10.555
▁carrier	-10.5552
▁handling	-10.5553
▁libraries	-10.5554
▁beijing	-10.5558
kb	-10.5565
▁mouth	-10.5567
results	-10.5573
▁salt	-10.5577
▁6,	-10.558
▁description	-10.5586
▁preferred	-10.5588
▁proximal	-10.5591
▁ranges	-10.5595
▁prevented	-10.5598
▁distal	-10.5601
▁retained	-10.5604
▁wheezing	-10.5606
▁tubes	-10.5607
▁superior	-10.5612
▁asked	-10.5613
▁window	-10.5615
▁gender	-10.5617
▁endosomal	-10.5617
▁scenarios	-10.5631
▁tropical	-10.5633
▁collaboration	-10.5635
▁july	-10.5637
▁plans	-10.5638
▁lipids	-10.5641
-9	-10.5642
▁empirical	-10.5644
▁attached	-10.5645
▁exon	-10.5653
csf	-10.5662
▁quantity	-10.5664
▁edta	-10.5667
▁2015;	-10.5668
▁1987)	-10.567
▁pm	-10.567
▁nc	-10.5674
site	-10.5677
▁egg	-10.5678
▁knockdown	-10.568
▁meet	-10.5684
▁stain	-10.5686
▁learning	-10.5687
▁(100	-10.5689
▁dehydration	-10.5693
▁dissemination	-10.5695
▁unfortunately	-10.5702
▁[50]	-10.5704
▁sector	-10.5704
▁57	-10.5708
▁weekly	-10.5709
▁establishment	-10.5725
▁concerning	-10.5729
▁sharing	-10.5739
▁macaques	-10.574
▁helicase	-10.5741
▁rooms	-10.5742
▁potency	-10.5745
▁septic	-10.5745
▁generating	-10.5748
▁aligned	-10.5756
▁volumes	-10.5757
▁charged	-10.5765
▁rectal	-10.5779
▁correlate	-10.5779
▁centre	-10.578
▁cloning	-10.578
▁limitation	-10.5787
▁regulating	-10.5788
▁attempts	-10.5792
▁panels	-10.5805
▁8,	-10.5807
▁cervical	-10.5815
▁mda	-10.5819
▁1988)	-10.5819
▁leader	-10.5821
▁viremia	-10.5822
rad	-10.5825
-229	-10.5834
▁computational	-10.5834
▁suppress	-10.5834
▁cover	-10.5836
▁pkr	-10.5839
▁epidemiologic	-10.5841
▁assembled	-10.5854
qpcr	-10.5859
▁sigma	-10.5865
▁monkeys	-10.5869
▁ions	-10.5875
▁seeded	-10.5877
▁folding	-10.5883
▁2019-	-10.5885
▁uncommon	-10.5891
▁replicase	-10.5893
▁ideal	-10.5898
pbs	-10.5899
sense	-10.5899
▁4%	-10.5902
pi	-10.5902
▁translated	-10.5906
▁modern	-10.5917
▁piv	-10.5926
▁missing	-10.5926
▁modulate	-10.5932
▁hypothesized	-10.5934
▁rodent	-10.5935
▁differentiated	-10.5937
▁radiation	-10.5937
▁glass	-10.5942
▁www	-10.5942
▁zero	-10.5942
▁professional	-10.5944
tagged	-10.5948
▁transportation	-10.5949
▁parvovirus	-10.5951
-17	-10.5953
▁permission	-10.5955
▁mitochondria	-10.5963
▁eliminate	-10.597
▁layers	-10.5975
▁breathing	-10.5976
▁posterior	-10.5983
▁chloride	-10.5985
▁orfs	-10.5986
▁ribosome	-10.5989
▁humidity	-10.5995
▁concurrent	-10.5996
▁ang	-10.5999
▁took	-10.6004
▁reviews	-10.6005
▁persist	-10.6009
3]	-10.601
ko	-10.6011
▁serologic	-10.6012
▁newborn	-10.6015
▁business	-10.6015
▁neutral	-10.6019
▁aqueous	-10.6022
▁nitrogen	-10.6028
▁clade	-10.6031
▁substances	-10.6032
▁11,	-10.6035
▁immunosuppression	-10.6037
▁mono	-10.604
▁chamber	-10.605
á	-10.605
▁cis	-10.605
▁endocytosis	-10.6055
▁hyper	-10.6063
▁oligonucleotide	-10.6065
▁strength	-10.6066
▁resolved	-10.6069
acquired	-10.6069
▁semi	-10.607
mg	-10.6071
▁cleaning	-10.6071
▁becoming	-10.6072
▁discuss	-10.6077
▁[51]	-10.608
▁childhood	-10.6087
▁niv	-10.6087
bound	-10.609
▁smallpox	-10.6097
▁driven	-10.6108
ally	-10.6108
▁visual	-10.6121
▁plaques	-10.6122
▁cytopathic	-10.6123
▁automated	-10.6126
▁cpe	-10.6133
▁ϫ	-10.6134
▁hyperplasia	-10.6135
▁slides	-10.6139
▁reasonable	-10.6146
60	-10.6156
▁methodology	-10.6158
▁transcribed	-10.6159
clinical	-10.6159
▁hku	-10.6164
▁1999;	-10.6165
▁mental	-10.6168
▁soon	-10.6171
▁mosquitoes	-10.6173
gene	-10.618
▁logistic	-10.6181
▁put	-10.6183
▁necessarily	-10.6184
▁observe	-10.6186
4+	-10.6187
▁providers	-10.6187
▁sciences	-10.6192
em	-10.6194
▁formulation	-10.6195
▁ground	-10.6196
▁began	-10.6197
his	-10.6204
▁interacting	-10.6205
▁hands	-10.6214
▁heterologous	-10.6215
200	-10.6216
▁performing	-10.6217
▁survive	-10.6218
▁[52]	-10.6228
▁gamma	-10.6228
▁tgf	-10.6229
▁errors	-10.6229
▁anterior	-10.6229
▁assessing	-10.6232
▁monolayers	-10.6233
▁foci	-10.6235
▁lineages	-10.6237
▁originally	-10.6241
▁atg	-10.6243
▁vesicular	-10.6252
▁yields	-10.6256
producing	-10.6257
▁medications	-10.6263
▁opportunities	-10.6267
▁fda	-10.6268
▁blocks	-10.6271
aldrich	-10.6272
5)	-10.6272
▁decade	-10.6273
▁ces	-10.6277
▁gm	-10.6277
▁exogenous	-10.6284
▁paired	-10.6286
▁gels	-10.6287
▁lab	-10.6293
▁reveals	-10.6293
▁indicators	-10.6293
68	-10.6293
several	-10.63
▁fundamental	-10.63
▁passages	-10.63
▁tertiary	-10.6306
▁users	-10.6308
▁tratamiento	-10.631
▁sign	-10.6325
▁chemokine	-10.6326
▁subsets	-10.6333
▁neurologic	-10.6336
▁nano	-10.6336
▁medication	-10.6336
▁needle	-10.6336
▁housing	-10.6339
▁insufficient	-10.634
▁microbes	-10.6345
▁wang	-10.6349
▁immuno	-10.6351
▁away	-10.6358
fc	-10.6359
▁options	-10.636
▁idea	-10.6363
▁transformed	-10.6369
▁initiate	-10.6371
cat	-10.6373
▁italy	-10.6379
-2,	-10.6379
▁simplex	-10.6388
▁sin	-10.6388
▁dried	-10.6392
▁killed	-10.6394
cdc	-10.6397
▁dramatically	-10.6397
▁fourth	-10.6398
▁atrophy	-10.64
▁mini	-10.6403
7,	-10.6409
▁7)	-10.6411
▁principle	-10.6411
▁move	-10.6411
▁generalized	-10.6412
▁channels	-10.6417
▁circumstances	-10.6421
▁loading	-10.6422
▁experts	-10.6424
▁arthritis	-10.6429
▁written	-10.643
▁polypeptide	-10.643
▁genetics	-10.6431
▁difficile	-10.6432
▁scheme	-10.6433
▁docking	-10.6442
cm	-10.6453
65	-10.6456
▁difficulty	-10.6458
▁tracheal	-10.646
▁assumption	-10.646
▁silencing	-10.6462
▁bilateral	-10.6464
▁transported	-10.6466
▁filtration	-10.6472
▁apply	-10.6473
▁extreme	-10.6476
▁aspect	-10.6483
▁grow	-10.6487
▁former	-10.649
▁ward	-10.65
um	-10.6507
▁ppe	-10.6509
▁ga	-10.6515
▁iron	-10.6518
▁utility	-10.6519
▁behaviour	-10.6519
▁lane	-10.6523
▁frameshift	-10.6523
▁(4	-10.6523
▁soft	-10.6529
▁trim	-10.6531
▁exclusively	-10.6533
▁optical	-10.6537
▁chromosome	-10.6539
▁powerful	-10.6544
▁stronger	-10.6548
▁waste	-10.6549
▁eq	-10.6559
▁phases	-10.6561
▁granted	-10.6562
▁task	-10.6566
▁6)	-10.6577
dr	-10.6578
▁infiltrates	-10.6582
▁sick	-10.6583
▁leukocyte	-10.6583
▁definitive	-10.6584
▁peut	-10.6589
▁trachea	-10.6595
▁pure	-10.6598
▁(6)	-10.6602
▁insight	-10.6603
▁similarities	-10.6603
▁hypertension	-10.6606
▁transformation	-10.6607
▁camel	-10.6609
▁fields	-10.6613
▁publication	-10.6617
▁priority	-10.6618
▁perspective	-10.6619
▁phenotypes	-10.662
▁considerably	-10.6623
▁land	-10.6624
-15	-10.6625
▁simulated	-10.6628
▁ceacam	-10.663
▁actin	-10.6639
▁barriers	-10.664
▁kd	-10.6641
▁1997	-10.6657
▁arise	-10.6671
▁cv	-10.6676
▁partners	-10.6677
▁triggered	-10.6683
▁sucrose	-10.6688
▁progeny	-10.669
▁rpm	-10.6693
▁suppressed	-10.6694
▁biosystems	-10.6699
!	-10.6702
▁peroxidase	-10.6705
▁subgenomic	-10.6707
▁consist	-10.671
▁dye	-10.671
▁fused	-10.6718
▁bonds	-10.6718
▁optimized	-10.6719
actin	-10.6722
▁ingestion	-10.6724
sd	-10.6727
▁mobility	-10.6731
▁2018)	-10.6733
▁behaviors	-10.6734
▁mapped	-10.6736
▁principles	-10.6738
▁pneumococcal	-10.6738
▁infrastructure	-10.6739
▁calculate	-10.6739
yl	-10.6742
▁fibroblasts	-10.6744
▁upregulation	-10.6745
analysis	-10.6747
▁γ	-10.6757
26	-10.6761
▁sought	-10.6762
▁user	-10.6762
▁cerebral	-10.6762
▁saliva	-10.6765
▁desired	-10.6778
▁norovirus	-10.678
90	-10.6784
▁4-	-10.6785
▁antibacterial	-10.6785
▁mutagenesis	-10.6789
he	-10.6791
▁twenty	-10.6795
▁ends	-10.6796
▁prophylactic	-10.6811
▁neural	-10.6812
▁globally	-10.6816
▁ethics	-10.6817
▁12,	-10.682
▁parents	-10.6826
▁ethical	-10.6832
▁gradually	-10.6838
▁neck	-10.6839
▁believe	-10.6839
▁[2,	-10.6839
▁usp	-10.6842
▁lysed	-10.6844
▁standardized	-10.6845
▁deposition	-10.6846
▁anorexia	-10.6847
▁exclusion	-10.6851
▁[53]	-10.6855
▁therapeutics	-10.6856
both	-10.6858
▁huh	-10.6869
▁nose	-10.6876
▁reader	-10.688
▁interleukin	-10.6881
▁operating	-10.6886
▁elicit	-10.6889
▁ago	-10.6889
▁comprised	-10.6895
▁bar	-10.69
▁68	-10.6902
▁proximity	-10.6903
▁formula	-10.6911
ation	-10.6911
▁oligonucleotides	-10.6912
pd	-10.6914
▁carbohydrate	-10.6918
▁cryptosporidium	-10.6921
▁̊	-10.693
▁chemistry	-10.6931
▁0.01	-10.6935
▁supportive	-10.6936
dimensional	-10.6938
▁algorithms	-10.6939
▁japanese	-10.6941
▁pc	-10.6944
▁lavage	-10.695
▁belong	-10.6952
▁masks	-10.6957
▁volunteers	-10.6957
▁rhinitis	-10.6958
▁apart	-10.6959
▁instrument	-10.6963
gov	-10.6966
thermo	-10.6967
▁hemagglutinin	-10.6972
▁immunosuppressive	-10.6973
▁electronic	-10.6978
▁conversion	-10.6978
▁pharmaceutical	-10.6979
▁somewhat	-10.698
tm	-10.6986
▁trained	-10.6988
▁brief	-10.6996
▁computed	-10.6999
▁15%	-10.7001
▁regimen	-10.7006
▁pseudoknot	-10.7014
▁activating	-10.7017
▁uenza	-10.7026
▁defect	-10.7026
▁essentially	-10.7028
▁clustered	-10.7031
▁reservoirs	-10.7034
▁64	-10.7038
▁clean	-10.7042
▁utr	-10.7043
lamp	-10.7049
▁inhalation	-10.705
▁equally	-10.705
88	-10.7051
▁1986)	-10.7052
▁naïve	-10.7052
phase	-10.7053
7-	-10.7055
▁neuraminidase	-10.7062
▁cr	-10.7064
id	-10.7064
▁provinces	-10.7067
▁1984	-10.7069
▁bhk	-10.707
ant	-10.7071
▁larvae	-10.7071
▁hepatocytes	-10.7073
▁captured	-10.7077
▁cox	-10.7081
▁nps	-10.7083
pa	-10.7089
▁biomarkers	-10.7089
▁verified	-10.7092
age	-10.7093
▁stated	-10.7098
▁adherence	-10.7099
▁pocket	-10.7107
9)	-10.7112
▁alleles	-10.7112
▁rnai	-10.7115
▁price	-10.7117
▁consecutive	-10.7123
▁faecal	-10.7126
▁incomplete	-10.7128
▁cxcr	-10.7133
▁timely	-10.7133
▁fatality	-10.7137
▁mv	-10.714
▁computer	-10.714
so	-10.7141
▁faster	-10.7141
▁sulfate	-10.7146
▁dietary	-10.7147
▁inadequate	-10.7152
▁histologic	-10.7153
▁born	-10.7153
▁propagation	-10.7159
▁[54]	-10.7159
▁deficient	-10.7159
▁ig	-10.7164
▁qrt	-10.718
▁microbiology	-10.7182
▁1998;	-10.7184
▁mirna	-10.7187
▁sensor	-10.7191
▁immunogenic	-10.7198
▁situ	-10.7215
▁publications	-10.722
▁applicable	-10.722
▁fine	-10.7227
6,	-10.723
out	-10.723
▁kits	-10.7232
▁served	-10.7233
▁229	-10.7233
▁titres	-10.7234
▁pk	-10.7235
▁thoracic	-10.7238
▁acidic	-10.7239
▁quantify	-10.7243
▁bars	-10.7243
▁studying	-10.7246
▁3'	-10.7248
▁quantities	-10.7253
▁microbiota	-10.7256
▁continues	-10.7256
▁≤	-10.7267
▁necropsy	-10.7269
▁infective	-10.727
▁3%	-10.7272
▁encountered	-10.7279
▁peritonitis	-10.7283
▁[3,	-10.7285
▁thin	-10.729
figs	-10.7292
▁billion	-10.7297
▁assayed	-10.7298
▁chi	-10.7299
np	-10.7311
ia	-10.7313
▁0.05)	-10.7319
regulation	-10.732
▁1985)	-10.7324
▁surveys	-10.7324
▁han	-10.7326
▁reflects	-10.7327
▁gap	-10.7328
▁arterial	-10.7332
▁highlight	-10.7335
▁predictions	-10.7335
hcl	-10.7336
▁mobile	-10.7337
▁dental	-10.7338
▁activates	-10.7342
▁defective	-10.7344
▁november	-10.7345
▁è	-10.735
▁held	-10.735
▁instances	-10.7351
▁sg	-10.7354
▁slight	-10.7358
▁evd	-10.736
▁oc	-10.736
▁[55]	-10.7368
▁14,	-10.7369
▁housed	-10.7371
▁sows	-10.7375
▁ip	-10.738
▁jev	-10.7383
▁exclude	-10.7386
▁enhancing	-10.7387
month	-10.7395
▁aspiration	-10.7395
▁prevents	-10.7397
▁fmdv	-10.7398
▁axis	-10.74
▁competition	-10.7403
34	-10.7405
▁bleeding	-10.7407
▁che	-10.7411
▁diagnoses	-10.7415
▁reuse	-10.7416
▁wound	-10.7417
during	-10.7431
▁sea	-10.7432
▁mirnas	-10.7433
▁histological	-10.7434
▁syndromes	-10.7435
▁pv	-10.7438
ae	-10.7445
▁board	-10.7447
▁eosinophils	-10.7449
▁hair	-10.7451
▁motor	-10.7452
▁specialized	-10.7459
▁bi	-10.7459
▁regarded	-10.746
▁1983	-10.7462
▁apical	-10.7462
▁solvent	-10.7463
▁root	-10.7464
methyl	-10.7464
ity	-10.7468
▁smooth	-10.7468
▁extend	-10.7471
▁goats	-10.7476
▁aggregation	-10.7483
stat	-10.7485
▁meat	-10.7493
other	-10.7493
▁qualitative	-10.7493
▁theoretical	-10.7496
▁disinfection	-10.7498
▁uncertainty	-10.75
▁gives	-10.7502
▁option	-10.7502
▁format	-10.7506
▁94	-10.7506
▁transmissible	-10.7508
▁behavioral	-10.7508
▁serves	-10.7509
elisa	-10.7512
▁egfp	-10.7513
mol	-10.7516
▁pe	-10.7521
▁hybrid	-10.7526
▁summer	-10.7527
▁operation	-10.7528
▁biotechnology	-10.7528
▁−/−	-10.7529
▁resident	-10.7532
▁netherlands	-10.7539
▁october	-10.7545
▁capability	-10.7549
▁lm	-10.755
▁2016;	-10.7551
▁mutated	-10.7554
▁■	-10.7555
seq	-10.756
▁assist	-10.7564
▁infección	-10.7568
spectrum	-10.7571
▁simultaneous	-10.7574
▁dosage	-10.7575
▁record	-10.7577
▁cathepsin	-10.758
01	-10.7583
▁1:	-10.7586
▁disseminated	-10.7588
bd	-10.7589
wide	-10.759
activated	-10.759
▁accurately	-10.7591
▁sv	-10.7592
▁droplet	-10.7595
▁[4,	-10.7599
▁loaded	-10.76
▁carefully	-10.7605
▁companies	-10.7609
▁snps	-10.7625
▁timing	-10.7626
▁od	-10.7628
▁novo	-10.7628
▁built	-10.7639
▁junction	-10.764
▁derivative	-10.7643
▁ages	-10.7643
▁modulation	-10.7654
▁matched	-10.7669
▁dark	-10.7673
2]	-10.7676
▁embedded	-10.7678
▁outpatient	-10.7685
▁bcov	-10.7686
▁guidance	-10.7691
▁influenzae	-10.7692
▁ifit	-10.7697
▁scoring	-10.7697
▁translational	-10.7703
▁filtered	-10.7708
while	-10.7712
▁arrest	-10.7715
▁lysate	-10.7715
▁tyrosine	-10.7719
▁expensive	-10.772
▁signalling	-10.7722
▁acetate	-10.7722
▁cutaneous	-10.7724
▁dyspnea	-10.7726
go	-10.7727
▁engineered	-10.774
▁offers	-10.7743
▁subcutaneous	-10.7743
▁elicited	-10.7746
8]	-10.7751
another	-10.7759
ag	-10.7762
▁[57]	-10.7763
▁adenoviruses	-10.777
▁improvements	-10.7779
called	-10.7781
▁1998	-10.7784
▁correspond	-10.7785
▁ari	-10.7786
▁[56]	-10.7795
▁infusion	-10.7801
▁surprisingly	-10.7802
▁chemotherapy	-10.7806
stimulated	-10.7808
▁effusion	-10.7809
▁participation	-10.7811
▁ltd	-10.7813
▁feasible	-10.7814
utr	-10.7822
▁strict	-10.7827
▁occupational	-10.7829
because	-10.7835
▁silver	-10.7839
▁acting	-10.784
▁likewise	-10.7842
▁approval	-10.7842
▁conduct	-10.7846
ti	-10.7853
▁conclude	-10.7861
▁nl	-10.7868
▁degrees	-10.7871
▁operations	-10.7874
▁digested	-10.7875
▁9,	-10.7877
▁massive	-10.7878
▁eluted	-10.7879
▁chance	-10.7882
▁bsa	-10.7889
▁#	-10.7893
▁vehicle	-10.7898
▁contagious	-10.79
▁cpg	-10.7902
▁impairment	-10.7906
2),	-10.7912
▁artificial	-10.7915
▁representation	-10.7916
▁constitute	-10.7918
▁drop	-10.7919
▁serology	-10.792
▁collagen	-10.7922
▁penetration	-10.7922
▁words	-10.7923
▁indoor	-10.7926
▁distances	-10.7926
▁ni	-10.7932
using	-10.7936
▁prime	-10.7939
▁sf	-10.7947
▁subgroup	-10.7952
▁puede	-10.7955
▁broadly	-10.7957
▁accounted	-10.7965
23	-10.7971
▁63	-10.7972
▁me	-10.7972
▁reflected	-10.7974
▁formalin	-10.7974
▁propose	-10.7977
▁households	-10.7979
▁undertaken	-10.7985
▁bacterium	-10.7993
▁sec	-10.7996
▁packaging	-10.7999
▁nile	-10.8002
▁scanning	-10.8018
▁[5,	-10.8022
▁apparatus	-10.8023
▁departments	-10.803
cc	-10.8034
▁pancreatic	-10.8042
▁bird	-10.8051
▁recipient	-10.8051
▁branch	-10.8052
▁monkey	-10.8054
▁crp	-10.8054
▁meeting	-10.806
▁sent	-10.8066
structural	-10.8071
▁nations	-10.8071
▁heterogeneous	-10.8071
▁1981	-10.8076
▁phosphorylated	-10.8077
▁accessory	-10.8081
▁dramatic	-10.8086
▁été	-10.8087
van	-10.8089
▁inoculum	-10.809
λ	-10.8091
▁tick	-10.8099
-6,	-10.8101
▁medicines	-10.8107
8+	-10.8108
▁links	-10.8108
infectious	-10.8111
▁island	-10.8112
▁pose	-10.8116
-2-	-10.812
44	-10.8128
▁scope	-10.8136
▁[58]	-10.8136
transfected	-10.8141
▁virology	-10.8142
ec	-10.8143
▁endosomes	-10.8146
▁adsorption	-10.8148
▁truncated	-10.8148
▁today	-10.8149
▁necrotic	-10.815
▁triplicate	-10.8151
▁1984)	-10.8152
▁confocal	-10.8153
▁prove	-10.8154
▁ul	-10.8161
▁bottom	-10.8163
▁car	-10.8166
▁anova	-10.8167
▁coagulation	-10.817
▁internet	-10.8172
gal	-10.8173
▁oxide	-10.8175
1]	-10.8177
figures	-10.8183
▁correlates	-10.8186
▁1997;	-10.8188
▁sum	-10.8188
▁vulnerable	-10.8195
▁brazil	-10.8195
ette	-10.8195
▁august	-10.8198
▁applying	-10.8203
▁amplify	-10.8206
▁"(	-10.8213
▁parent	-10.8214
▁maximal	-10.8218
infections	-10.8229
▁ll	-10.8234
▁parasitic	-10.8244
▁scientists	-10.8247
▁soil	-10.825
▁conversely	-10.8251
▁confirming	-10.8252
▁retinal	-10.8253
▁1999	-10.8258
▁[6,	-10.826
▁thailand	-10.8268
▁neonates	-10.8269
▁traffic	-10.827
▁lcmv	-10.8271
▁(7)	-10.8271
▁corresponds	-10.8273
▁eastern	-10.828
▁eff	-10.828
promega	-10.8281
▁oocysts	-10.8283
▁income	-10.8283
▁homeostasis	-10.8284
▁am	-10.8286
▁velocity	-10.8287
▁peritoneal	-10.8287
▁backbone	-10.8289
fl	-10.8294
▁sclerosis	-10.8296
▁ps	-10.8298
▁optimization	-10.8298
▁ap	-10.8305
▁papers	-10.8309
▁debris	-10.8309
▁converted	-10.8313
▁odds	-10.8318
▁sporadic	-10.8318
80	-10.832
▁ctl	-10.8324
▁perception	-10.8326
▁engineering	-10.833
▁rash	-10.8331
▁super	-10.8332
expression	-10.8337
▁cfu	-10.8343
▁gondii	-10.8349
▁polymorphisms	-10.8351
▁drawn	-10.8352
ne	-10.8352
▁2003,	-10.8352
▁blast	-10.8355
▁accessible	-10.8355
▁siv	-10.8358
▁ont	-10.8361
▁develops	-10.8372
driven	-10.8375
▁cytosolic	-10.8388
▁kingdom	-10.8389
three	-10.8389
▁0.3	-10.839
▁ifnar	-10.8394
over	-10.8397
▁potassium	-10.8398
▁kittens	-10.8405
▁interpreted	-10.8412
▁metapneumovirus	-10.8413
generation	-10.8413
▁dmso	-10.8414
▁auto	-10.8414
▁pulse	-10.8421
▁malignant	-10.8423
▁rely	-10.8424
▁ministry	-10.8426
▁smoking	-10.8426
▁ge	-10.843
▁undergoing	-10.8432
▁regulates	-10.8439
▁mother	-10.844
▁attractive	-10.844
▁1995;	-10.8442
coated	-10.8445
▁nonetheless	-10.8449
▁platforms	-10.845
▁giving	-10.8452
▁swelling	-10.8454
▁75%	-10.8459
▁infects	-10.8459
▁hp	-10.846
▁600	-10.8464
▁grade	-10.8468
▁perpetuity	-10.8474
▁agricultural	-10.8478
▁leaves	-10.8478
▁vein	-10.848
▁subclinical	-10.8483
▁tcr	-10.8485
▁establishing	-10.8489
▁spring	-10.8495
▁plot	-10.8495
▁mdck	-10.8497
▁programme	-10.8499
▁enhances	-10.85
▁absorbance	-10.8503
▁embryonic	-10.8512
▁1996	-10.8512
▁≥	-10.8515
▁eradication	-10.8518
▁myeloid	-10.8527
▁passengers	-10.8528
patients	-10.8528
▁influences	-10.853
▁injuries	-10.8535
▁immature	-10.8535
▁counted	-10.8545
▁seropositive	-10.8545
[	-10.8551
▁comprising	-10.8553
▁wash	-10.8555
▁sensors	-10.8555
▁underwent	-10.8558
▁begin	-10.8562
▁(8)	-10.8565
▁owing	-10.8568
▁net	-10.857
▁reticulum	-10.8575
▁crude	-10.8578
▁inhaled	-10.8582
viruses	-10.8582
▁deposited	-10.8587
▁describes	-10.8591
ness	-10.8596
▁[59]	-10.8596
▁company	-10.8599
▁tables	-10.8601
▁casos	-10.8602
▁breeds	-10.8603
▁sexual	-10.8603
▁61	-10.8611
▁flora	-10.8612
▁adjuvants	-10.8614
▁historical	-10.8615
▁eosinophilic	-10.8617
▁mathematical	-10.8618
▁refers	-10.8632
▁cytomegalovirus	-10.8632
▁exposures	-10.8633
▁deletions	-10.8633
▁monocyte	-10.8634
▁slowly	-10.8644
▁coat	-10.8647
si	-10.865
▁acceptable	-10.8654
-100	-10.8659
▁dissolved	-10.8672
▁gaps	-10.8673
hcv	-10.8676
▁85	-10.868
▁legal	-10.8684
ad	-10.8684
%	-10.8685
▁ever	-10.8693
▁intense	-10.8694
▁facilitates	-10.8704
▁km	-10.8713
▁tri	-10.8719
▁usual	-10.8729
▁phenotypic	-10.8732
▁pore	-10.8737
▁exhibits	-10.8738
▁locus	-10.8742
▁vast	-10.8742
▁favorable	-10.8742
▁cysts	-10.8744
▁[7,	-10.8747
▁sudden	-10.875
▁difficulties	-10.8757
▁stimuli	-10.8762
▁lamina	-10.8764
▁cholera	-10.8766
▁vlp	-10.8766
▁spectrometry	-10.8769
▁nested	-10.877
▁indication	-10.8773
▁eliminated	-10.8778
box	-10.8779
▁military	-10.8784
▁mimic	-10.8785
▁rich	-10.8786
▁hard	-10.8789
▁ecological	-10.8795
aids	-10.88
▁stocks	-10.8802
▁66	-10.8802
▁gst	-10.8803
▁orientation	-10.8805
▁emission	-10.8806
▁attempted	-10.8806
▁implies	-10.8807
▁careful	-10.881
▁[60]	-10.8813
▁empty	-10.8821
▁attenuation	-10.8822
son	-10.8824
▁federal	-10.8827
▁keep	-10.8827
▁pertussis	-10.8828
tag	-10.8831
▁determinant	-10.8833
▁cascade	-10.8838
▁passed	-10.8838
▁hsp	-10.8839
▁coughing	-10.884
▁gray	-10.8848
▁aux	-10.8848
▁weights	-10.8852
▁hormone	-10.8858
▁enables	-10.8862
▁flexible	-10.8864
▁governments	-10.8865
▁hajj	-10.8867
▁actively	-10.8869
▁examining	-10.887
▁england	-10.8876
▁cdv	-10.8884
▁individually	-10.8889
▁1996;	-10.8889
▁psychological	-10.8889
▁selectivity	-10.8891
▁inactive	-10.8895
▁71	-10.8896
▁chip	-10.8898
▁0.5%	-10.8901
▁paralysis	-10.8903
▁portal	-10.8904
▁terminus	-10.8911
▁ddx	-10.8911
▁mycobacterium	-10.8912
▁arm	-10.8912
▁disasters	-10.8913
▁returned	-10.8913
▁pronounced	-10.8915
▁0.05).	-10.8915
▁remarkable	-10.8917
▁continuously	-10.8922
▁das	-10.8925
▁steroid	-10.8927
▁indirectly	-10.8929
▁insurance	-10.893
▁convalescent	-10.8939
▁frames	-10.8942
▁rank	-10.8944
▁lectins	-10.8944
▁build	-10.8948
▁agency	-10.895
pdm	-10.8952
▁hcmv	-10.8954
fi	-10.8956
▁pandemics	-10.8963
▁0.4	-10.8963
▁calculation	-10.8964
▁opposite	-10.897
▁border	-10.8973
▁nutrition	-10.8974
sensitive	-10.8976
▁rhesus	-10.8981
▁flavivirus	-10.8982
▁kinases	-10.8986
▁bcl	-10.8989
▁moiety	-10.899
▁discrete	-10.899
▁cow	-10.8992
▁compatible	-10.8993
less	-10.8994
▁functionally	-10.8995
▁cancers	-10.9001
-18	-10.9003
▁della	-10.9004
many	-10.9006
▁sind	-10.9014
▁your	-10.9017
▁grouped	-10.9018
▁reovirus	-10.9019
▁elucidate	-10.9022
▁colitis	-10.9024
▁manual	-10.9024
▁implement	-10.9026
▁linkage	-10.9029
▁manufacturing	-10.9029
▁muscles	-10.9029
▁arg	-10.9032
kda	-10.9032
▁picture	-10.9034
▁2.0	-10.9035
▁ub	-10.9038
▁notable	-10.9039
▁loops	-10.904
▁breed	-10.9041
▁collect	-10.9044
▁filters	-10.9051
ts	-10.9053
▁nonstructural	-10.9057
▁refer	-10.9059
▁unpublished	-10.906
pr	-10.9061
▁glycan	-10.9062
▁nutritional	-10.9065
high	-10.9065
▁suffering	-10.9067
▁sufficiently	-10.9071
▁aptamers	-10.9072
▁67	-10.9074
▁erythrocytes	-10.9074
▁killing	-10.9081
▁combining	-10.9081
▁62	-10.9083
▁cys	-10.9085
▁licensed	-10.909
▁triggers	-10.9094
▁korean	-10.9095
▁properly	-10.9099
▁intended	-10.9099
▁dimer	-10.9101
▁containment	-10.9104
▁brains	-10.9106
▁triton	-10.9106
applied	-10.9109
▁2017	-10.9111
▁mucous	-10.9111
▁urea	-10.9112
▁headache	-10.912
▁deliver	-10.912
▁[8,	-10.9121
▁removing	-10.9127
▁granules	-10.9129
▁1982)	-10.913
▁airflow	-10.913
▁assuming	-10.9131
▁correlations	-10.9133
▁goals	-10.9133
▁fear	-10.9135
roche	-10.9135
▁aware	-10.9138
coding	-10.9143
▁aerosols	-10.9145
▁copper	-10.9158
▁partly	-10.9159
▁bladder	-10.916
▁postinfection	-10.916
▁anxiety	-10.9164
▁phosphatase	-10.9173
▁brown	-10.9174
▁sugar	-10.9177
▁iu	-10.9181
▁disulfide	-10.9182
5]	-10.9182
▁differed	-10.9182
▁lesser	-10.9183
▁broader	-10.9184
chen	-10.9186
species	-10.9188
▁diminished	-10.9191
▁codes	-10.9194
▁glycans	-10.9198
▁inability	-10.9204
▁regulator	-10.9208
▁specified	-10.9208
▁correction	-10.9209
▁coordination	-10.921
▁war	-10.9213
mo	-10.9213
loop	-10.9214
▁journal	-10.9214
▁(6	-10.922
▁scan	-10.9224
▁helper	-10.9226
▁graph	-10.9232
▁5′-	-10.9232
▁capillary	-10.9239
▁selectively	-10.9241
▁traitement	-10.9243
▁für	-10.9244
▁metabolites	-10.9244
▁seroprevalence	-10.9256
▁0,	-10.9256
▁ein	-10.9262
▁cho	-10.9262
▁lanes	-10.9263
luc	-10.9265
▁reaching	-10.9265
▁propagated	-10.9267
green	-10.9271
▁brought	-10.9271
▁aptamer	-10.9272
▁office	-10.9273
▁69	-10.9278
▁splicing	-10.9281
▁[61]	-10.9284
▁unrelated	-10.9285
▁intubation	-10.9287
chain	-10.9289
▁conjugate	-10.929
▁bearing	-10.9298
▁anthrax	-10.9303
▁premature	-10.9305
▁erk	-10.9308
▁phagocytosis	-10.9309
▁analyzing	-10.9313
▁knockout	-10.9316
▁ef	-10.9318
despite	-10.9319
▁proteinase	-10.9323
▁lys	-10.9324
4]	-10.9328
▁surprising	-10.9329
▁13,	-10.933
ro	-10.933
▁facilitated	-10.9331
some	-10.9336
▁artery	-10.9337
6)	-10.9339
▁spots	-10.934
▁termination	-10.934
▁clinics	-10.9341
▁faeces	-10.9346
▁ulcers	-10.9348
▁house	-10.9348
▁inform	-10.9348
▁pharmacological	-10.9352
background	-10.9353
▁pilgrims	-10.9354
▁industrial	-10.9354
▁hamsters	-10.9356
▁biosciences	-10.9359
▁airport	-10.936
▁sorting	-10.9363
▁cooperation	-10.9366
▁pollution	-10.9368
igg	-10.9371
▁fail	-10.9373
▁interfering	-10.9375
▁creating	-10.9375
▁movements	-10.9376
throughput	-10.9377
▁exert	-10.9384
▁myocardial	-10.9387
▁document	-10.9389
▁(9)	-10.9393
▁attributable	-10.9394
▁ileum	-10.9397
▁mediates	-10.9398
▁pass	-10.9399
-1-	-10.9399
receptor	-10.9403
▁pellet	-10.9403
▁99	-10.9407
▁assistance	-10.9407
▁mast	-10.9408
▁ra	-10.9412
▁flaviviruses	-10.9414
▁[9,	-10.9415
▁[62]	-10.9425
▁kidneys	-10.9426
▁sensing	-10.9433
▁doctors	-10.9435
more	-10.9436
▁oder	-10.9438
▁prepare	-10.9449
▁dermatitis	-10.945
pol	-10.9458
▁tracing	-10.946
cr	-10.946
▁internalization	-10.946
▁practitioners	-10.9461
▁appendix	-10.9463
▁nicht	-10.9463
▁rescue	-10.9465
▁coefficients	-10.9465
▁euthanized	-10.9466
▁label	-10.9466
▁moving	-10.947
▁belongs	-10.947
▁neoplasia	-10.947
▁add	-10.9474
36	-10.9476
moi	-10.9484
▁correctly	-10.9488
▁productive	-10.9489
▁hydrolysis	-10.9495
▁supplemental	-10.9496
▁hpiv	-10.9496
ve	-10.9497
▁microbiological	-10.9497
▁1994;	-10.95
▁originated	-10.9502
▁einer	-10.9508
▁baculovirus	-10.9509
9,	-10.9518
▁depth	-10.9527
molecular	-10.9528
▁ncbi	-10.9532
▁[10,	-10.9536
▁came	-10.9538
▁pbmcs	-10.9538
▁republic	-10.9543
▁mbl	-10.9548
▁thrombocytopenia	-10.9549
▁arrival	-10.955
▁drinking	-10.9552
▁locally	-10.9554
▁forces	-10.9557
▁pseudomonas	-10.9559
▁wave	-10.956
▁radiographic	-10.9561
▁thereafter	-10.9569
▁nih	-10.9574
▁snp	-10.9579
oh	-10.9584
total	-10.9584
point	-10.9585
▁modes	-10.9587
▁my	-10.9588
▁highlights	-10.9589
▁1970	-10.9591
▁incident	-10.9594
▁confer	-10.9597
▁antisera	-10.9598
▁played	-10.96
▁utilization	-10.9613
32	-10.9619
▁causal	-10.9619
rv	-10.962
▁unexpected	-10.9621
▁projects	-10.9623
▁sequential	-10.9625
▁behind	-10.9625
▁nurse	-10.9627
▁corneal	-10.9632
four	-10.9634
▁hairpin	-10.9641
▁aggregates	-10.9641
only	-10.9642
lo	-10.9645
▁buildings	-10.9652
▁mp	-10.9654
▁proportions	-10.9655
▁constraints	-10.966
▁«	-10.9668
▁preferentially	-10.9668
▁mais	-10.9669
▁mva	-10.9672
▁seizures	-10.9674
▁cortex	-10.9681
genbank	-10.9682
▁transmit	-10.9683
▁steady	-10.9687
▁chemicals	-10.9693
▁prrs	-10.9694
▁classic	-10.9694
▁mammary	-10.97
▁templates	-10.9702
▁endoplasmic	-10.9703
severe	-10.9705
▁cultural	-10.9707
▁investment	-10.9715
▁ck	-10.9724
lin	-10.9726
▁call	-10.9729
▁encephalomyelitis	-10.9733
▁uniform	-10.9733
▁tobacco	-10.9739
▁venous	-10.9739
▁sh	-10.974
▁veterinarians	-10.9743
▁hundred	-10.9751
▁nec	-10.9754
▁[63]	-10.9755
▁episode	-10.976
defined	-10.9767
TM	-10.977
▁rules	-10.977
▁5′	-10.9771
▁sting	-10.9771
▁antiserum	-10.9772
▁immunohistochemistry	-10.9772
▁adv	-10.9774
▁biosafety	-10.9775
▁2019	-10.9779
▁alignments	-10.9782
▁squamous	-10.9782
▁master	-10.9782
ser	-10.9782
▁instruments	-10.9782
▁fiber	-10.9782
▁references	-10.9786
▁prism	-10.9786
▁λ	-10.9788
▁offered	-10.979
ps	-10.9796
▁[12,	-10.9798
use	-10.9801
▁laser	-10.9801
▁investigating	-10.9801
ten	-10.9802
▁[11,	-10.9803
also	-10.9805
▁drive	-10.9807
▁enfermedad	-10.9809
▁nodules	-10.9817
▁feedback	-10.9818
▁annually	-10.9824
shaped	-10.9825
▁concomitant	-10.9825
▁attacks	-10.9833
▁loci	-10.9834
▁institution	-10.9836
however	-10.9838
▁vertical	-10.9839
▁toll	-10.9841
▁injections	-10.9845
▁contigs	-10.9848
33	-10.9851
▁plague	-10.9856
▁california	-10.9864
▁zhang	-10.9866
▁radiographs	-10.9866
▁managed	-10.987
▁indicative	-10.988
▁lee	-10.9882
▁recover	-10.9884
lc	-10.9887
▁antisense	-10.9888
▁fashion	-10.9892
▁coinfection	-10.9896
▁lymphocytic	-10.9897
▁aggressive	-10.9902
▁louis	-10.9907
▁alteration	-10.9909
forming	-10.991
▁skills	-10.991
▁focusing	-10.9913
▁ruminants	-10.9915
▁complication	-10.9915
▁survivors	-10.9917
▁auf	-10.9918
▁15,	-10.9927
▁biopsies	-10.9929
median	-10.9935
▁contributions	-10.9935
▁ngs	-10.9937
▁obtaining	-10.9942
ds	-10.9943
▁competitive	-10.9956
▁survived	-10.997
▁ova	-10.9973
56	-10.9975
▁controversial	-10.9975
▁ccov	-10.9978
▁architecture	-10.9979
▁describing	-10.998
▁retroviruses	-10.9988
▁74	-10.999
▁owners	-10.9991
▁mapk	-11.0002
▁minute	-11.0002
log	-11.0004
▁supplementation	-11.0007
▁1994	-11.0011
▁exponential	-11.0012
▁labor	-11.0018
▁tendency	-11.002
▁fibers	-11.002
▁typing	-11.0021
▁ny	-11.0021
▁utilize	-11.0023
▁predicting	-11.0029
7)	-11.003
pre	-11.0031
▁check	-11.0036
▁morphological	-11.0036
▁suckling	-11.0037
▁cent	-11.0039
ni	-11.0039
▁closure	-11.0039
▁76	-11.0041
▁division	-11.0043
▁places	-11.0043
directed	-11.0044
here	-11.0046
▁mt	-11.0047
▁chen	-11.0047
patient	-11.0048
▁antivirals	-11.005
▁hot	-11.005
▁clostridium	-11.0054
▁collectively	-11.0055
▁protecting	-11.0058
▁bank	-11.0059
▁va	-11.0061
▁advance	-11.0062
▁demonstration	-11.0063
▁[64]	-11.0063
▁lengths	-11.0064
per	-11.0069
▁foot	-11.007
▁monthly	-11.0074
▁5'-	-11.0079
▁1983)	-11.0079
▁recommend	-11.0079
▁mannose	-11.0084
▁provision	-11.0084
▁cytosol	-11.0085
▁16,	-11.009
▁streptomycin	-11.0096
▁schools	-11.0099
▁pbmc	-11.0099
pe	-11.0099
rd	-11.01
▁plastic	-11.0102
▁mavs	-11.0103
▁strands	-11.0104
▁ultrasound	-11.0104
▁prototype	-11.0107
▁page	-11.0107
mhv	-11.011
▁match	-11.0111
▁amongst	-11.0111
▁embryo	-11.0112
▁brsv	-11.0112
46	-11.0124
▁mri	-11.0127
▁dissociation	-11.0128
−	-11.0131
▁stomatitis	-11.0134
▁remarkably	-11.0134
▁topic	-11.0137
▁lncrnas	-11.014
-13	-11.0145
rabbit	-11.0147
reactivity	-11.0147
▁visitors	-11.0151
▁fixation	-11.0152
▁mbp	-11.0154
▁conjunction	-11.0154
▁enlarged	-11.0155
but	-11.0159
▁digital	-11.0159
▁flag	-11.0161
▁covering	-11.0161
stage	-11.0162
▁78	-11.0164
low	-11.0164
▁mn	-11.017
▁mr	-11.0173
▁forest	-11.0179
▁relies	-11.0182
▁sinus	-11.0183
▁sore	-11.019
confirmed	-11.0194
▁verify	-11.0196
▁uncertain	-11.0197
et	-11.0198
▁**	-11.0199
▁lg	-11.0201
▁max	-11.0203
▁profound	-11.0211
▁oh	-11.0212
▁qu	-11.0216
gen	-11.0219
▁vi	-11.0219
▁entirely	-11.0221
▁fruit	-11.0221
▁2018	-11.0221
▁participant	-11.0226
▁opening	-11.0227
▁alert	-11.0229
▁consistency	-11.0229
myc	-11.0232
▁path	-11.0232
▁candida	-11.0232
▁regimens	-11.0233
▁ly	-11.0234
egfp	-11.0239
▁amplicons	-11.0239
ate	-11.0243
▁visualization	-11.0247
64	-11.0252
▁parenteral	-11.0252
▁resonance	-11.0254
▁considerations	-11.0258
▁98	-11.0264
▁weaning	-11.0265
▁equations	-11.0266
▁pools	-11.0267
▁organized	-11.0276
▁os	-11.0276
▁1991;	-11.0278
▁methanol	-11.0283
▁assumptions	-11.0284
▁accumulated	-11.0301
▁sem	-11.0301
▁84	-11.0307
▁polymer	-11.031
▁mol	-11.0325
▁primate	-11.033
▁percentages	-11.0335
ace	-11.0339
known	-11.0342
▁77	-11.0345
▁criterion	-11.035
▁(8	-11.0352
▁signature	-11.0354
▁modelling	-11.0355
▁rab	-11.0357
▁suggestive	-11.0358
▁parenchyma	-11.0364
ri	-11.0364
▁1990;	-11.037
▁definitions	-11.0371
▁reactivation	-11.0371
▁anesthesia	-11.0378
▁virtually	-11.0378
7]	-11.0379
▁consolidation	-11.0382
tnf	-11.0382
uk	-11.0382
▁capabilities	-11.0384
▁antioxidant	-11.0386
▁utilizing	-11.0392
▁0.8	-11.0395
31	-11.0395
additional	-11.0395
▁nh	-11.0402
▁formulations	-11.0403
▁deal	-11.0407
mice	-11.0408
▁ulceration	-11.041
ler	-11.0411
▁certainly	-11.0412
▁immobilized	-11.0417
▁aims	-11.0417
▁preference	-11.0419
▁taqman	-11.0423
▁turkey	-11.0424
▁distinguished	-11.0425
▁entering	-11.0428
▁(10)	-11.043
▁repeats	-11.0433
▁plp	-11.0436
▁multivariate	-11.0437
6]	-11.0444
▁lysosomal	-11.0452
▁18,	-11.0454
▁isgs	-11.0457
▁mic	-11.0458
gc	-11.0461
▁polymorphism	-11.0462
▁fetus	-11.0463
▁gestation	-11.0471
▁2]	-11.0472
▁titre	-11.0473
▁steroids	-11.0474
▁dis	-11.0475
new	-11.0476
▁etiologic	-11.0478
▁tween	-11.048
▁whilst	-11.0483
▁height	-11.0484
▁era	-11.0487
48	-11.0488
state	-11.0488
▁pl	-11.049
cap	-11.0494
▁comes	-11.0499
▁17,	-11.05
▁integral	-11.0501
▁1995	-11.0503
▁hotel	-11.0505
▁structurally	-11.0506
▁suspended	-11.0516
▁promoted	-11.0523
mente	-11.053
▁multifocal	-11.0534
▁coronary	-11.0535
pp	-11.0537
▁accounts	-11.0538
▁analogues	-11.0542
▁news	-11.0542
▁enabled	-11.0542
▁mesenteric	-11.0549
▁expert	-11.055
▁stochastic	-11.0552
▁bed	-11.0554
▁signifi	-11.0569
▁%)	-11.057
health	-11.0572
ig	-11.0572
▁pathologic	-11.0573
▁programmes	-11.0574
ce	-11.0576
▁facilitating	-11.0577
▁cystic	-11.0579
▁24-	-11.0582
62	-11.0584
▁platelets	-11.0585
▁differs	-11.0588
▁switch	-11.059
▁[65]	-11.0592
▁ease	-11.0592
▁weather	-11.0592
▁helps	-11.0598
▁accounting	-11.0602
▁replicon	-11.0604
▁propria	-11.0604
▁lambs	-11.0604
ip	-11.0605
▁seroconversion	-11.0608
▁prone	-11.0613
▁mixtures	-11.0614
▁spaces	-11.0614
▁tight	-11.0614
▁excretion	-11.0622
▁spain	-11.0624
▁oas	-11.0629
▁illustrate	-11.0632
▁validate	-11.0633
▁congestion	-11.0638
▁rejection	-11.0649
▁experiences	-11.0651
▁beds	-11.0651
house	-11.0657
▁dehydrogenase	-11.0663
▁21,	-11.0668
1/2	-11.0669
▁divergence	-11.0669
▁economy	-11.0681
▁impossible	-11.0684
▁participating	-11.0684
au	-11.0686
▁academic	-11.0686
▁wi	-11.0687
▁scfv	-11.0688
▁accumulate	-11.0693
▁[66]	-11.0695
▁[14,	-11.0698
▁125	-11.07
▁favor	-11.0706
▁[13,	-11.0709
▁1989;	-11.0714
▁weakness	-11.0715
▁ubiquitination	-11.0721
▁seasons	-11.0722
▁ribosomes	-11.0726
▁promotion	-11.0727
6-	-11.0727
▁tat	-11.0732
▁obstructive	-11.0735
ley	-11.0735
▁(12)	-11.0737
encoded	-11.0737
▁expect	-11.0738
▁spores	-11.0738
ev	-11.0739
▁(11)	-11.0741
▁responsibility	-11.0752
▁entered	-11.0756
▁obesity	-11.0756
▁look	-11.0758
▁begins	-11.0759
▁polypeptides	-11.076
▁southeast	-11.076
▁emerge	-11.0763
▁10,000	-11.0763
99	-11.0765
▁topology	-11.0767
▁antimicrobials	-11.0767
▁eav	-11.0771
▁permit	-11.078
▁horizontal	-11.0787
▁gloves	-11.0787
▁rpmi	-11.0789
▁resolve	-11.079
▁bioinformatics	-11.0793
▁dust	-11.0793
8,	-11.0795
▁biosynthesis	-11.0799
▁salivary	-11.08
▁nucleoside	-11.0803
▁inherent	-11.0812
alpha	-11.0813
▁ts	-11.0821
▁liposomes	-11.0821
▁scored	-11.0822
be	-11.0823
▁proof	-11.0826
▁agriculture	-11.0828
▁3′	-11.083
▁preclinical	-11.0834
hku	-11.0835
▁duplicate	-11.0835
target	-11.084
▁avoided	-11.0844
▁concerned	-11.0845
ner	-11.0851
▁88	-11.0851
▁[67]	-11.0854
helix	-11.0855
▁worth	-11.0855
ibv	-11.086
pedv	-11.086
▁opportunistic	-11.0861
▁vaginal	-11.0863
▁diagnose	-11.0868
▁comprises	-11.0873
▁regularly	-11.0878
▁titration	-11.089
▁works	-11.089
▁noise	-11.0891
im	-11.0894
▁ifa	-11.0897
▁divergent	-11.0898
▁shifts	-11.0904
▁splenocytes	-11.0905
▁college	-11.0912
▁3.5	-11.0913
▁pseudo	-11.0914
▁declined	-11.0916
▁83	-11.0917
▁driving	-11.0917
▁overview	-11.0924
▁flexibility	-11.0927
ó	-11.0927
buffered	-11.0929
▁export	-11.0929
▁popular	-11.093
▁vietnam	-11.0932
▁marine	-11.0933
▁nach	-11.0933
▁enteroviruses	-11.0934
atcc	-11.0936
▁liu	-11.0947
▁prv	-11.0949
▁monolayer	-11.0953
▁parvum	-11.0956
▁foundation	-11.0962
▁elucidated	-11.0965
▁breath	-11.0966
▁dependence	-11.0968
▁expertise	-11.0971
▁contrary	-11.0975
▁tubular	-11.0975
▁york	-11.0978
▁serially	-11.0979
income	-11.0982
▁chloroquine	-11.0986
▁foods	-11.0989
▁comorbidities	-11.099
▁floor	-11.0991
▁gapdh	-11.0992
gi	-11.0993
▁oxidation	-11.0994
▁eagle	-11.0997
▁developmental	-11.0997
▁methyl	-11.0998
▁expand	-11.0998
▁arrays	-11.0998
▁abscesses	-11.1002
▁microbiome	-11.1004
ka	-11.1007
▁inferred	-11.1008
▁reliability	-11.1011
▁legionella	-11.1012
▁confined	-11.1016
▁helical	-11.1017
▁nd	-11.1018
▁dorsal	-11.1018
▁insert	-11.1018
▁plotted	-11.1019
▁hhv	-11.102
▁counter	-11.1022
▁tip	-11.1023
▁ϩ	-11.1033
▁histopathological	-11.1034
▁plots	-11.1034
▁hamster	-11.1037
▁let	-11.1037
▁manage	-11.1044
hsv	-11.1046
▁firm	-11.1049
▁villi	-11.1054
▁ppm	-11.1056
▁australian	-11.1057
▁meanwhile	-11.106
▁8)	-11.1062
▁cs	-11.1064
▁canonical	-11.1069
▁180	-11.1073
sp	-11.1075
▁aliquots	-11.1075
▁patches	-11.108
▁formal	-11.1082
▁pharyngitis	-11.1086
▁acquire	-11.1086
▁masses	-11.1087
1).	-11.1089
▁ires	-11.1089
▁supplies	-11.1089
▁coupling	-11.1093
▁district	-11.1093
▁depicted	-11.1094
▁1989	-11.1095
▁olfactory	-11.1097
▁79	-11.11
nm	-11.11
▁granulomatous	-11.1101
▁24,	-11.1101
finally	-11.1107
ul	-11.1107
▁damaged	-11.1108
▁pairwise	-11.1109
▁neoplastic	-11.1109
▁wet	-11.1111
▁[68]	-11.1112
flag	-11.1112
▁precipitation	-11.1112
▁regulators	-11.1112
▁solely	-11.1113
existing	-11.1113
▁abortion	-11.1123
are	-11.1123
▁hemoglobin	-11.1124
▁sentinel	-11.1127
▁monomer	-11.1129
▁biosecurity	-11.1131
▁pilot	-11.1131
▁lens	-11.1134
▁ventricular	-11.1135
▁bulk	-11.1141
▁narrow	-11.1144
▁bd	-11.1144
▁emergencies	-11.1149
▁thickness	-11.1152
▁leaving	-11.1153
▁aspergillus	-11.1153
▁durch	-11.1154
▁antagonist	-11.1154
▁notion	-11.1156
▁angiotensin	-11.1158
methods	-11.1159
▁big	-11.1161
▁duct	-11.1162
▁educational	-11.1162
▁walls	-11.1163
▁restrictions	-11.1167
▁vesicle	-11.1168
▁eyes	-11.1175
▁proportional	-11.1175
▁concepts	-11.1179
ir	-11.1179
▁illustrates	-11.1181
▁lactate	-11.1181
phosphate	-11.1182
▁engagement	-11.1183
▁[15,	-11.1184
▁colonic	-11.1186
▁[69]	-11.1187
▁transmissibility	-11.1191
▁allergen	-11.1192
▁alkaline	-11.1195
▁2017;	-11.1199
▁answer	-11.1199
▁(30	-11.1202
▁rupture	-11.1207
▁priming	-11.1214
▁neu	-11.1216
▁immunocompetent	-11.1217
▁glial	-11.1217
▁mmp	-11.1226
▁genomics	-11.1233
▁100,000	-11.1234
ap	-11.1235
▁nonhuman	-11.1238
▁bcv	-11.1239
▁microarrays	-11.1239
▁[16,	-11.1242
▁bilayer	-11.1246
▁saturation	-11.1248
▁anticipated	-11.125
▁mexico	-11.1251
▁predictor	-11.1253
▁neuro	-11.1254
▁1-2	-11.1255
adapted	-11.1255
▁longitudinal	-11.1269
▁coronaviridae	-11.1274
▁emphasis	-11.1274
▁recommendation	-11.1275
▁1981)	-11.1276
▁thousands	-11.1278
▁motility	-11.1278
inactivated	-11.1279
▁elongation	-11.1281
▁proteasome	-11.1283
▁reductions	-11.1287
▁react	-11.1291
peptide	-11.1293
blue	-11.1294
tb	-11.1294
▁zones	-11.1296
▁[17,	-11.1297
▁0.6	-11.13
▁stimulating	-11.1304
▁gd	-11.131
▁1.2	-11.131
▁[70]	-11.1312
▁accomplished	-11.132
▁officials	-11.1324
▁comme	-11.1325
▁circular	-11.1326
▁closer	-11.1326
mir	-11.1327
▁otitis	-11.1328
immune	-11.1328
▁cranial	-11.133
▁trust	-11.1332
dc	-11.1332
▁reflecting	-11.1334
▁tolerated	-11.1339
▁rubella	-11.1339
▁annotation	-11.1339
▁embryos	-11.1343
▁advice	-11.1346
▁clarified	-11.1346
▁drainage	-11.1346
▁corticosteroid	-11.1347
▁alanine	-11.1349
▁teaching	-11.135
▁zur	-11.1354
▁anaerobic	-11.1359
▁este	-11.136
▁introduce	-11.1363
▁enterocytes	-11.1366
▁triggering	-11.1367
▁93	-11.1372
coronavirus	-11.1372
▁amplicon	-11.1374
ga	-11.1377
▁antifungal	-11.1378
journal	-11.138
▁categorized	-11.1386
▁purity	-11.1396
▁digestive	-11.1401
▁proliferative	-11.1405
▁stopped	-11.1408
▁spf	-11.1409
▁polio	-11.141
▁french	-11.1416
▁fire	-11.1417
antibody	-11.1419
beta	-11.1425
▁capital	-11.1425
▁ras	-11.1425
mic	-11.1431
▁bis	-11.1431
▁glycerol	-11.1431
▁valid	-11.1436
▁subgroups	-11.1438
▁council	-11.1442
▁modest	-11.1443
▁wider	-11.1445
▁thermo	-11.1448
▁chromatin	-11.145
▁pcdna	-11.145
▁predictors	-11.1454
▁optic	-11.1459
▁seed	-11.1459
▁film	-11.1469
▁hay	-11.1473
con	-11.1479
▁indications	-11.1484
▁obviously	-11.1485
▁maps	-11.1486
ling	-11.1488
▁(14)	-11.1494
field	-11.1494
▁treg	-11.1495
▁retrieved	-11.1499
▁73	-11.1502
▁outlined	-11.1503
▁infiltrate	-11.1503
down	-11.1506
▁abdomen	-11.1508
▁heavily	-11.1512
37	-11.1512
▁clinician	-11.1517
▁bacillus	-11.152
▁neighboring	-11.1521
ck	-11.1523
▁tg	-11.1523
▁peg	-11.1534
po	-11.1539
ht	-11.1539
▁melanoma	-11.1545
▁inclusions	-11.1545
▁county	-11.155
▁gl	-11.1552
▁(13)	-11.1552
▁pdcs	-11.1554
▁communicable	-11.1557
▁gained	-11.1559
▁mega	-11.1559
▁isoforms	-11.1561
▁administrative	-11.1563
oral	-11.1569
▁diets	-11.157
▁said	-11.1575
▁bring	-11.1577
▁82	-11.1579
▁astrovirus	-11.1581
▁19,	-11.1585
golgi	-11.1585
▁precision	-11.1586
▁denaturation	-11.1586
ion	-11.1587
▁precursors	-11.1592
▁jak	-11.1597
▁module	-11.1597
▁hypersensitivity	-11.1598
▁replicated	-11.1599
▁interests	-11.16
am	-11.1603
▁destination	-11.1608
▁hazard	-11.1608
▁biologically	-11.1609
▁profiling	-11.161
▁guangdong	-11.1618
▁prostate	-11.162
▁corona	-11.162
29	-11.162
▁substance	-11.1623
▁sybr	-11.1625
▁1,2	-11.1626
▁checked	-11.1627
▁trimer	-11.1629
▁seek	-11.1632
▁86	-11.1634
▁28,	-11.1634
▁endo	-11.1636
▁perivascular	-11.1637
▁1988	-11.1638
▁cleared	-11.1645
▁seemed	-11.1645
▁tends	-11.1651
-3-	-11.1652
▁1991	-11.1656
▁tc	-11.1657
▁fitc	-11.1659
▁89	-11.1663
▁degraded	-11.1664
▁1988;	-11.1665
▁kinetic	-11.1667
▁enabling	-11.1669
ized	-11.1671
▁decay	-11.1671
▁cation	-11.1677
▁repertoire	-11.1679
▁naive	-11.1679
acute	-11.1687
▁evidenced	-11.1692
▁furin	-11.1695
▁supplement	-11.1697
▁ir	-11.1705
▁permanent	-11.1712
▁puppies	-11.172
▁admissions	-11.172
tailed	-11.1723
ex	-11.1723
▁oligo	-11.1724
▁synonymous	-11.1731
▁thymus	-11.1734
▁front	-11.1735
▁kill	-11.1742
▁topical	-11.1745
▁completion	-11.1752
▁synergistic	-11.1756
▁possesses	-11.176
▁reacted	-11.1762
▁elevation	-11.1762
▁observational	-11.1766
▁1:1	-11.1768
▁[71]	-11.1768
▁2-3	-11.1769
▁sectors	-11.1777
▁medicinal	-11.1777
▁incorporate	-11.1778
▁macro	-11.1779
55	-11.1782
threatening	-11.1785
▁histologically	-11.1787
▁(25	-11.1789
▁histopathology	-11.1792
▁disrupt	-11.1797
▁hrp	-11.1801
▁transcriptome	-11.1807
▁comprise	-11.1809
▁atoms	-11.1809
hu	-11.181
▁ventral	-11.1811
▁abscess	-11.1812
▁graft	-11.1812
▁defining	-11.1812
▁dosing	-11.1822
pathogen	-11.1822
▁analogous	-11.1831
▁agreed	-11.1833
base	-11.1833
▁machine	-11.1835
▁updated	-11.1836
▁welfare	-11.1844
▁traf	-11.1844
▁hypoxia	-11.1844
ng	-11.1862
▁occasional	-11.1863
▁pellets	-11.1864
▁electrolyte	-11.1867
▁dispersion	-11.1867
▁filled	-11.1868
acting	-11.1872
▁cutoff	-11.1876
▁biomedical	-11.1879
▁zealand	-11.188
▁12-	-11.188
▁interviews	-11.1886
▁intramuscular	-11.1887
▁urgent	-11.1889
▁null	-11.189
▁ensuring	-11.1892
▁thick	-11.1893
▁validity	-11.19
▁demyelinating	-11.19
▁immunology	-11.1901
▁coordinated	-11.1902
▁jnk	-11.1904
▁farmers	-11.1905
▁equipped	-11.1905
▁turnover	-11.1909
▁uveitis	-11.1913
▁raise	-11.1913
▁official	-11.1914
expressed	-11.1917
▁!	-11.1918
ver	-11.1922
▁ar	-11.1922
▁language	-11.1924
▁river	-11.1926
poly	-11.1928
▁competent	-11.193
▁warranted	-11.1933
▁ticks	-11.1936
▁firstly	-11.1937
▁dulbecco	-11.1937
▁leu	-11.194
▁fp	-11.1943
▁upr	-11.1946
▁inspection	-11.1948
▁0.25	-11.1951
▁adopt	-11.1953
▁immunosorbent	-11.1953
▁carriage	-11.1953
version	-11.1954
▁[18,	-11.1955
▁hplc	-11.1957
▁fitted	-11.1958
vi	-11.1959
▁biomarker	-11.1965
▁stably	-11.1969
▁benign	-11.197
▁assessments	-11.197
▁prognostic	-11.1973
▁washes	-11.1974
▁indices	-11.1982
▁lobe	-11.1984
▁(2004)	-11.1984
▁tumour	-11.1984
▁names	-11.1987
▁ischemia	-11.199
▁persistently	-11.2012
▁phylogeny	-11.2022
▁elution	-11.2023
▁tokyo	-11.2032
▁abs	-11.2034
▁df	-11.2034
▁boost	-11.2036
▁20,	-11.2045
net	-11.2048
▁hav	-11.205
▁distant	-11.205
▁1978	-11.2051
▁suffer	-11.2051
▁diff	-11.2051
▁neutralize	-11.2052
▁fidelity	-11.2053
▁sanitation	-11.2055
▁giardia	-11.2056
▁450	-11.2056
▁91	-11.2057
mi	-11.2058
▁ptx	-11.2064
▁rev	-11.2071
ization	-11.2071
▁columns	-11.2074
▁app	-11.208
respiratory	-11.2082
▁stakeholders	-11.2084
▁traits	-11.2086
▁thorough	-11.2086
response	-11.2089
▁diagnóstico	-11.2092
▁smoke	-11.2093
values	-11.2097
▁dromedary	-11.21
ton	-11.2106
▁infecciones	-11.2109
▁collapse	-11.2109
▁striking	-11.2111
58	-11.2115
▁branches	-11.2119
▁matching	-11.212
▁preceding	-11.2121
▁ssrna	-11.2123
▁12%	-11.2125
▁auch	-11.2126
▁park	-11.2127
▁kinds	-11.2129
▁23,	-11.2129
▁annealing	-11.213
▁cvb	-11.2132
▁leave	-11.2138
▁manipulation	-11.2141
nih	-11.2142
▁subcellular	-11.2142
▁authority	-11.2143
▁scaffold	-11.2144
▁92	-11.2146
▁organelles	-11.2146
▁mediating	-11.2147
▁addressing	-11.2151
▁nuclease	-11.2154
▁conjunctivitis	-11.2158
ent	-11.2161
inoculated	-11.2164
membrane	-11.2165
▁emissions	-11.2165
▁triple	-11.2169
▁bayesian	-11.2175
▁97	-11.2178
▁flocks	-11.218
▁consultation	-11.2183
▁(15	-11.2186
▁adapt	-11.219
▁fcv	-11.2191
▁[72]	-11.2191
▁aromatic	-11.2192
bi	-11.2198
▁moderately	-11.2202
▁promoters	-11.2206
▁81	-11.2208
▁examinations	-11.2209
▁isotype	-11.221
▁1979	-11.2212
▁prf	-11.2215
▁giant	-11.2216
▁heparin	-11.2217
quality	-11.2217
49	-11.222
▁110	-11.2221
▁dm	-11.2221
▁employing	-11.2222
▁prescribed	-11.2226
▁diego	-11.2226
▁lists	-11.2228
▁1987;	-11.223
▁duplex	-11.2232
▁gb	-11.2234
▁fitting	-11.2239
▁compromised	-11.224
▁dei	-11.2241
▁wards	-11.2242
▁placenta	-11.2243
▁multiplicity	-11.2246
effective	-11.2247
▁cy	-11.2253
animal	-11.2254
▁warning	-11.2255
▁immunoglobulins	-11.2256
▁nipah	-11.2259
▁igy	-11.226
▁jhmv	-11.2261
gibco	-11.2262
▁hct	-11.2263
▁mothers	-11.2265
▁1986;	-11.2265
▁perfringens	-11.2271
▁registered	-11.2271
▁continuing	-11.2275
▁presumed	-11.228
cmv	-11.228
▁hundreds	-11.2281
▁facs	-11.2283
▁reversible	-11.2284
▁87	-11.2289
▁diarrheic	-11.2292
long	-11.2293
▁lot	-11.2295
▁immunologic	-11.2295
▁perfusion	-11.2296
▁missed	-11.2296
▁2015,	-11.2296
▁commission	-11.2297
▁caution	-11.2299
▁buffered	-11.23
▁falciparum	-11.23
▁bacteremia	-11.23
10,	-11.2301
▁(15)	-11.2302
▁106	-11.2303
▁calculations	-11.2306
▁autopsy	-11.2309
▁lives	-11.2312
▁immunomodulatory	-11.2313
▁riesgo	-11.2313
▁chikungunya	-11.2314
af	-11.2314
▁cu	-11.2314
▁neoplasms	-11.2314
five	-11.2317
▁axonal	-11.2317
▁vasculitis	-11.2326
▁hits	-11.2327
▁varicella	-11.233
▁tourists	-11.2331
▁lacks	-11.2336
▁[73]	-11.2338
▁ligase	-11.2339
▁vaccinations	-11.2341
▁keeping	-11.2342
▁postulated	-11.2344
81	-11.2344
▁english	-11.2347
▁speculate	-11.2348
▁operational	-11.2349
8)	-11.2351
▁broth	-11.2355
▁aspirates	-11.2356
▁modify	-11.2357
▁lysine	-11.2359
▁triage	-11.2361
▁dam	-11.2365
▁deleted	-11.237
research	-11.2372
covs	-11.2372
prrsv	-11.2381
▁hazards	-11.2383
▁ligation	-11.2389
▁linker	-11.239
▁cognitive	-11.2398
▁disrupted	-11.2399
▁hpai	-11.2401
▁watery	-11.2405
▁migrate	-11.2408
▁sweden	-11.241
▁probabilities	-11.2414
▁illumina	-11.2421
neutralizing	-11.2426
▁excluding	-11.2429
▁harbor	-11.243
):	-11.2434
▁bl	-11.244
▁viewed	-11.2441
▁pueden	-11.2444
▁industries	-11.2446
pdb	-11.2446
▁shanghai	-11.2446
▁manifestation	-11.2449
▁formaldehyde	-11.2454
▁annotated	-11.2454
▁methylation	-11.2456
78	-11.2459
\")	-11.2463
▁htlv	-11.2464
mann	-11.2466
▁aging	-11.247
▁chlamydia	-11.247
▁employees	-11.247
▁downregulation	-11.2471
▁elle	-11.2473
▁·	-11.2474
▁flight	-11.2475
▁reconstruction	-11.2475
▁22,	-11.2483
▁idiopathic	-11.2483
genome	-11.2485
▁think	-11.2486
hi	-11.2487
▁proteome	-11.2493
▁necrotizing	-11.2496
▁105	-11.2498
▁structured	-11.2501
▁hu	-11.2501
▁endotoxin	-11.2502
▁airports	-11.2504
▁minus	-11.2504
▁hold	-11.2508
▁resultant	-11.2522
▁intermediates	-11.253
▁hematopoietic	-11.253
▁activator	-11.2532
▁clarify	-11.2536
▁clades	-11.2538
▁[74]	-11.2539
that	-11.254
▁zoonoses	-11.2544
cv	-11.2548
▁rf	-11.2549
▁spot	-11.255
▁leakage	-11.2552
▁0.001)	-11.2552
▁ver	-11.2558
dt	-11.2558
▁dense	-11.2565
▁recognizes	-11.2565
▁connection	-11.2566
▁140	-11.2567
▁skeletal	-11.2569
among	-11.2569
▁aircraft	-11.257
▁arginine	-11.2573
▁paraffin	-11.2573
▁31,	-11.2575
▁conflict	-11.2576
▁placement	-11.2577
▁densities	-11.2582
▁herpesviruses	-11.2583
▁spectroscopy	-11.2586
▁positivity	-11.2586
▁mainland	-11.2592
▁hsct	-11.2595
▁2014,	-11.26
▁modulating	-11.2604
▁taxonomic	-11.2611
▁moved	-11.2612
▁pretreatment	-11.2612
▁prp	-11.2613
▁shell	-11.2613
ala	-11.2613
▁downregulated	-11.2617
▁glycosylated	-11.262
▁responding	-11.262
cf	-11.2622
▁desirable	-11.2625
ll	-11.2627
▁bocavirus	-11.2628
acid	-11.2628
0]	-11.2633
▁productivity	-11.2634
▁ultra	-11.2634
▁stroke	-11.2636
▁paraformaldehyde	-11.2638
▁biotinylated	-11.2639
▁opinion	-11.264
▁transgene	-11.2658
▁avoiding	-11.2661
▁bootstrap	-11.2662
▁query	-11.2664
▁huge	-11.2665
▁square	-11.2667
third	-11.2668
first	-11.2668
▁splenic	-11.2669
▁rhinoviruses	-11.2672
▁prices	-11.2676
▁oligodendrocytes	-11.2683
▁displacement	-11.2684
▁remodeling	-11.2687
▁1986	-11.2689
▁transiently	-11.269
-␥	-11.2692
▁carlsbad	-11.2695
▁ammonium	-11.2695
▁glu	-11.2696
▁feasibility	-11.2699
▁wu	-11.2702
▁creatinine	-11.2704
▁facial	-11.2705
▁campylobacter	-11.2713
▁mucin	-11.2715
▁95°	-11.2717
▁deviations	-11.2718
hospital	-11.272
▁ivig	-11.2724
▁tlrs	-11.2727
▁mann	-11.2734
▁scales	-11.2736
▁arising	-11.2741
▁[19,	-11.2742
▁genital	-11.2743
▁junctions	-11.2744
▁generates	-11.2745
▁worked	-11.2747
▁lethargy	-11.2748
▁peri	-11.2748
▁suspensions	-11.2751
▁ambient	-11.2752
▁clathrin	-11.2752
▁exudate	-11.2754
▁nov	-11.2755
▁heating	-11.2756
▁permissive	-11.2758
▁hepes	-11.2758
pk	-11.2759
▁sustainable	-11.2765
▁(7	-11.2765
▁calls	-11.2766
▁wird	-11.2766
▁vertebrate	-11.2767
▁adrenal	-11.2768
cas	-11.2769
▁plausible	-11.2778
▁seasonality	-11.2779
▁prompt	-11.278
▁travellers	-11.2782
▁fibrin	-11.2784
▁entities	-11.2787
▁rounds	-11.279
▁lymphatic	-11.279
▁coming	-11.279
grade	-11.2792
▁dedicated	-11.2792
▁systematically	-11.2792
▁homogeneous	-11.2795
normal	-11.2795
▁easier	-11.2796
▁competing	-11.2801
▁analogs	-11.2804
▁bioterrorism	-11.2805
▁wastewater	-11.281
▁plpro	-11.2811
▁angle	-11.2811
▁intermittent	-11.2812
2).	-11.2812
▁opposed	-11.2814
▁plated	-11.2814
▁retroviral	-11.2815
case	-11.2818
sh	-11.2819
▁passenger	-11.2821
▁superficial	-11.2821
▁killer	-11.2822
▁dimensions	-11.2825
▁apc	-11.2826
▁bovis	-11.2828
▁tregs	-11.2831
76]	-11.2833
▁ped	-11.2834
▁delle	-11.2836
▁coiled	-11.2837
▁evolve	-11.284
▁vancomycin	-11.284
water	-11.2841
▁picornaviruses	-11.2842
▁characterised	-11.2843
▁dnase	-11.2844
▁irradiation	-11.2846
▁meaning	-11.2846
▁sharp	-11.2847
▁(16)	-11.2849
▁endothelium	-11.2849
▁intestines	-11.2849
▁manufacturers	-11.2853
nucleotide	-11.2853
▁switzerland	-11.2854
▁recognizing	-11.2854
▁pylori	-11.2855
▁running	-11.2858
▁helped	-11.286
▁stimulates	-11.2861
▁inappropriate	-11.2863
▁healing	-11.2864
▁lytic	-11.2864
▁durante	-11.2865
▁[75]	-11.2867
ova	-11.2872
▁deux	-11.2876
▁server	-11.2878
▁teams	-11.2879
▁bronchoalveolar	-11.2881
▁sobre	-11.2881
▁edge	-11.2882
▁retrovirus	-11.2884
▁26,	-11.2884
▁accelerated	-11.2885
52	-11.2888
tg	-11.2891
▁[20,	-11.2896
▁0.001).	-11.2902
▁fatigue	-11.2903
▁supplied	-11.2903
▁adoption	-11.2903
▁detrimental	-11.2904
▁associate	-11.2908
den	-11.2908
▁herbal	-11.2909
▁chitosan	-11.2912
▁intranasally	-11.2914
▁proteomic	-11.2915
▁pancreas	-11.2916
▁après	-11.2918
▁1918	-11.292
▁teeth	-11.292
▁latency	-11.2921
▁ϭ	-11.2921
▁mind	-11.2925
▁rp	-11.2925
▁proteomics	-11.2928
▁3.0	-11.294
▁arrows	-11.2942
▁1985;	-11.2946
▁visited	-11.2946
▁thickening	-11.2947
rr	-11.2948
▁radiography	-11.2949
▁ubiquitous	-11.2951
▁1980)	-11.2956
▁14]	-11.2957
▁beef	-11.2964
▁ali	-11.2964
▁cryo	-11.2964
▁resemble	-11.2966
▁initiatives	-11.2973
▁mem	-11.2981
▁achieving	-11.2983
▁esophageal	-11.2984
▁worker	-11.2987
▁powder	-11.299
▁pt	-11.2991
▁sir	-11.2993
▁foxp	-11.2994
▁ve	-11.2997
los	-11.3
▁slide	-11.3003
▁lb	-11.3005
▁160	-11.3007
▁rst	-11.3009
▁cure	-11.3011
·	-11.3014
▁slower	-11.3018
▁runs	-11.302
▁ducks	-11.302
▁coating	-11.302
▁blockade	-11.302
▁displays	-11.3021
vs	-11.3027
▁contaminants	-11.3027
▁tongue	-11.3029
▁(2005)	-11.3033
▁labelled	-11.3034
▁tended	-11.3036
-20	-11.3036
▁electrostatic	-11.3042
▁apn	-11.3042
▁conjugation	-11.3042
▁bm	-11.3044
▁alexa	-11.3046
▁cre	-11.3047
▁roughly	-11.3048
▁ineffective	-11.3049
▁strictly	-11.3049
▁litter	-11.3049
▁npc	-11.3051
▁hypo	-11.3051
▁sich	-11.3053
▁800	-11.3061
▁yang	-11.3061
▁absorbed	-11.3065
▁identifi	-11.3072
▁bite	-11.3073
▁melting	-11.3075
▁normalization	-11.3081
▁spss	-11.3082
▁smith	-11.3086
od	-11.3086
▁implementing	-11.3086
▁13]	-11.3092
▁evolving	-11.3093
▁mis	-11.3104
antigen	-11.3107
-2)	-11.3108
▁passaged	-11.3113
▁haplotype	-11.3114
▁functioning	-11.3117
▁edges	-11.3122
▁cyclic	-11.3123
▁atmosphere	-11.3124
▁cruz	-11.3124
▁traditionally	-11.3127
ada	-11.3132
▁tyr	-11.3136
▁genotyping	-11.3138
▁vzv	-11.314
▁8]	-11.314
▁mechanistic	-11.3142
▁track	-11.315
▁harmful	-11.3158
controlled	-11.3159
▁caudal	-11.3161
▁9-	-11.3161
▁ibd	-11.3162
▁fa	-11.3162
▁11]	-11.3167
exposed	-11.3167
▁cited	-11.3168
▁rotaviruses	-11.3168
▁25,	-11.3169
▁lysosomes	-11.3169
▁originating	-11.317
▁sleep	-11.3172
▁20]	-11.3174
cy	-11.3175
▁lasv	-11.3175
▁corrected	-11.318
▁choose	-11.3183
▁centres	-11.3184
limiting	-11.3189
▁default	-11.3194
▁ai	-11.3194
▁5.0	-11.3197
▁exit	-11.3198
▁balanced	-11.3199
blood	-11.3199
▁fab	-11.3201
▁acidosis	-11.3205
▁capsule	-11.3206
▁nj	-11.3207
▁15]	-11.3208
▁souvent	-11.3211
▁lag	-11.3211
tr	-11.3212
▁numerical	-11.3215
▁counterparts	-11.3216
▁rational	-11.3216
approximately	-11.3216
sen	-11.3219
▁whereby	-11.322
▁asthmatic	-11.322
▁4.5	-11.3222
mc	-11.3229
▁nitric	-11.323
▁ref	-11.3231
▁engage	-11.3232
▁incorporating	-11.3234
▁tcm	-11.3239
▁epidermal	-11.324
recently	-11.324
▁replace	-11.3245
▁suspicion	-11.3248
▁undetectable	-11.3248
▁oligosaccharides	-11.3249
ke	-11.325
▁confluent	-11.3259
▁designing	-11.3259
▁seconds	-11.3261
▁disordered	-11.3262
▁efficacious	-11.3262
▁agonist	-11.3264
▁(0.5	-11.3268
▁wearing	-11.3269
▁ideally	-11.327
▁immunohistochemical	-11.327
▁split	-11.327
▁shrna	-11.3273
▁chose	-11.3275
▁physiology	-11.3276
hour	-11.328
▁cirrhosis	-11.3281
▁governance	-11.3281
▁interferons	-11.3287
▁collecting	-11.3289
▁influencing	-11.329
barr	-11.3292
▁19]	-11.3297
arg	-11.3298
▁exhibiting	-11.3299
world	-11.3301
▁ester	-11.3302
▁2-5	-11.3303
▁polymerases	-11.3303
▁resin	-11.3304
▁orders	-11.3306
▁130	-11.3307
▁hrsv	-11.3308
gag	-11.331
▁amyloid	-11.3314
▁risque	-11.3318
▁determines	-11.3319
▁strategic	-11.3322
▁akt	-11.3322
▁stabilization	-11.3323
▁unaffected	-11.3324
▁phe	-11.3324
▁hit	-11.3325
▁ppv	-11.3326
lu	-11.3329
▁files	-11.3329
ϫ	-11.3332
▁cationic	-11.3333
▁specifi	-11.3336
▁discharged	-11.3338
▁esta	-11.334
making	-11.3344
▁dialysis	-11.3346
▁1).	-11.3355
▁[77]	-11.3365
▁sinusitis	-11.3365
▁spontaneously	-11.3367
transfection	-11.3369
▁nerves	-11.3369
▁tracking	-11.3372
▁mc	-11.3373
▁imply	-11.3377
▁haemophilus	-11.3384
▁17]	-11.3384
▁ho	-11.3384
▁appropriately	-11.3385
▁rh	-11.3388
▁foodborne	-11.3388
▁27,	-11.3392
▁pressures	-11.3394
ung	-11.3396
▁managing	-11.3397
▁vessel	-11.3398
▁simian	-11.3398
▁combat	-11.3403
▁remote	-11.3405
▁immunoprecipitation	-11.3405
residues	-11.3406
▁[21,	-11.3408
ba	-11.3409
▁chemically	-11.3412
modified	-11.3414
▁cleave	-11.3415
▁website	-11.3417
▁ld	-11.3423
300	-11.3425
▁grid	-11.3428
▁cage	-11.3428
tgev	-11.3428
▁atopic	-11.3429
ter	-11.3429
person	-11.343
▁2/2	-11.343
▁21]	-11.3433
▁windows	-11.3435
▁kim	-11.3439
▁recruit	-11.3442
▁tomography	-11.3444
▁alveoli	-11.3449
▁typhimurium	-11.3454
▁2:	-11.3456
▁substituted	-11.3457
▁initiating	-11.3463
▁albeit	-11.3464
ou	-11.3465
▁mi	-11.3466
▁expanding	-11.3466
▁selecting	-11.3468
▁periodic	-11.3476
flu	-11.3479
▁worse	-11.348
gm	-11.3484
▁crystals	-11.3485
▁returns	-11.3486
▁estimating	-11.3487
▁retina	-11.3489
▁camp	-11.349
▁configuration	-11.3492
▁modeled	-11.3495
▁presentations	-11.3499
▁fcs	-11.3499
drug	-11.35
▁documents	-11.3501
▁eligible	-11.3501
▁hemagglutination	-11.3501
▁jejunum	-11.3501
du	-11.3505
▁seeking	-11.3511
▁zn	-11.3512
▁allergens	-11.3515
▁conformations	-11.3516
▁caso	-11.3522
▁taxa	-11.3525
▁surviving	-11.3525
▁guideline	-11.3526
▁restrict	-11.3528
▁depleted	-11.3531
▁pla	-11.3532
square	-11.3533
▁syringe	-11.3535
▁replicative	-11.3535
▁hbsag	-11.3536
▁$	-11.3536
▁16]	-11.3537
▁union	-11.3538
▁introducing	-11.3539
>	-11.3539
▁marc	-11.3544
according	-11.3548
▁18]	-11.3548
▁tmprss	-11.3549
▁tightly	-11.355
▁dates	-11.3554
▁inference	-11.3555
eu	-11.3558
▁immunotherapy	-11.3558
▁7.5	-11.356
▁helices	-11.3561
54	-11.3561
▁clonal	-11.3562
▁nanoparticle	-11.3564
▁(9	-11.3564
▁gly	-11.3564
▁formulated	-11.3566
▁offspring	-11.3568
▁tourist	-11.3569
▁diabetic	-11.3569
ol	-11.3573
▁mgcl	-11.3576
▁[78]	-11.3578
▁hospitalizations	-11.3579
gel	-11.3581
▁(17)	-11.3582
▁tem	-11.3583
▁brd	-11.3589
▁1-3	-11.359
▁1.4	-11.3591
▁conducting	-11.3596
▁biofilm	-11.3597
tlr	-11.3601
▁[79]	-11.3601
▁shares	-11.3602
▁silica	-11.3606
▁somatic	-11.3606
▁hg	-11.3607
▁adequately	-11.3607
▁1,000	-11.3608
▁secrete	-11.3611
▁optimize	-11.3618
▁recurrence	-11.3621
▁ire	-11.3622
wang	-11.3623
exposure	-11.3625
lps	-11.3626
▁jhm	-11.3626
▁revised	-11.3626
▁protects	-11.3628
▁22]	-11.3631
▁29,	-11.3631
▁manually	-11.3632
tion	-11.3633
▁collaborative	-11.3634
▁microglial	-11.3637
▁pancreatitis	-11.3639
▁developments	-11.364
▁radiograph	-11.3641
▁objects	-11.3643
▁bien	-11.3644
▁nascent	-11.3644
▁cohorts	-11.3649
▁blots	-11.3649
▁patch	-11.365
▁aug	-11.3651
▁rd	-11.3652
▁lies	-11.3654
▁hypertrophy	-11.3654
▁responded	-11.3654
-145	-11.3655
ism	-11.3657
frame	-11.3662
▁debate	-11.3662
▁9]	-11.3665
purified	-11.3667
▁spite	-11.3669
▁enters	-11.3671
▁1976	-11.3671
▁lining	-11.3671
▁herein	-11.3678
vol	-11.3678
▁-3	-11.3682
▁initiative	-11.3684
▁mois	-11.3687
▁adaptor	-11.3688
domain	-11.3692
▁eid	-11.3693
▁cyp	-11.3701
der	-11.3702
sirna	-11.3703
▁perceptions	-11.3703
▁8%	-11.3704
▁analog	-11.3705
▁functionality	-11.3705
▁[23,	-11.3708
▁distemper	-11.3712
▁returning	-11.3712
▁1.1	-11.3714
▁marginal	-11.3715
sectional	-11.3716
▁intravenously	-11.3722
▁temporary	-11.3726
▁amoxicillin	-11.3728
▁dtt	-11.3729
her	-11.373
▁respirator	-11.3732
fusion	-11.3737
▁6]	-11.374
▁7]	-11.374
▁sono	-11.3743
▁regeneration	-11.3753
▁delta	-11.3756
▁millions	-11.3757
▁harm	-11.3757
hbv	-11.3759
▁prescription	-11.3762
▁promise	-11.3764
▁learned	-11.3766
▁sacrificed	-11.3767
given	-11.3768
#	-11.3768
▁metastasis	-11.377
▁mb	-11.3771
39	-11.3771
▁provincial	-11.3771
▁atcc	-11.3773
▁intensities	-11.3775
▁pen	-11.3781
▁precisely	-11.3783
▁hepatocellular	-11.3785
▁[22,	-11.3785
▁partner	-11.3786
▁12]	-11.3787
▁searched	-11.3788
brain	-11.379
▁writing	-11.3795
▁evasion	-11.3795
▁10]	-11.3796
▁asp	-11.3797
▁improves	-11.3797
▁decided	-11.3798
▁atom	-11.38
▁ð	-11.3806
▁ectodomain	-11.3806
▁replicating	-11.3806
▁1960	-11.3807
▁pf	-11.3812
▁tandem	-11.3813
▁ib	-11.3814
▁1982	-11.3815
lee	-11.3815
3),	-11.3819
▁exploited	-11.382
▁glycine	-11.3822
▁recognised	-11.3826
▁compromise	-11.3828
▁peuvent	-11.3829
▁searches	-11.3829
▁thoroughly	-11.383
▁courses	-11.3832
▁sneezing	-11.3834
▁(18)	-11.3835
▁maladie	-11.3841
▁approximate	-11.3842
▁moment	-11.3844
▁outdoor	-11.3845
▁directions	-11.3847
▁break	-11.3849
▁inpatient	-11.3852
▁manifest	-11.3852
vsv	-11.3852
▁ku	-11.3852
▁identities	-11.3853
▁cocktail	-11.386
izing	-11.3863
▁endocytic	-11.3863
▁amantadine	-11.3864
▁anticancer	-11.3867
▁ciliary	-11.3868
fr	-11.387
▁follicles	-11.3872
▁retain	-11.3872
▁raises	-11.3874
▁1979)	-11.3878
▁nutrient	-11.388
▁años	-11.3881
su	-11.3882
▁rough	-11.3882
▁virological	-11.3882
▁warm	-11.3885
▁precipitated	-11.3889
▁[80]	-11.3893
▁fairly	-11.3893
▁ihr	-11.3898
dmem	-11.39
▁nucleoprotein	-11.39
▁problematic	-11.3904
▁um	-11.3905
▁cortical	-11.3913
▁crypt	-11.3913
▁stains	-11.3914
▁neutralized	-11.3917
ado	-11.3917
whitney	-11.3918
▁adjustment	-11.392
▁pseudotyped	-11.3922
▁ampicillin	-11.3923
▁ischemic	-11.3923
▁0.001	-11.3925
▁polymers	-11.3926
▁chicks	-11.3927
▁ecology	-11.3928
▁25]	-11.3929
▁leur	-11.3931
especially	-11.3933
▁defi	-11.3939
▁neutropenia	-11.3942
▁syndromic	-11.3943
▁très	-11.3947
▁9:	-11.3949
serum	-11.3954
▁switching	-11.3957
▁earliest	-11.3957
▁quick	-11.3957
▁mayor	-11.3958
▁5]	-11.3963
▁24]	-11.3965
▁agonists	-11.3969
▁albicans	-11.3972
▁polar	-11.3974
-(	-11.3977
▁focuses	-11.3984
▁extending	-11.3986
▁[81]	-11.3987
▁lymphopenia	-11.3987
▁malaysia	-11.3989
▁bromide	-11.3992
▁dub	-11.3996
▁shortly	-11.3998
acetyl	-11.4002
▁canadian	-11.4004
▁unchanged	-11.4007
▁fragmentation	-11.4009
69	-11.4019
▁niños	-11.4022
culture	-11.4022
▁suppressor	-11.4023
▁thirty	-11.4023
axis	-11.4026
▁possibilities	-11.4027
▁conjugates	-11.4027
▁(20)	-11.4028
▁_	-11.4028
▁rabv	-11.4028
▁signatures	-11.4031
ncbi	-11.4039
▁0.05,	-11.4039
tri	-11.4043
▁interview	-11.405
▁hantavirus	-11.405
▁35%	-11.4055
▁(19)	-11.4055
▁mx	-11.4062
bar	-11.4065
▁dimension	-11.4066
▁boundary	-11.4068
75	-11.4071
▁descriptive	-11.4071
▁mounted	-11.4073
▁sia	-11.4074
▁tracts	-11.4076
▁26]	-11.408
▁capacities	-11.4087
▁noteworthy	-11.4092
▁thrombosis	-11.4092
▁interested	-11.4094
▁wear	-11.4095
▁enlargement	-11.4097
▁agree	-11.4101
▁instability	-11.4103
▁hypotheses	-11.4107
liu	-11.4108
▁eosinophil	-11.411
▁endosome	-11.411
▁biotech	-11.4114
rbd	-11.4115
▁reversed	-11.4117
▁questionnaires	-11.4118
▁1987	-11.412
▁origins	-11.4122
▁request	-11.4122
▁connections	-11.4126
▁inflammasome	-11.413
▁hubei	-11.4133
▁com	-11.4135
▁bag	-11.4135
▁leadership	-11.4137
▁foster	-11.4138
▁luminal	-11.4138
▁administer	-11.4139
▁silico	-11.4141
▁4]	-11.4141
▁accessibility	-11.4143
▁epi	-11.4147
▁discarded	-11.4148
▁attitudes	-11.415
▁motion	-11.4152
▁fly	-11.4153
▁fifth	-11.4159
▁respirators	-11.4166
▁0.01)	-11.4167
berg	-11.4168
hydroxy	-11.4172
▁fluor	-11.4173
▁metagenomic	-11.4174
▁relate	-11.4179
▁fait	-11.418
▁insects	-11.4181
▁etiological	-11.4182
▁23]	-11.4184
body	-11.4186
▁28]	-11.4186
▁detergent	-11.4186
▁dell	-11.4188
vaccinated	-11.419
▁axons	-11.4192
▁también	-11.4194
▁myd	-11.4203
▁reproducibility	-11.4203
▁nausea	-11.4203
▁ctd	-11.4206
▁electrical	-11.4208
▁ducts	-11.4208
▁trizol	-11.4208
°	-11.4209
▁"1.	-11.421
▁[24,	-11.4211
▁irregular	-11.4212
▁aforementioned	-11.4218
▁encourage	-11.422
▁bsl	-11.4223
▁unnecessary	-11.4224
▁hydrophilic	-11.4224
▁vol	-11.4225
▁worms	-11.4226
▁cav	-11.4228
▁solved	-11.4229
▁ataxia	-11.4229
▁topics	-11.423
▁phages	-11.4231
▁denotes	-11.4231
▁autoimmunity	-11.4234
▁refractory	-11.4234
▁throughput	-11.4238
▁mitigation	-11.4244
▁limb	-11.4251
▁monomeric	-11.4252
▁periphery	-11.4254
▁myocarditis	-11.4254
▁proton	-11.4259
▁mosaic	-11.4259
▁seronegative	-11.4266
▁biosensor	-11.4268
ub	-11.4276
▁diseased	-11.4278
▁import	-11.428
▁responsiveness	-11.4281
limited	-11.4282
▁participated	-11.4283
▁syncytia	-11.4285
▁planned	-11.4286
▁counting	-11.4287
▁declared	-11.4291
▁mutational	-11.4297
▁span	-11.4299
section	-11.4308
▁2012,	-11.4316
▁lt	-11.4317
▁strengthen	-11.4319
▁employ	-11.4319
▁forced	-11.432
▁shelter	-11.4321
land	-11.4322
▁ventilator	-11.4327
▁fibroblast	-11.4329
▁thyroid	-11.4329
strain	-11.4331
▁inducible	-11.4333
br	-11.4336
bacterial	-11.4336
▁sole	-11.4337
▁race	-11.4339
early	-11.4341
uv	-11.4341
▁aiv	-11.4347
▁csa	-11.4347
▁immunoassay	-11.4356
▁parp	-11.4359
▁socio	-11.4361
six	-11.4364
▁surrounde	-11.4365
▁sari	-11.4365
▁2013,	-11.4368
▁spent	-11.437
▁emphasized	-11.4373
inducible	-11.4379
▁ranked	-11.4381
▁recombinants	-11.4381
▁af	-11.4382
each	-11.4383
▁epstein	-11.4384
▁[25,	-11.4384
▁pups	-11.4384
▁recall	-11.4384
ry	-11.4387
▁constitutes	-11.4388
▁biliary	-11.4388
▁85%	-11.4391
▁intravascular	-11.4393
▁cerebrospinal	-11.4394
96	-11.4397
▁managers	-11.4399
▁intention	-11.44
▁figs	-11.4405
▁distinctive	-11.4413
nk	-11.4415
▁prcv	-11.4418
▁delays	-11.4418
▁nucleolar	-11.442
nf	-11.442
▁dangerous	-11.4423
▁aspirate	-11.4427
▁convenient	-11.4428
▁spillover	-11.4429
▁[82]	-11.443
▁bronchiectasis	-11.443
▁resuscitation	-11.443
tof	-11.4437
▁pointed	-11.4438
-11	-11.444
▁egfr	-11.444
▁synthesize	-11.4441
cho	-11.4442
▁indonesia	-11.4445
▁fecv	-11.4446
▁haplotypes	-11.4446
▁sarcoma	-11.4447
▁endpoint	-11.4447
9-	-11.4448
▁picornavirus	-11.4449
▁atpase	-11.445
▁[83]	-11.445
▁reaches	-11.4452
▁stabilized	-11.4453
▁tax	-11.4457
▁tgn	-11.4464
▁1977	-11.4465
▁discrimination	-11.4466
▁stranded	-11.4474
▁ancestor	-11.4476
▁polyacrylamide	-11.4476
▁card	-11.4477
▁palm	-11.448
▁producers	-11.4481
▁creation	-11.4482
8-	-11.4483
▁***	-11.4485
▁3]	-11.4488
▁(\"	-11.449
▁2020	-11.449
▁diarrheal	-11.4492
▁infarction	-11.4492
▁cypa	-11.4496
-␣	-11.4496
▁aberrant	-11.4496
▁differently	-11.4498
▁postoperative	-11.4498
resolution	-11.4502
▁constituents	-11.4502
▁poses	-11.4503
▁extends	-11.4505
3/	-11.4507
ated	-11.4511
▁mellitus	-11.4518
▁stimulus	-11.4519
▁trace	-11.452
del	-11.4522
▁99%	-11.4524
▁wounds	-11.4526
▁felt	-11.4533
▁btv	-11.4534
▁vision	-11.4536
▁repeatedly	-11.4536
▁(0	-11.4537
▁batch	-11.4539
apoptotic	-11.454
▁sensitization	-11.454
leu	-11.4543
▁27]	-11.4543
86	-11.4551
▁owner	-11.4555
▁rice	-11.4558
43,	-11.456
▁displaying	-11.4564
▁hepg	-11.4564
▁intraperitoneal	-11.4565
▁horseradish	-11.4567
▁ordered	-11.4567
▁esophagus	-11.4571
▁nitrocellulose	-11.4571
▁peaked	-11.4573
85	-11.4573
▁lrti	-11.4573
▁spanning	-11.4575
▁bicarbonate	-11.4577
▁islands	-11.4577
▁sequelae	-11.4579
▁yielding	-11.4579
▁relapse	-11.458
▁vor	-11.4581
▁biotin	-11.4581
▁paid	-11.4582
▁tap	-11.4585
▁speculated	-11.4585
▁1.3	-11.4585
▁-/	-11.4586
▁differing	-11.4586
▁going	-11.4587
▁toronto	-11.4587
▁histone	-11.4588
▁peptidase	-11.4588
▁villous	-11.4588
▁nutrients	-11.459
▁streptavidin	-11.4593
mhc	-11.4596
▁dealing	-11.4596
due	-11.4596
▁moieties	-11.4598
cs	-11.4599
▁crises	-11.4601
▁flows	-11.4603
▁1977)	-11.461
sis	-11.461
▁mac	-11.4611
▁ep	-11.4612
▁tr	-11.4614
▁tetracycline	-11.4619
▁sperm	-11.4622
▁telephone	-11.4624
▁deleterious	-11.4624
▁altering	-11.4628
▁appetite	-11.4635
▁captive	-11.4636
▁1.6	-11.4639
▁eating	-11.4639
▁unstable	-11.4641
▁usefulness	-11.4642
▁sendai	-11.4646
▁sous	-11.4646
▁0.7	-11.4651
▁german	-11.4654
▁duck	-11.4658
clone	-11.4658
▁6%	-11.466
▁0.9	-11.466
▁schematic	-11.4661
▁mumps	-11.4662
▁kshv	-11.4663
▁transduced	-11.467
▁looking	-11.4676
▁antiretroviral	-11.4678
▁freeze	-11.468
▁physiologic	-11.4682
▁septicemia	-11.4683
▁metastatic	-11.4683
▁1978)	-11.4686
▁highlighting	-11.4687
▁[84]	-11.4688
▁unvaccinated	-11.4691
res	-11.4695
▁weighted	-11.4695
▁impair	-11.4695
▁smear	-11.4698
chi	-11.4702
▁lf	-11.4702
▁immunoblotting	-11.4704
▁adenosine	-11.4706
▁subtle	-11.4707
▁penetrate	-11.4708
▁rm	-11.4708
▁enrollment	-11.4709
10.1371/	-11.4716
▁portions	-11.472
▁homogenized	-11.472
▁suffered	-11.4722
▁lu	-11.4737
▁heated	-11.474
emerging	-11.4743
▁aedes	-11.4748
▁paramyxoviruses	-11.4749
pl	-11.4751
▁phenomena	-11.4752
▁adp	-11.4754
▁paciente	-11.4758
▁dimerization	-11.4758
▁pharyngeal	-11.4759
▁referral	-11.4763
▁character	-11.4764
▁progressively	-11.4768
▁antagonists	-11.4768
▁schedule	-11.4772
▁104	-11.4773
▁ruled	-11.4774
@	-11.4776
▁rvfv	-11.4781
▁2.2	-11.4782
order	-11.4785
▁biologic	-11.479
enfant	-11.4792
▁historically	-11.4794
▁conference	-11.4796
▁mitigate	-11.4799
fbs	-11.48
▁taxonomy	-11.4801
▁tf	-11.4802
mv	-11.4804
sa	-11.4807
▁binary	-11.4812
▁discussions	-11.4812
hcov	-11.482
▁accommodate	-11.4821
▁cyclin	-11.4823
▁(21)	-11.4824
-23	-11.4825
▁germ	-11.4826
ée	-11.4828
▁encephalopathy	-11.4833
▁generic	-11.4836
▁gradual	-11.4837
▁santa	-11.4838
▁spray	-11.4839
▁pct	-11.4844
▁scattered	-11.4845
▁inactivate	-11.4846
overall	-11.4846
▁trp	-11.4847
▁inherited	-11.485
ros	-11.485
▁exactly	-11.4855
▁composite	-11.4856
▁projections	-11.4859
$	-11.4859
▁solubility	-11.4861
▁flat	-11.4864
mp	-11.4865
▁(+)	-11.4865
▁relating	-11.4866
▁relations	-11.4867
▁wildtype	-11.4868
▁29]	-11.4868
▁debe	-11.4869
▁gtp	-11.4869
▁bridge	-11.487
▁dams	-11.487
▁grave	-11.4871
▁cytochrome	-11.4872
▁bloodstream	-11.4872
▁noticed	-11.4874
▁starts	-11.4875
▁closest	-11.4876
▁analogue	-11.4877
▁distilled	-11.4883
▁lobes	-11.4883
▁deficiencies	-11.4888
▁nucleolus	-11.4888
▁marv	-11.4889
▁lin	-11.489
▁7-	-11.4892
▁ventilated	-11.4894
▁vertebrates	-11.4896
▁dimers	-11.4897
▁lymphadenopathy	-11.4898
▁methodologies	-11.4904
▁(>	-11.4908
▁»	-11.4908
▁vulnerability	-11.4909
hp	-11.491
▁grft	-11.491
▁efficiencies	-11.4915
▁stabilize	-11.4915
▁suspect	-11.4919
▁propensity	-11.492
▁innovative	-11.4921
▁stools	-11.4928
▁zanamivir	-11.4932
▁turned	-11.4932
▁1982;	-11.4933
ous	-11.4933
▁hormones	-11.4934
▁108	-11.4936
▁ri	-11.4937
met	-11.4939
▁cotton	-11.4943
▁bw	-11.4946
▁gs	-11.4946
▁kenya	-11.4947
▁mlv	-11.4948
▁invitrogen	-11.4948
ata	-11.4948
ho	-11.4959
▁colds	-11.4959
post	-11.4961
▁30]	-11.4962
surface	-11.4963
-16	-11.4967
▁specificities	-11.4968
▁drift	-11.4968
▁cycling	-11.4968
can	-11.4968
▁implying	-11.4972
▁photo	-11.4974
▁129	-11.4975
▁[27,	-11.4976
▁constitutive	-11.4979
▁kann	-11.4986
▁tubules	-11.4991
▁multidrug	-11.4992
ari	-11.4992
▁polysaccharide	-11.4993
▁booster	-11.4996
▁concentrate	-11.4997
▁arms	-11.4999
▁hope	-11.5006
▁fev	-11.5007
▁alphavirus	-11.5009
▁statement	-11.5009
▁suppresses	-11.5018
▁lassa	-11.5019
▁deemed	-11.5019
▁restored	-11.502
▁interpret	-11.5023
▁neighbor	-11.5023
61	-11.5025
▁immunosuppressed	-11.5025
▁civil	-11.5026
▁constitutively	-11.5026
▁postmortem	-11.5026
▁colic	-11.5026
▁oligomerization	-11.5031
▁attributes	-11.5031
▁analyse	-11.5035
▁weaned	-11.5039
▁chronically	-11.5041
▁alternate	-11.5041
▁2.4	-11.5046
▁egypt	-11.5047
▁mal	-11.5048
▁[85]	-11.5052
cns	-11.5056
▁histopathologic	-11.5057
▁views	-11.5058
▁disability	-11.5058
▁manifested	-11.506
▁traumatic	-11.5061
asp	-11.5061
▁mandatory	-11.5063
▁probed	-11.5065
▁airline	-11.5065
▁generations	-11.5067
▁rinsed	-11.507
▁nlrp	-11.5071
▁(0.1	-11.508
men	-11.5081
thus	-11.5082
▁csfv	-11.5086
▁synthase	-11.5087
side	-11.5092
▁auc	-11.5096
▁monomers	-11.5099
▁rising	-11.5099
▁pivotal	-11.5102
▁aggregate	-11.5103
▁declare	-11.5103
itis	-11.5103
▁deduced	-11.5104
▁visualize	-11.5108
akt	-11.5111
cu	-11.5113
▁socioeconomic	-11.5114
▁video	-11.5116
▁á	-11.5117
▁2010,	-11.5118
▁superfamily	-11.5119
▁attending	-11.512
▁citrate	-11.512
▁distinction	-11.5122
▁sensory	-11.5123
dcs	-11.5124
▁dishes	-11.5126
▁confirms	-11.5126
▁8.0	-11.5126
▁contaminant	-11.5126
▁encouraged	-11.5126
▁vpu	-11.5128
▁granulomas	-11.513
▁exosomes	-11.513
▁mcp	-11.513
▁bioactive	-11.5132
mrsa	-11.5133
▁tx	-11.5134
▁taq	-11.5135
▁med	-11.5135
▁orange	-11.5136
scheme	-11.5139
▁retrospectively	-11.514
▁estos	-11.5142
▁fund	-11.5145
▁ancestral	-11.5147
▁confounding	-11.5147
▁conferred	-11.5153
▁object	-11.5153
▁moins	-11.5155
▁raising	-11.5159
▁extinction	-11.516
▁macaque	-11.516
▁linking	-11.516
▁phagocytic	-11.5165
▁val	-11.5166
▁institutes	-11.5167
ki	-11.5168
▁devastating	-11.5169
▁commensal	-11.5171
▁bc	-11.5172
▁pollutants	-11.5175
▁ihc	-11.5176
▁responsive	-11.5181
pv	-11.5184
▁tmev	-11.5186
▁vr	-11.5188
▁antigenicity	-11.5194
▁gii	-11.5195
▁preserved	-11.5197
▁evade	-11.52
▁indistinguishable	-11.5203
▁pathophysiology	-11.5203
▁ie	-11.5207
▁irrespective	-11.5208
▁demands	-11.5208
▁relief	-11.5209
▁115	-11.5209
▁rad	-11.521
▁ntd	-11.521
▁antitumor	-11.5212
▁filovirus	-11.5219
▁exceed	-11.5223
▁gdp	-11.5223
▁pretreated	-11.5224
▁interplay	-11.5226
▁poverty	-11.5226
▁slippery	-11.5226
▁arrangement	-11.5228
▁abi	-11.5228
▁(12	-11.523
▁cyst	-11.5231
▁matrices	-11.5232
ist	-11.5233
▁technological	-11.5236
▁pu	-11.5242
▁rrt	-11.5246
▁dioxide	-11.5249
▁mycobacteria	-11.5249
▁31]	-11.5252
▁replacing	-11.5254
▁lentiviral	-11.5254
▁adenoviral	-11.5254
workers	-11.5256
▁roc	-11.5259
▁(22)	-11.5259
▁harboring	-11.5262
▁integrin	-11.5264
▁tbk	-11.5265
▁dot	-11.5266
▁antigenically	-11.5267
▁(2006)	-11.5269
▁enormous	-11.5269
▁mtb	-11.527
▁tried	-11.5274
san	-11.5278
▁issued	-11.5279
▁bacteriophage	-11.5279
66	-11.5282
▁subfamily	-11.5283
▁job	-11.5285
▁mimics	-11.5286
▁(2003)	-11.529
▁hemolytic	-11.5296
ger	-11.5297
▁molar	-11.5301
▁7%	-11.5302
▁smears	-11.5305
▁tra	-11.5305
51	-11.5308
▁undergoes	-11.531
▁carries	-11.531
▁british	-11.5311
▁pale	-11.5313
▁inconsistent	-11.5315
dm	-11.5315
▁sw	-11.5316
▁encounter	-11.5316
▁optimum	-11.5316
▁resilience	-11.5316
▁corporation	-11.5324
vaccination	-11.5324
▁discriminate	-11.5329
▁tion	-11.5329
enveloped	-11.5332
▁embryonated	-11.5333
▁argued	-11.5334
▁flies	-11.5335
val	-11.5342
days	-11.5344
▁[86]	-11.5345
▁spherical	-11.5351
▁107	-11.5351
white	-11.5351
▁sfv	-11.5351
▁marburg	-11.5356
▁[87]	-11.5356
▁klebsiella	-11.5356
▁ro	-11.5356
▁handle	-11.5359
▁2.1	-11.5363
▁ba	-11.5364
▁{	-11.5366
42	-11.5367
▁priorities	-11.5368
▁lasting	-11.5369
▁0.05%	-11.5369
▁[26,	-11.537
▁pipeline	-11.537
▁poisoning	-11.537
▁thr	-11.537
▁tasks	-11.5372
▁monocytogenes	-11.5373
▁ciliated	-11.5375
97]	-11.5376
▁word	-11.5377
translational	-11.538
▁operate	-11.5381
▁funds	-11.5383
▁decontamination	-11.5385
▁abolished	-11.5385
▁visceral	-11.5389
▁pero	-11.539
▁deficits	-11.5391
▁alt	-11.5396
▁cassette	-11.5399
ase	-11.5399
▁isoform	-11.54
▁cq	-11.54
▁trs	-11.5401
▁effusions	-11.5401
▁deterioration	-11.5402
▁glutathione	-11.5402
score	-11.5402
▁ligated	-11.5403
db	-11.5403
▁discrepancy	-11.5407
▁rescued	-11.5408
▁permeabilized	-11.5409
active	-11.5409
▁macrolide	-11.5416
▁apcs	-11.5418
cp	-11.5419
04	-11.5419
▁reproducible	-11.5419
des	-11.5423
▁transform	-11.5424
▁insertions	-11.5428
▁spreads	-11.5431
▁pacific	-11.5431
▁suis	-11.5431
sv	-11.5431
▁resembles	-11.5432
▁ij	-11.5434
▁rod	-11.5436
▁homo	-11.5436
▁surge	-11.5439
icu	-11.544
ty	-11.5442
▁laws	-11.5444
▁screens	-11.5448
▁integrate	-11.5449
▁sar	-11.545
▁paediatric	-11.5451
▁graphpad	-11.5453
▁ia	-11.5453
▁eosinophilia	-11.5454
-10,	-11.5455
▁ingested	-11.546
ards	-11.5462
▁betacoronavirus	-11.5464
▁sounds	-11.5469
▁hep	-11.547
▁sewage	-11.5471
▁cargo	-11.5473
▁rationale	-11.5474
▁wavelength	-11.5475
bo	-11.5481
▁neglected	-11.5483
▁arranged	-11.5483
▁ta	-11.5487
▁subjective	-11.5488
▁gal	-11.549
▁innovation	-11.5491
▁quercetin	-11.5494
▁[88]	-11.55
▁placental	-11.55
▁don	-11.5501
-4-	-11.5502
▁trait	-11.5504
▁sun	-11.5504
▁plasmodium	-11.5506
▁boundaries	-11.5511
▁1975	-11.5512
▁additive	-11.5514
▁ascites	-11.552
▁evaluations	-11.5521
▁breakdown	-11.5523
▁cleaves	-11.5523
▁quantitation	-11.5523
▁transit	-11.5525
▁denote	-11.5527
▁conservative	-11.5528
▁uterine	-11.5529
▁oropharyngeal	-11.5529
▁secondly	-11.5532
▁semen	-11.5533
▁voluntary	-11.5535
▁suppressing	-11.5535
▁bundle	-11.5537
inoculation	-11.554
▁compression	-11.5544
▁avoidance	-11.5547
▁infiltrating	-11.5548
▁remission	-11.5551
▁sound	-11.5561
▁attitude	-11.5561
stained	-11.5562
▁multocida	-11.5564
▁aav	-11.5564
▁forma	-11.5566
001	-11.5567
following	-11.5567
▁paradigm	-11.5567
▁modules	-11.5567
▁particulate	-11.5567
▁whenever	-11.5567
tt	-11.5568
▁pearson	-11.5572
▁ulcer	-11.5572
▁32]	-11.5572
mar	-11.5572
▁canal	-11.5576
▁stratified	-11.5577
63,	-11.5578
mem	-11.558
▁negligible	-11.5582
▁tags	-11.5586
▁3-4	-11.5589
detection	-11.559
national	-11.5593
▁autoantibodies	-11.5593
sized	-11.5594
▁say	-11.5597
▁fe	-11.5598
▁malignancy	-11.5599
ebov	-11.56
▁permits	-11.5601
▁gps	-11.5603
▁rose	-11.5604
about	-11.5604
▁art	-11.5604
▁vimentin	-11.5605
▁habitat	-11.5613
▁lipopolysaccharide	-11.5614
▁peroxide	-11.5615
▁radio	-11.5615
▁mediator	-11.5617
▁draw	-11.5621
▁grey	-11.5623
▁9)	-11.5625
▁rafts	-11.5631
▁τ	-11.5631
▁bites	-11.5632
▁sans	-11.5633
▁calculating	-11.5634
▁pay	-11.5639
▁2-4	-11.5642
▁publicly	-11.5643
▁ready	-11.5648
▁hai	-11.5656
▁duodenum	-11.5658
▁carcinomas	-11.5659
▁mmhg	-11.5659
tc	-11.5662
▁globe	-11.5662
▁(2007)	-11.5668
▁degenerative	-11.567
▁positives	-11.567
▁allocation	-11.5672
▁conditional	-11.5673
▁3000	-11.5674
▁días	-11.5674
▁aerosolized	-11.5676
▁beings	-11.5678
▁derive	-11.5678
https	-11.5678
▁averaged	-11.5679
▁te	-11.5679
sample	-11.568
▁3:	-11.5686
▁reciprocal	-11.5686
▁vap	-11.5686
pan	-11.5686
▁assemble	-11.5687
▁vrna	-11.5687
▁gen	-11.569
▁(23)	-11.5694
ating	-11.5695
fast	-11.5696
▁cages	-11.5697
▁5:	-11.5698
▁responders	-11.57
▁dsdna	-11.57
▁learn	-11.5702
▁meaningful	-11.5706
▁progenitor	-11.5709
flow	-11.5709
▁leishmania	-11.5711
clpro	-11.5716
▁argue	-11.572
cold	-11.5721
trna	-11.5722
▁salmonellosis	-11.5723
▁ovarian	-11.5723
▁fell	-11.5726
▁1.8	-11.5727
▁successive	-11.5727
▁designs	-11.5729
▁coordinate	-11.5736
iqr	-11.5737
▁sac	-11.5738
ј	-11.574
és	-11.574
▁sophisticated	-11.574
▁eukaryotes	-11.5745
▁lupus	-11.5746
▁wa	-11.5749
▁2020,	-11.575
▁hae	-11.575
invasive	-11.5754
reported	-11.5755
▁editing	-11.5759
▁persists	-11.5762
▁lie	-11.5764
▁foal	-11.5766
▁diagram	-11.5768
▁preterm	-11.5768
▁simulate	-11.5769
▁victims	-11.5772
▁ldv	-11.5773
▁reality	-11.5773
▁prompted	-11.5777
▁bac	-11.5778
▁plane	-11.5787
nh	-11.5789
▁covalent	-11.579
47	-11.579
▁press	-11.5791
▁stromal	-11.5792
▁103	-11.5792
▁campaign	-11.5792
ian	-11.5793
▁disposal	-11.58
▁cortisol	-11.58
▁colored	-11.5801
gly	-11.5806
▁lactation	-11.5806
/10	-11.5809
hc	-11.5809
nps	-11.5809
▁incubator	-11.581
▁myalgia	-11.581
▁naked	-11.5812
▁landscape	-11.5816
▁totally	-11.5817
▁isothermal	-11.5819
eight	-11.5819
▁mtt	-11.5826
▁methionine	-11.5829
▁[90]	-11.5836
▁papain	-11.5836
▁door	-11.5841
▁eliminating	-11.5842
▁automatically	-11.5842
▁valve	-11.5847
▁pelleted	-11.585
sc	-11.5852
-4,	-11.5852
▁ontario	-11.5854
▁belgium	-11.5854
▁incubating	-11.5854
▁(2009)	-11.5854
▁xbp	-11.5858
▁flux	-11.5858
diagnosis	-11.5859
▁defenses	-11.5859
smith	-11.5861
▁connective	-11.5866
▁280	-11.5871
▁[89]	-11.5871
▁purulent	-11.5873
▁2).	-11.5873
▁hs	-11.5877
▁spin	-11.5877
▁mnv	-11.588
depth	-11.5881
vector	-11.5888
▁serving	-11.589
▁facing	-11.589
▁subcutaneously	-11.5892
▁kcal	-11.5896
▁1985	-11.59
▁metagenomics	-11.5901
▁revealing	-11.5905
even	-11.5905
▁protozoa	-11.5908
previous	-11.591
ique	-11.591
▁dem	-11.5911
▁sr	-11.5912
600	-11.5919
▁dmvs	-11.592
▁iris	-11.5924
▁carbohydrates	-11.5927
▁corresponded	-11.5929
▁theoretically	-11.5929
▁dapi	-11.593
▁radiological	-11.5931
▁ht	-11.5933
▁remainder	-11.5933
▁folded	-11.5933
▁(24)	-11.5937
▁quasispecies	-11.5938
▁realistic	-11.5938
presenting	-11.594
▁-5	-11.594
▁ki	-11.5941
])	-11.5943
▁malaise	-11.5944
▁hematoxylin	-11.5944
06	-11.5944
▁titrated	-11.5944
▁pump	-11.5947
▁neuron	-11.5947
▁128	-11.5947
▁row	-11.5948
▁patent	-11.5949
▁originate	-11.5949
mrna	-11.595
▁vn	-11.595
â	-11.595
▁prm	-11.5956
▁catheters	-11.5957
▁dominated	-11.5959
▁refinement	-11.5961
▁bacilli	-11.5963
▁madison	-11.5963
▁fas	-11.5963
▁fur	-11.5965
▁basolateral	-11.5967
▁worsening	-11.5969
die	-11.597
▁autophagic	-11.5974
▁pets	-11.5976
atpase	-11.5977
▁hierarchical	-11.5979
▁airlines	-11.5979
02	-11.5979
▁univariate	-11.5981
max	-11.5985
rat	-11.5985
affinity	-11.5988
▁doctor	-11.599
conclusions	-11.599
▁magnification	-11.5992
▁hcw	-11.5992
▁pubmed	-11.5993
irf	-11.5994
▁coordinates	-11.5995
▁33]	-11.6003
within	-11.6005
▁anchor	-11.6007
▁36]	-11.601
▁visiting	-11.6011
ine	-11.6014
▁5.5	-11.6014
▁6.0	-11.6015
▁explicitly	-11.6018
▁(40	-11.6019
▁doing	-11.6021
▁combine	-11.6022
1.1	-11.6022
▁helicases	-11.6024
▁radical	-11.6028
▁contraction	-11.6029
par	-11.6031
black	-11.6032
▁hydroxyl	-11.6035
▁resembling	-11.6035
▁temperate	-11.6041
▁arteries	-11.6041
▁fox	-11.6042
▁hn	-11.6043
▁collective	-11.6046
67	-11.6047
▁familiar	-11.6048
▁packed	-11.6049
▁lp	-11.6049
▁hl	-11.6052
lab	-11.6053
▁denmark	-11.6054
▁coworkers	-11.6057
▁anomalies	-11.6058
▁aetiology	-11.6062
▁aviation	-11.6066
▁tp	-11.6066
03	-11.6071
▁sch	-11.6071
▁(<	-11.6072
▁documentation	-11.6072
▁dividing	-11.6073
▁covers	-11.6075
▁erythromycin	-11.6078
▁spectral	-11.608
▁reflux	-11.6082
▁immunoprecipitated	-11.6086
▁2016,	-11.6086
challenge	-11.6087
▁ciprofloxacin	-11.6088
▁emphasize	-11.6089
mouth	-11.6092
▁[28,	-11.6096
▁chaperone	-11.6099
▁alternatives	-11.61
▁finger	-11.61
▁sk	-11.6101
▁paramyxovirus	-11.6101
▁journals	-11.6104
▁station	-11.6105
aged	-11.6108
▁legislation	-11.6109
▁atf	-11.6109
conclusion	-11.6112
tes	-11.6113
-30	-11.6116
▁microorganism	-11.6117
▁adam	-11.6118
▁0.05.	-11.612
small	-11.6121
▁elispot	-11.6122
▁biased	-11.6123
▁109	-11.6124
next	-11.6125
▁lessons	-11.6126
▁stringent	-11.6126
▁syphilis	-11.6127
▁metrics	-11.613
▁searching	-11.6131
▁fibrous	-11.6134
▁rotation	-11.6136
takara	-11.6137
mb	-11.6139
▁sas	-11.6141
▁injured	-11.6141
▁leaf	-11.6142
▁trimeric	-11.6143
▁indian	-11.6144
▁mf	-11.6145
▁dropped	-11.6146
▁nos	-11.6146
▁acutely	-11.6147
▁nasopharynx	-11.6152
led	-11.6153
▁phospho	-11.6153
▁necessity	-11.6158
▁113	-11.6161
▁positioned	-11.6161
▁histamine	-11.6165
ε	-11.6168
▁σ	-11.6173
▁nac	-11.6177
ai	-11.6177
▁ikk	-11.6177
▁virtual	-11.6182
fed	-11.6184
▁0%	-11.6185
▁progresses	-11.6186
▁folds	-11.6189
▁ͻ	-11.619
sch	-11.6192
▁aus	-11.6194
fa	-11.6195
▁informative	-11.6196
▁homes	-11.62
▁rpa	-11.62
▁histidine	-11.6203
▁latest	-11.6203
▁112	-11.6203
▁covalently	-11.6204
▁denoted	-11.6204
▁é	-11.6206
▁vehicles	-11.6207
▁[92]	-11.6208
▁veterinarian	-11.6214
▁exploration	-11.6214
▁calving	-11.6215
▁bbb	-11.6217
▁].	-11.6218
▁confi	-11.622
▁icp	-11.6222
▁llc	-11.6223
▁night	-11.6224
▁predispose	-11.6226
▁entity	-11.6226
▁assignment	-11.6227
▁villus	-11.6227
▁resting	-11.6228
▁leaders	-11.6231
▁pdz	-11.6231
▁[91]	-11.6233
▁multiplication	-11.6239
▁disposable	-11.6239
▁ssdna	-11.6241
▁bead	-11.6242
my	-11.6242
ación	-11.6244
▁acceptance	-11.6245
tables	-11.6249
▁arises	-11.625
▁allogeneic	-11.6258
▁inverse	-11.626
▁fetuses	-11.6261
▁grew	-11.6262
▁coverslips	-11.6266
▁calicivirus	-11.6268
▁modulated	-11.6271
▁oxygenation	-11.6272
▁newborns	-11.6274
▁electrode	-11.6275
▁stretch	-11.6278
▁fuel	-11.6281
▁sham	-11.6281
▁granular	-11.6283
▁72°	-11.6284
4/	-11.6287
▁mw	-11.6288
▁102	-11.6289
▁homogenates	-11.6289
▁scans	-11.6293
▁weaker	-11.6295
▁belonged	-11.6298
▁101	-11.6301
▁predisposing	-11.6301
▁importante	-11.6302
▁reliably	-11.6308
▁mink	-11.6308
▁je	-11.6308
▁rheumatoid	-11.6308
▁expiratory	-11.6309
protection	-11.631
▁sm	-11.6312
▁doxycycline	-11.6314
immunized	-11.6315
jhm	-11.6316
das	-11.632
blast	-11.632
▁newer	-11.6322
▁engaged	-11.6324
▁34]	-11.6325
▁hd	-11.6326
▁pdb	-11.6326
▁[93]	-11.6327
▁shigella	-11.6327
▁duty	-11.6328
▁35]	-11.6335
▁exons	-11.6335
▁vacuoles	-11.6337
▁maximize	-11.6339
▁dilated	-11.634
▁campaigns	-11.6341
map	-11.6342
int	-11.6344
▁jours	-11.6344
▁antiinflammatory	-11.6344
▁ingredients	-11.6344
ability	-11.6345
12,	-11.6349
▁electrochemical	-11.6351
▁herbs	-11.6351
▁acquiring	-11.6352
▁cecum	-11.6352
▁drivers	-11.6353
▁graphs	-11.6353
▁lipofectamine	-11.6358
▁arthropod	-11.6359
ised	-11.6361
▁forty	-11.6362
▁vacv	-11.6362
▁(25)	-11.6363
▁experiencing	-11.6364
▁milder	-11.6366
▁fungus	-11.6371
▁registration	-11.6377
pc	-11.6378
▁communications	-11.6384
gamma	-11.6384
▁abnormality	-11.6384
▁unilateral	-11.6388
▁(2010)	-11.6389
▁wbc	-11.6389
▁microenvironment	-11.6389
▁quarantined	-11.6391
▁emergent	-11.6391
▁reinfection	-11.6391
▁bedding	-11.6394
▁cilia	-11.6396
▁london	-11.6397
▁adenocarcinoma	-11.6397
▁aussi	-11.6398
▁borders	-11.6399
tic	-11.6401
▁empiric	-11.6401
▁aegypti	-11.6402
▁thresholds	-11.6402
▁∼	-11.6407
sl	-11.6408
▁geometric	-11.6408
▁primed	-11.6409
▁sgs	-11.641
▁existed	-11.641
▁(26)	-11.6413
▁etec	-11.6416
▁shifted	-11.6416
sequence	-11.6417
dis	-11.6417
▁[29,	-11.6418
car	-11.6418
▁tio	-11.642
▁surrogate	-11.6422
▁astroviruses	-11.6425
▁explains	-11.6425
▁uterus	-11.6428
▁strongest	-11.6431
▁reassortment	-11.6435
▁knock	-11.6437
▁filtering	-11.6438
▁mu	-11.6441
▁síntomas	-11.6442
ny	-11.6442
147	-11.6444
▁cytoskeleton	-11.6447
▁microscopically	-11.6449
▁sorted	-11.6449
▁tan	-11.6451
bal	-11.6451
▁yu	-11.6451
las	-11.6453
▁surfactant	-11.6454
▁joints	-11.6456
tan	-11.6457
▁conflicts	-11.6457
72	-11.6458
▁bhv	-11.6459
▁euthanasia	-11.646
▁8-	-11.646
▁commitment	-11.646
ted	-11.6461
▁(1,	-11.6463
▁vegf	-11.6464
)]	-11.6466
▁invading	-11.6466
▁muscular	-11.6466
porcine	-11.647
▁invade	-11.647
▁drosophila	-11.6472
▁identifies	-11.6475
▁qiagen	-11.6476
▁incidents	-11.6477
▁poisson	-11.6479
▁flanking	-11.648
▁creates	-11.6481
▁stand	-11.6482
▁pneumonitis	-11.6485
▁entropy	-11.6485
▁undergone	-11.6486
▁employment	-11.6486
cal	-11.6489
▁papillomavirus	-11.649
▁categorical	-11.6491
ranging	-11.6494
▁strengthening	-11.6494
▁crypts	-11.6495
160	-11.6495
top	-11.6499
▁spleens	-11.6499
▁provider	-11.65
▁pdc	-11.65
▁vv	-11.6502
▁0.01).	-11.6503
▁accompanying	-11.6505
▁sam	-11.6507
▁merely	-11.6511
▁restore	-11.6511
▁analyzer	-11.6512
▁faced	-11.6513
art	-11.6513
denv	-11.6515
kim	-11.6518
▁unbound	-11.6521
▁costly	-11.6521
▁hallmark	-11.6526
▁grant	-11.6526
ins	-11.6527
layer	-11.6531
▁asymmetric	-11.6532
▁pseudovirus	-11.6536
-8,	-11.6537
▁tagged	-11.6542
▁polyproteins	-11.6544
▁reside	-11.6544
▁sev	-11.6546
▁influx	-11.6551
▁ε	-11.6552
▁funded	-11.6553
▁chief	-11.6555
through	-11.6558
▁fluorescein	-11.6558
fitc	-11.6559
standard	-11.656
▁phenol	-11.6562
▁bactericidal	-11.6562
▁subacute	-11.6564
recent	-11.6564
▁hybridoma	-11.6564
▁arabian	-11.6569
▁ecosystem	-11.657
▁estudio	-11.657
▁voltage	-11.657
▁veev	-11.6571
edu	-11.6573
▁ancient	-11.6574
rdrp	-11.6574
zhang	-11.6576
▁exceptions	-11.6578
▁170	-11.6579
▁ã	-11.6579
▁helicobacter	-11.6582
▁spiked	-11.6582
▁detects	-11.6586
▁malignancies	-11.6588
▁eosin	-11.6593
▁diagnosing	-11.6594
▁streptococci	-11.6594
right	-11.6599
▁importation	-11.6603
▁holds	-11.6603
▁gn	-11.6605
sub	-11.6607
▁hc	-11.6607
▁impacted	-11.6607
▁malabsorption	-11.6607
▁polarized	-11.6609
▁jan	-11.6609
▁altogether	-11.6609
▁excitation	-11.6615
▁pei	-11.6616
▁constantly	-11.6616
▁1.7	-11.6616
▁straightforward	-11.662
trans	-11.662
▁autologous	-11.662
▁danger	-11.6622
▁doit	-11.6624
▁consumed	-11.663
▁waves	-11.6632
▁stroma	-11.6632
▁colonized	-11.6632
▁book	-11.6636
va	-11.6638
▁agglutination	-11.664
▁perfect	-11.6643
▁exceeded	-11.6648
▁equi	-11.6651
disease	-11.6651
▁abstract	-11.6653
▁waiting	-11.6654
▁2019)	-11.6655
▁3.2	-11.6658
450	-11.6658
density	-11.6663
▁exclusive	-11.6665
▁opened	-11.6665
▁biosensors	-11.6668
ham	-11.6668
▁calibration	-11.6672
▁recycling	-11.6672
▁germline	-11.6673
▁spr	-11.6674
▁hybridized	-11.6675
▁drops	-11.6676
model	-11.6676
129	-11.6677
▁intron	-11.6678
▁́	-11.6685
▁respiration	-11.6687
▁limbs	-11.6687
matched	-11.6688
▁encouraging	-11.669
▁associates	-11.6695
▁subpopulations	-11.6697
▁ss	-11.6697
▁irreversible	-11.6698
▁azithromycin	-11.6699
▁aunque	-11.6699
▁uri	-11.6699
▁roots	-11.6702
competent	-11.6703
▁hypoxemia	-11.6705
osis	-11.6709
▁port	-11.6709
▁methicillin	-11.6711
fs	-11.6712
▁oligomers	-11.6714
▁persisted	-11.6716
▁responsibilities	-11.6718
▁rr	-11.6719
▁leucine	-11.672
▁enfants	-11.672
▁neutrophilic	-11.6722
▁ka	-11.6722
▁hk	-11.6723
▁uncoating	-11.6725
▁über	-11.673
gl	-11.673
▁balf	-11.6731
hrp	-11.6731
▁minority	-11.6732
▁otros	-11.6732
sided	-11.6734
▁inbred	-11.6735
▁rigorous	-11.6736
▁psychiatric	-11.6738
▁disinfectants	-11.674
▁connectivity	-11.6744
▁sand	-11.6748
▁gentamicin	-11.6751
▁epithelia	-11.6751
▁ds	-11.6752
▁ldh	-11.6753
▁posed	-11.6758
▁dehydrated	-11.6758
▁bronchi	-11.6759
▁infer	-11.6761
▁concurrently	-11.6762
▁ultimate	-11.6769
▁workforce	-11.677
▁cognate	-11.6771
▁2.7	-11.6779
▁latin	-11.678
3).	-11.6782
▁estudios	-11.6783
▁biogenesis	-11.6784
isation	-11.6784
▁imidazole	-11.6785
▁pieces	-11.6787
15,	-11.6791
▁confusion	-11.6792
▁sle	-11.6798
▁testis	-11.68
▁0.2%	-11.68
▁meetings	-11.6801
▁inferior	-11.6801
▁dots	-11.6801
▁makers	-11.6804
pb	-11.6804
▁basement	-11.6807
han	-11.6807
class	-11.681
▁ammonia	-11.681
▁var	-11.6812
helical	-11.6813
▁ecmo	-11.6816
elle	-11.6816
3.1	-11.6817
▁spikes	-11.6821
▁oct	-11.6825
▁111	-11.6826
▁camera	-11.6826
▁bilirubin	-11.6827
▁representatives	-11.6831
▁unpaired	-11.6831
▁distinguishing	-11.6831
▁pmol	-11.6835
▁cerevisiae	-11.6836
▁livers	-11.6837
▁sci	-11.6838
▁therapie	-11.6839
▁uncontrolled	-11.6839
▁degenerate	-11.6843
▁sierra	-11.6843
▁detector	-11.6844
▁accelerate	-11.6845
▁coded	-11.6845
132	-11.6846
usually	-11.6849
▁bronchopneumonia	-11.685
130	-11.6851
▁fhv	-11.6853
▁quantitatively	-11.6855
▁humidified	-11.6856
▁firefly	-11.6857
air	-11.686
▁splice	-11.6861
fixed	-11.6862
similar	-11.6866
▁deeper	-11.6867
▁organisation	-11.6867
ef	-11.6869
▁fermentation	-11.6869
▁overexpressed	-11.687
▁recruits	-11.6876
▁saa	-11.6879
light	-11.6879
▁star	-11.6883
▁lv	-11.6884
▁fluctuations	-11.6885
html	-11.6888
▁grossly	-11.6888
▁bioavailability	-11.6889
▁redox	-11.6891
▁2015.	-11.6891
▁6.5	-11.6894
▁erythrocyte	-11.6899
▁disturbances	-11.6899
und	-11.6903
▁sedation	-11.6903
io	-11.6904
▁mastitis	-11.6904
▁claims	-11.6905
▁mdr	-11.691
▁alkaloids	-11.6911
▁messages	-11.6912
▁preexisting	-11.6912
▁cultivation	-11.6913
▁weakly	-11.6915
▁deer	-11.6918
▁ranking	-11.6918
▁(2008)	-11.6919
▁pep	-11.6919
▁bear	-11.6921
▁1976)	-11.6922
ft	-11.6922
▁minimizing	-11.6923
▁aerobic	-11.6923
targeting	-11.6924
▁dé	-11.6924
▁1950	-11.6926
▁item	-11.6927
▁specialist	-11.6928
▁polysaccharides	-11.6929
▁summarize	-11.6932
▁sanger	-11.6932
▁iso	-11.6939
▁sheet	-11.6942
▁corp	-11.6942
▁twelve	-11.6944
▁ré	-11.6946
▁relatives	-11.6948
op	-11.6951
▁cftr	-11.6952
▁conflicting	-11.6953
▁rb	-11.6959
▁feel	-11.6963
▁cavities	-11.6963
▁acyclovir	-11.6963
restricted	-11.6965
▁discontinuous	-11.6969
▁versions	-11.697
▁magnesium	-11.697
▁homologs	-11.6971
▁recording	-11.6971
▁allantoic	-11.6976
▁parturition	-11.6977
▁histology	-11.6977
▁pseudoknots	-11.6977
▁sexually	-11.698
▁(200	-11.698
▁cdnas	-11.698
▁hrs	-11.6982
▁exerts	-11.6982
▁want	-11.6984
▁ascertain	-11.6985
▁␤-	-11.6987
▁cours	-11.6989
rate	-11.699
▁bangladesh	-11.6994
▁lose	-11.6995
▁scarce	-11.6996
▁(27)	-11.6996
nes	-11.6998
▁mineral	-11.6999
▁juvenile	-11.7
▁emotional	-11.7003
▁truly	-11.7003
▁residence	-11.7006
▁automatic	-11.7011
▁cx	-11.7011
family	-11.7013
▁(19	-11.7015
▁consuming	-11.7017
▁programmed	-11.7022
▁fill	-11.7029
▁parenchymal	-11.7029
▁insufficiency	-11.7031
▁→	-11.7032
hb	-11.7032
▁neumonía	-11.7033
▁tension	-11.7034
mab	-11.7036
▁lacked	-11.7041
▁endotracheal	-11.7044
▁rvsv	-11.7046
▁chromosomes	-11.7047
▁pollen	-11.7047
▁immunisation	-11.7047
▁-10	-11.705
▁egr	-11.7051
▁excreted	-11.7053
▁trnas	-11.7054
▁expresses	-11.7056
▁handled	-11.706
▁hospitalisation	-11.7065
▁endocrine	-11.7071
▁kcl	-11.7076
▁placing	-11.7078
▁ft	-11.7078
▁sequentially	-11.708
▁(18	-11.7082
▁smallest	-11.7083
saharan	-11.7088
▁roche	-11.7088
▁contract	-11.709
▁bid	-11.7091
▁acetone	-11.7093
▁salts	-11.7094
▁gift	-11.7096
▁socs	-11.7098
ite	-11.7102
▁heifers	-11.7106
▁arrow	-11.7106
▁114	-11.7111
ize	-11.7112
▁falls	-11.7113
▁canis	-11.7115
▁milieu	-11.7117
▁rumen	-11.7119
▁rigid	-11.7123
▁effectors	-11.7124
▁cyto	-11.7125
▁[30,	-11.7133
▁exerted	-11.7135
▁clinique	-11.7136
pone	-11.7136
▁pharynx	-11.7139
▁muy	-11.7143
cpe	-11.7143
φ	-11.7144
▁tetherin	-11.7145
▁tetanus	-11.7146
▁rva	-11.7157
ard	-11.7159
▁nel	-11.716
▁expectations	-11.7161
being	-11.7162
▁prion	-11.7163
▁[96]	-11.7166
stimulatory	-11.7169
▁respiratoire	-11.717
▁valley	-11.717
▁[31,	-11.7176
▁piglet	-11.7177
▁rearrangements	-11.7181
▁texas	-11.7181
▁wheeze	-11.7183
ili	-11.7185
cellular	-11.7185
▁grass	-11.7186
lt	-11.7187
▁glutamine	-11.7188
▁uniformly	-11.7189
incubated	-11.7192
onset	-11.7195
▁presently	-11.7198
▁2003.	-11.7198
-27	-11.7199
▁ya	-11.7201
▁glutamate	-11.7201
▁progressed	-11.7202
xl	-11.7203
▁manufacture	-11.7206
▁thickened	-11.7207
▁45%	-11.7207
▁satisfactory	-11.7207
▁anatomic	-11.7209
\\	-11.721
▁workplace	-11.7211
▁static	-11.7212
▁classify	-11.7213
▁counteract	-11.7221
▁cerebellar	-11.7221
▁icam	-11.7223
mt	-11.7226
scenario	-11.7226
400	-11.7227
▁discomfort	-11.7228
core	-11.7228
▁catalyze	-11.723
▁cleaned	-11.7232
▁perspectives	-11.7233
▁solve	-11.7233
lactam	-11.7235
what	-11.7237
▁adherent	-11.7238
ur	-11.7238
▁globulin	-11.7239
▁perforation	-11.7239
▁33%	-11.724
▁sindbis	-11.7242
▁br	-11.7243
tu	-11.7243
phe	-11.7244
▁compete	-11.7245
▁destinations	-11.7245
rh	-11.7248
▁cytology	-11.7249
▁stream	-11.7251
tumor	-11.7253
▁attach	-11.7256
▁bartonella	-11.7256
▁huang	-11.7256
▁fails	-11.7257
▁stimulatory	-11.7258
▁contemporary	-11.7262
▁pyogenes	-11.7262
hrv	-11.7263
▁pathologies	-11.7263
▁37]	-11.7266
ifitm	-11.7266
yang	-11.727
▁alzheimer	-11.727
▁38]	-11.7271
pt	-11.7271
▁constants	-11.7272
lactamase	-11.7273
susceptible	-11.7275
ring	-11.7277
▁compact	-11.7279
▁nation	-11.728
▁groove	-11.728
gr	-11.7281
▁autophagosomes	-11.7283
▁citizens	-11.7284
▁3.3	-11.7285
▁internalized	-11.7286
▁(28)	-11.7288
▁[95]	-11.729
za	-11.7292
vero	-11.7296
▁flaviviridae	-11.7297
▁depressed	-11.7297
▁tonsils	-11.73
▁camelids	-11.7302
▁proteolysis	-11.7304
rig	-11.7306
▁117	-11.7306
▁arenaviruses	-11.7306
lived	-11.7306
▁histocompatibility	-11.7311
▁36,	-11.7311
▁nigeria	-11.7313
▁descriptions	-11.7314
▁radius	-11.7318
▁dying	-11.7319
▁pneumophila	-11.7325
▁schemes	-11.7325
▁ethyl	-11.7327
▁gmbh	-11.7332
▁medial	-11.7332
▁crispr	-11.7334
▁exceeding	-11.7335
lane	-11.7338
▁etiologies	-11.7338
▁director	-11.7341
▁fractionation	-11.7342
macrophages	-11.7343
▁5000	-11.7343
▁sedimentation	-11.7346
▁suppurative	-11.7347
▁localize	-11.7347
▁cchfv	-11.7348
▁leone	-11.735
established	-11.7357
▁exacerbated	-11.7358
▁leptospirosis	-11.736
▁glycol	-11.7362
hand	-11.7363
▁θ	-11.7363
▁phone	-11.7364
▁geographically	-11.7365
▁statistic	-11.7369
▁annexin	-11.737
▁nearby	-11.7371
▁abstracts	-11.7372
▁road	-11.7373
▁adhere	-11.7373
▁stirred	-11.7374
▁35,	-11.7376
▁summarizes	-11.7378
between	-11.7379
▁chromosomal	-11.738
▁nodular	-11.7381
▁contexts	-11.7382
▁coinfections	-11.7384
▁fifty	-11.7389
kd	-11.7389
▁sow	-11.7392
▁[98]	-11.7395
ks	-11.7395
▁boxes	-11.7402
gs	-11.7403
▁message	-11.7406
▁exploring	-11.7409
▁spanish	-11.741
vis	-11.7413
▁precipitate	-11.7414
▁defence	-11.7414
-3,	-11.7414
▁-2	-11.7415
▁hz	-11.7421
gd	-11.7422
▁iran	-11.7422
▁clothing	-11.7423
-3′	-11.7426
polymerase	-11.7428
▁intriguing	-11.7428
ali	-11.7429
▁weighed	-11.743
▁mount	-11.7432
▁gr	-11.7432
▁senior	-11.7434
▁carboxy	-11.7439
▁organizational	-11.744
▁specialists	-11.7441
▁ainsi	-11.7444
▁femoral	-11.7445
▁transitions	-11.7445
▁14%	-11.7446
▁keine	-11.745
▁cornea	-11.745
▁grand	-11.7451
▁microtiter	-11.7451
▁nr	-11.7453
▁3-5	-11.7454
0,	-11.7455
primary	-11.7456
▁vice	-11.7456
▁118	-11.7456
▁toxoplasma	-11.7459
▁flavonoids	-11.7461
▁lncrna	-11.7463
▁pid	-11.7464
4),	-11.7464
▁indigenous	-11.7466
▁seropositivity	-11.7472
▁listeria	-11.7473
▁1973	-11.7473
run	-11.7475
▁interior	-11.7479
▁ultrasonography	-11.7479
▁atomic	-11.7479
▁32,	-11.7481
▁ifitms	-11.7483
▁pigment	-11.7483
▁superscript	-11.7484
▁erythema	-11.7486
▁rain	-11.7486
▁ulcerative	-11.7486
▁destroyed	-11.7487
plex	-11.7487
introduction	-11.749
▁approximation	-11.7491
▁permitted	-11.7493
98	-11.7495
▁endocarditis	-11.75
approved	-11.7505
▁wood	-11.7506
bsa	-11.7507
▁mar	-11.7515
▁conjunctival	-11.7519
erk	-11.7519
fu	-11.7519
▁flock	-11.7519
▁dt	-11.752
▁affinities	-11.7521
▁hypothesize	-11.7521
▁filamentous	-11.7521
▁capped	-11.7524
▁cant	-11.753
ting	-11.753
▁sustain	-11.7531
▁mismatch	-11.7531
bed	-11.7532
▁icosahedral	-11.7536
▁shaking	-11.7536
▁bcg	-11.7536
▁expressions	-11.7547
▁135	-11.7548
▁aggregated	-11.7552
▁advantageous	-11.7552
gu	-11.7555
▁accept	-11.7555
▁safely	-11.7558
fit	-11.756
▁soit	-11.7562
▁overt	-11.7567
▁sumo	-11.7569
▁neurodegenerative	-11.7571
▁custom	-11.7571
eif	-11.7573
▁bud	-11.7575
▁probiotic	-11.7577
▁unprecedented	-11.7592
▁inserts	-11.7593
▁outpatients	-11.7594
▁labour	-11.7595
▁markov	-11.7596
▁swollen	-11.76
▁está	-11.7601
▁11%	-11.7601
▁alphaviruses	-11.7603
protective	-11.7607
▁firms	-11.7607
▁homolog	-11.7608
▁12.5	-11.7608
▁foxes	-11.7609
▁morphologic	-11.7613
▁polarity	-11.7615
▁augmented	-11.7617
▁cfr	-11.7617
▁[32,	-11.7618
103	-11.762
▁[34,	-11.7622
▁adolescents	-11.7622
▁adsorbed	-11.7622
▁peyer	-11.7622
▁116	-11.7625
▁withdrawal	-11.7627
▁stressed	-11.7627
▁metabolite	-11.7628
▁occupied	-11.7629
▁aquatic	-11.7629
▁branching	-11.7634
brown	-11.7635
▁robustness	-11.7636
▁proceed	-11.7637
▁lastly	-11.7639
statistical	-11.764
▁cooling	-11.7644
▁disadvantages	-11.7645
▁utilizes	-11.7651
cor	-11.7653
▁microplate	-11.7655
▁biochemistry	-11.7657
▁polarization	-11.7657
cost	-11.7657
▁patienten	-11.7658
▁passing	-11.7662
▁arrivals	-11.7662
▁119	-11.7662
▁retrieval	-11.7664
▁ionic	-11.7666
▁intramuscularly	-11.7666
▁arf	-11.7667
▁16%	-11.7671
▁3.1	-11.7671
08	-11.7671
▁transforming	-11.7675
▁organisations	-11.7676
▁litters	-11.7676
▁cellules	-11.768
▁operated	-11.7681
▁linkages	-11.7681
py	-11.7683
▁123	-11.7683
▁127	-11.7684
second	-11.7688
▁acceptor	-11.7689
▁exhaled	-11.7693
neu	-11.7695
▁tmv	-11.7696
▁argument	-11.7698
average	-11.7699
tk	-11.7699
ier	-11.7703
▁bamhi	-11.7703
145	-11.7704
▁oligosaccharide	-11.7706
1;	-11.7707
0)	-11.7707
▁3).	-11.771
▁surveyed	-11.7711
▁macrolides	-11.7711
▁inputs	-11.7714
▁aliquot	-11.7719
lanes	-11.7719
▁choices	-11.772
▁vers	-11.772
▁prospectively	-11.7721
▁imbalance	-11.7721
▁miller	-11.7721
▁render	-11.7721
ome	-11.7725
▁bad	-11.7725
▁follicular	-11.773
▁[33,	-11.7731
▁traveling	-11.7732
▁seldom	-11.7736
▁marketing	-11.7739
▁3.6	-11.7739
▁adjust	-11.774
▁131	-11.7743
▁ω	-11.7743
resistance	-11.7745
▁try	-11.7745
▁preferential	-11.7749
▁pairing	-11.775
▁pharmacokinetic	-11.775
▁inos	-11.7751
▁haemorrhagic	-11.7751
▁transporter	-11.7751
▁probiotics	-11.7753
▁sb	-11.7759
bu	-11.7761
▁rearrangement	-11.7764
-40	-11.7764
▁rbc	-11.7769
▁inefficient	-11.7769
▁exceeds	-11.777
▁hb	-11.7772
affected	-11.7776
▁bfa	-11.7777
▁husbandry	-11.778
▁tea	-11.778
rb	-11.7781
china	-11.7781
▁34,	-11.7784
▁complicate	-11.7788
▁2004,	-11.7789
▁meal	-11.7789
▁advised	-11.779
ja	-11.779
lung	-11.7791
▁hemisphere	-11.7793
▁rectum	-11.7794
▁lewis	-11.7797
▁(2002)	-11.7799
mk	-11.7801
mail	-11.7802
▁anesthetized	-11.7802
▁begun	-11.7803
▁hetero	-11.7804
▁ics	-11.7806
▁(29)	-11.7806
millipore	-11.7807
▁2011,	-11.7809
atg	-11.7812
▁hemolysis	-11.7817
▁dispersed	-11.7819
▁2018;	-11.7821
▁intracranial	-11.7822
▁computing	-11.7824
▁pcmv	-11.7828
▁inexpensive	-11.7828
▁goblet	-11.7831
▁noninfectious	-11.7831
▁suited	-11.7831
coil	-11.7834
▁même	-11.7838
encoding	-11.7839
▁steric	-11.7839
▁connecting	-11.7839
▁budget	-11.7843
▁imposed	-11.7843
▁gains	-11.7843
bearing	-11.7844
▁oxidase	-11.7845
▁intercellular	-11.7846
ze	-11.7852
▁mites	-11.7853
▁sensitivities	-11.7853
▁spotted	-11.7853
ebv	-11.7853
▁stabilizing	-11.7853
▁peninsula	-11.7856
wa	-11.7857
ku	-11.786
▁eia	-11.7865
▁clínica	-11.7866
▁seeds	-11.7868
▁regards	-11.7872
▁hcp	-11.7874
bis	-11.7874
163	-11.7875
▁freely	-11.7881
▁societies	-11.7882
▁predominance	-11.7882
▁prokaryotic	-11.7882
▁ti	-11.7884
▁thrombin	-11.7888
▁fomites	-11.7888
▁predicts	-11.7888
▁immunoblot	-11.7889
133	-11.7895
▁possessed	-11.7895
▁malnutrition	-11.7897
▁0.02	-11.79
▁brucellosis	-11.7905
▁patchy	-11.7907
▁traced	-11.7907
▁quarter	-11.7914
▁alters	-11.7918
▁infancy	-11.7919
▁defines	-11.7922
▁delivering	-11.7924
▁ect	-11.7924
▁forum	-11.7924
left	-11.7924
▁mildly	-11.7924
▁drying	-11.7926
▁uso	-11.7926
87	-11.7926
▁conditioning	-11.7926
▁nombre	-11.7926
▁chlorine	-11.7927
▁saturated	-11.7928
▁40]	-11.793
▁packaged	-11.7937
▁forecast	-11.7937
▁transfusions	-11.7939
▁brucella	-11.7942
que	-11.7943
▁consumer	-11.7943
▁98%	-11.7947
▁[99]	-11.7948
▁gently	-11.7949
▁aspirin	-11.7949
▁(2012)	-11.7952
▁exploit	-11.7953
▁gln	-11.7958
▁adjusting	-11.7958
nine	-11.7962
ang	-11.7962
▁triphosphate	-11.7967
▁ln	-11.7973
05	-11.7978
▁autophagosome	-11.7978
^	-11.7978
▁characterizing	-11.7978
cycle	-11.7979
-␤	-11.7979
▁chimera	-11.7979
▁tetra	-11.7981
▁immunizations	-11.7983
▁blind	-11.7985
▁gradients	-11.7985
probe	-11.7985
▁perk	-11.7986
▁(2011)	-11.7988
▁slaughter	-11.7989
▁tim	-11.7992
▁240	-11.7994
-19	-11.7995
▁releasing	-11.7995
▁33,	-11.7996
▁really	-11.7997
▁flights	-11.7998
▁interferes	-11.7999
▁incoming	-11.8
▁homozygous	-11.8001
▁inflamed	-11.8001
sds	-11.8001
form	-11.8002
▁pull	-11.8002
micro	-11.8003
▁1972	-11.8003
▁restrictive	-11.8006
▁explaining	-11.8008
▁cytologic	-11.8015
▁2.3	-11.8015
▁emphysema	-11.8016
▁willingness	-11.8016
▁recommends	-11.8016
▁streptococcal	-11.8016
▁colocalization	-11.8018
pdf	-11.8019
▁hat	-11.802
▁cdr	-11.8021
▁φ	-11.8025
characterized	-11.8027
▁ptsd	-11.8028
▁inverted	-11.8029
▁renilla	-11.8031
▁wb	-11.8031
▁nss	-11.8034
▁yearly	-11.804
adjusted	-11.8041
responsive	-11.8042
▁complaints	-11.8044
ak	-11.8044
▁jackson	-11.8044
▁freshly	-11.8046
▁notification	-11.8046
▁ifna	-11.8047
▁refined	-11.8048
▁economically	-11.8049
▁cryptosporidiosis	-11.8053
▁fs	-11.8053
▁went	-11.8054
-32	-11.8055
▁2005,	-11.8057
▁draft	-11.8059
▁simplicity	-11.806
-29	-11.806
▁farming	-11.8061
▁toxoplasmosis	-11.8061
▁freezing	-11.8061
▁claimed	-11.8061
▁hasta	-11.8062
▁133	-11.8064
13,	-11.8066
▁advent	-11.8068
▁leishmaniasis	-11.8068
▁initiates	-11.8068
▁capsids	-11.8071
hn	-11.8075
▁width	-11.8076
▁denatured	-11.8077
▁noting	-11.8079
gt	-11.8079
▁immunopathology	-11.8083
▁suboptimal	-11.8083
▁dexamethasone	-11.8083
▁secreting	-11.8083
[94]	-11.8084
hl	-11.8084
▁village	-11.8085
▁amine	-11.8086
▁sap	-11.8088
coronaviruses	-11.8089
mass	-11.8089
▁132	-11.809
▁dos	-11.809
▁estrogen	-11.809
▁realized	-11.809
▁nomenclature	-11.809
▁irritation	-11.809
▁rep	-11.809
▁update	-11.8093
▁painful	-11.8096
glutamine	-11.8097
▁physically	-11.8098
▁faculty	-11.8098
let	-11.8101
-35	-11.8103
▁1975)	-11.8103
▁0.15	-11.8107
▁americas	-11.811
▁counterpart	-11.8113
▁downloaded	-11.8114
hmpv	-11.8116
before	-11.8119
▁kappa	-11.8119
▁spacer	-11.8121
studies	-11.8122
▁comments	-11.8123
▁mediante	-11.8123
▁[100]	-11.8128
▁districts	-11.8128
huang	-11.8142
▁13%	-11.8142
▁(24	-11.8143
▁discrepancies	-11.8143
▁catarrhalis	-11.8143
▁neurotropic	-11.8144
targeted	-11.8145
▁jet	-11.8148
inducing	-11.8149
once	-11.8154
real	-11.8154
▁17%	-11.8156
▁220	-11.8158
▁consumers	-11.8159
▁duplication	-11.8159
▁testicular	-11.8159
▁30-	-11.816
▁caco	-11.8162
▁wk	-11.8163
▁⁄	-11.8166
▁ifi	-11.8171
▁126	-11.8171
▁ganglia	-11.8173
▁breastfeeding	-11.8173
▁seizure	-11.8174
▁eventual	-11.8176
▁cb	-11.8179
▁maldi	-11.8179
▁electric	-11.818
▁indispensable	-11.818
▁imperative	-11.8181
▁qiaamp	-11.8181
▁gvhd	-11.8182
▁eleven	-11.8183
▁explicit	-11.8187
▁draining	-11.819
▁pge	-11.819
▁humanized	-11.8191
▁asfv	-11.8192
▁holding	-11.8193
<	-11.8194
▁preferences	-11.8195
▁forecasting	-11.8198
▁9%	-11.8198
▁sides	-11.82
▁endonuclease	-11.8204
▁census	-11.821
▁epidermis	-11.8211
▁rainfall	-11.8211
linear	-11.8212
▁circulate	-11.8213
▁nod	-11.8218
▁immunostaining	-11.8219
▁chart	-11.822
▁shelters	-11.8221
▁reflex	-11.8221
▁65%	-11.8222
▁hypotension	-11.8226
▁relaxation	-11.8226
▁sandwich	-11.8228
economic	-11.8232
proteins	-11.8232
▁capillaries	-11.8234
▁glutaraldehyde	-11.8234
▁metals	-11.8234
glycosylation	-11.8237
▁pasture	-11.8243
▁modulates	-11.8248
▁anthracis	-11.8249
▁restoration	-11.8249
▁multifunctional	-11.8249
▁intraperitoneally	-11.8251
tf	-11.8254
▁18%	-11.8255
▁ipec	-11.8261
97	-11.8265
▁relates	-11.8268
▁ozone	-11.8274
epi	-11.8275
▁afford	-11.8279
ay	-11.8279
▁cerebellum	-11.828
▁palpation	-11.828
▁dysregulation	-11.828
▁condensation	-11.828
▁preceded	-11.8283
±	-11.8287
▁woman	-11.8287
▁judged	-11.8289
▁ran	-11.8291
▁command	-11.8291
▁crop	-11.8295
▁confirmatory	-11.8295
▁fight	-11.8295
▁acidification	-11.8296
▁geo	-11.8297
▁sheets	-11.8302
▁simplified	-11.8304
▁curvature	-11.831
▁leukopenia	-11.831
▁brush	-11.831
▁menos	-11.8311
▁mip	-11.8311
function	-11.8311
▁filoviruses	-11.8313
▁20-	-11.8314
▁sero	-11.8315
▁[101]	-11.8318
▁satisfaction	-11.8318
▁2002,	-11.8322
▁segmented	-11.8322
▁nur	-11.8328
▁feet	-11.8328
▁dq	-11.8328
▁145	-11.8329
▁workflow	-11.8329
▁lactose	-11.8329
▁fibrinogen	-11.8331
under	-11.8331
▁121	-11.8333
▁autumn	-11.8333
▁prednisolone	-11.8334
▁newcastle	-11.8334
▁lipoprotein	-11.8335
▁morphologically	-11.8336
inter	-11.8337
▁src	-11.8341
▁galactose	-11.8343
set	-11.8346
▁2.8	-11.8347
▁cardiomyopathy	-11.8349
▁chicago	-11.8349
▁hind	-11.8349
▁portable	-11.8351
rf	-11.8352
▁underestimated	-11.8354
▁confers	-11.8354
ene	-11.8354
▁(60	-11.8355
▁sure	-11.8357
▁croup	-11.8357
▁100-	-11.8357
▁radicals	-11.8357
▁1:10	-11.8359
▁dont	-11.836
▁reform	-11.836
further	-11.8363
▁myc	-11.8365
▁terrorist	-11.8366
14,	-11.8371
hd	-11.8372
▁cooperative	-11.8372
▁entries	-11.8372
ati	-11.8377
▁niclosamide	-11.838
▁declaration	-11.8381
▁ebolavirus	-11.8384
▁glucocorticoids	-11.8387
toxic	-11.8387
▁reconstituted	-11.8389
hpv	-11.8391
▁ips	-11.8392
▁lowered	-11.8392
▁vacuum	-11.8395
▁attracted	-11.8396
▁angiogenesis	-11.8396
▁demographics	-11.8397
▁actors	-11.8397
002	-11.8399
▁hendra	-11.8404
▁col	-11.8406
▁2.6	-11.8407
unpublished	-11.8409
▁1-4	-11.8411
▁(30)	-11.8413
▁1640	-11.8415
▁multidisciplinary	-11.8418
▁capping	-11.8419
▁dermal	-11.8421
▁sinuses	-11.8422
▁icd	-11.8424
▁psi	-11.8424
▁aom	-11.8426
▁symmetry	-11.8426
▁pbst	-11.8426
ras	-11.8428
▁circle	-11.8429
▁dimeric	-11.8429
▁cal	-11.843
▁systemically	-11.8431
40,	-11.8431
▁hub	-11.8433
▁hazardous	-11.8434
▁puncture	-11.8436
▁respiratoires	-11.8437
▁sales	-11.8438
▁saw	-11.8439
▁mark	-11.844
pm	-11.844
▁cessation	-11.8441
▁7.0	-11.8442
▁mycobacterial	-11.8442
▁cos	-11.8443
▁trimester	-11.8443
weight	-11.8445
▁impaction	-11.8446
shi	-11.8447
▁pam	-11.8447
▁fulminant	-11.8447
▁hypothetical	-11.8448
▁alum	-11.845
▁pneumocystis	-11.845
▁cultivated	-11.8451
▁[3	-11.8451
ary	-11.8458
▁slope	-11.8461
galactosidase	-11.8465
▁reasonably	-11.8465
▁assumes	-11.8465
▁carboxyl	-11.8465
ire	-11.8466
▁partir	-11.8466
▁rag	-11.8469
▁academy	-11.8472
▁pneumothorax	-11.8473
▁preservation	-11.8473
▁uncomplicated	-11.8473
don	-11.8474
▁pharmaceuticals	-11.8474
soluble	-11.8477
▁ultracentrifugation	-11.848
▁occasions	-11.8482
/100	-11.8484
▁matches	-11.8484
▁accidental	-11.8489
▁yersinia	-11.8489
▁hts	-11.8494
▁mitotic	-11.8496
▁differentiating	-11.8496
▁termini	-11.8502
94	-11.8506
▁ò	-11.8506
▁strikingly	-11.8507
▁recherche	-11.8508
▁[35,	-11.851
factor	-11.8513
▁tmd	-11.8518
▁0.01,	-11.8519
pressure	-11.8519
101	-11.8519
▁mesh	-11.8519
▁amp	-11.8519
▁trem	-11.8524
▁igf	-11.8525
wu	-11.8528
▁integrating	-11.8528
▁proviral	-11.8531
nlm	-11.8533
attenuated	-11.8533
▁relied	-11.8535
▁unfolded	-11.8536
▁stepwise	-11.8536
ey	-11.8539
▁flasks	-11.8541
cys	-11.8542
coupled	-11.8544
▁suppressive	-11.8545
▁diffi	-11.8546
zikv	-11.8546
▁biases	-11.8547
none	-11.8551
▁waltham	-11.8551
consuming	-11.8558
▁standing	-11.8566
▁caring	-11.8566
▁jugular	-11.8567
▁replacer	-11.8568
79	-11.8569
▁aminotransferase	-11.857
labelled	-11.8571
▁dilation	-11.8575
▁reproduce	-11.8575
▁prey	-11.8578
▁infectiousness	-11.8578
reaction	-11.8579
ld	-11.8582
▁abilities	-11.8583
▁db	-11.8584
fat	-11.8586
▁atrial	-11.8586
▁amide	-11.8589
▁applicability	-11.859
▁ppar	-11.8594
▁marmosets	-11.8597
interestingly	-11.8597
▁coxsackievirus	-11.8597
▁nts	-11.8598
▁enterobacteriaceae	-11.8598
fe	-11.8601
ción	-11.8604
▁picornaviridae	-11.8606
▁predisposition	-11.8608
▁phylogenetically	-11.8609
10)	-11.8613
▁google	-11.8615
▁cartilage	-11.8616
amine	-11.8616
ies	-11.8618
▁disciplines	-11.8618
▁poxvirus	-11.8621
contact	-11.8623
▁getting	-11.8623
▁explanations	-11.8623
▁rings	-11.8624
777	-11.8624
▁transferrin	-11.8626
▁resection	-11.8626
blind	-11.8629
▁grids	-11.8629
▁mission	-11.8631
5%	-11.8633
pu	-11.8634
▁sugars	-11.8636
▁repetitive	-11.8637
how	-11.8644
▁warrant	-11.8646
▁rvp	-11.8648
▁climatic	-11.8648
▁empirically	-11.8651
▁reproduced	-11.8654
▁translate	-11.8657
tp	-11.8658
ana	-11.866
▁124	-11.866
▁hoc	-11.8661
▁ultrastructural	-11.8661
▁discontinued	-11.8663
▁degrade	-11.8663
▁elsevier	-11.8663
endo	-11.8667
▁39]	-11.8671
▁belief	-11.8672
▁138	-11.8676
▁handwashing	-11.8678
▁spectrometer	-11.868
▁phospholipid	-11.8681
▁johnson	-11.8684
ities	-11.8685
feline	-11.8685
▁excised	-11.8686
▁arenavirus	-11.8687
▁operator	-11.8691
▁cleft	-11.8691
▁"(2)	-11.8691
▁failures	-11.8693
▁lactobacillus	-11.8694
▁cords	-11.8694
▁sn	-11.8698
▁1.9	-11.8698
×	-11.87
▁happen	-11.87
ep	-11.8702
▁dysplasia	-11.8702
assay	-11.8702
▁bronchioles	-11.8706
▁pink	-11.8709
hev	-11.8709
▁bronchiolar	-11.871
104	-11.871
▁tt	-11.8711
▁cruzi	-11.8714
▁beliefs	-11.8715
▁answers	-11.8717
▁41]	-11.8718
▁interspecies	-11.8718
sem	-11.8719
▁ideas	-11.8719
▁habitats	-11.872
gold	-11.8722
▁capita	-11.8725
▁microfluidic	-11.8728
▁mtor	-11.8729
▁700	-11.873
▁advisory	-11.8733
▁trapped	-11.8734
▁unidentified	-11.8735
▁breaks	-11.8736
▁companion	-11.8736
▁modifying	-11.874
▁4.2	-11.8741
▁distention	-11.8741
▁wheat	-11.8742
▁ifng	-11.8744
ben	-11.8747
quantitative	-11.8747
fp	-11.8747
mu	-11.8749
▁remyelination	-11.8749
▁sustainability	-11.8749
▁cuando	-11.875
▁parties	-11.8751
▁0.05;	-11.8755
▁neighbors	-11.8757
▁1974	-11.8759
▁(2001)	-11.8761
▁mention	-11.8763
▁things	-11.8765
▁[102]	-11.8766
▁residential	-11.8767
▁tracer	-11.8767
▁discover	-11.8772
▁260	-11.8773
▁randomised	-11.8775
▁looked	-11.8776
▁diphtheria	-11.8776
▁(2013)	-11.8777
▁(31)	-11.8777
▁exhaust	-11.8778
▁190	-11.8781
▁silent	-11.8782
▁earth	-11.8782
▁protozoan	-11.8783
▁42]	-11.8787
250	-11.8787
cam	-11.8788
▁bst	-11.8789
▁[103]	-11.8789
▁cruise	-11.8794
▁1/2	-11.8794
▁fate	-11.8796
▁veins	-11.8798
▁carbonyl	-11.88
▁lived	-11.8803
▁cabin	-11.8804
▁physicochemical	-11.8806
▁convenience	-11.8806
▁preparing	-11.8806
▁ethnic	-11.8806
▁350	-11.8808
cancer	-11.8808
▁(2014)	-11.8809
ker	-11.8815
jun	-11.8816
currently	-11.8819
▁bath	-11.8821
▁amphotericin	-11.8822
▁violet	-11.8822
esi	-11.8825
bac	-11.8828
▁municipal	-11.883
▁cynomolgus	-11.883
▁10)	-11.8837
▁clues	-11.8839
▁goods	-11.884
▁shortness	-11.8841
cut	-11.8842
▁sus	-11.8844
▁unsuccessful	-11.8845
▁binomial	-11.8846
▁untranslated	-11.8849
▁embargo	-11.8854
▁existe	-11.8855
volume	-11.8858
▁[37,	-11.8859
▁fuse	-11.8861
ide	-11.8868
nta	-11.887
▁thorax	-11.8871
▁hemorrhages	-11.8872
peg	-11.8872
lys	-11.8874
self	-11.8875
▁bv	-11.8877
▁ship	-11.8879
▁devoid	-11.8879
may	-11.8879
▁versa	-11.8879
▁insoluble	-11.8881
▁seriously	-11.8882
▁permet	-11.8882
▁messenger	-11.8882
▁offering	-11.8883
▁definite	-11.8886
▁exotic	-11.8887
▁transmissions	-11.8888
▁dosages	-11.8889
▁broken	-11.8889
180	-11.8894
▁bronchiseptica	-11.8895
open	-11.8895
▁dn	-11.8895
▁utero	-11.8895
ru	-11.89
▁mcf	-11.8902
▁behaviours	-11.8902
▁comfort	-11.8903
▁ltr	-11.8903
nuclear	-11.8904
▁lethality	-11.8904
▁crs	-11.8904
▁fr	-11.8908
▁ctls	-11.8908
▁internationally	-11.8909
middle	-11.891
supplemental	-11.891
▁lysozyme	-11.8911
▁vps	-11.8912
▁134	-11.8914
amp	-11.8914
▁governmental	-11.8916
pcv	-11.8917
organ	-11.8918
▁premises	-11.8919
▁clindamycin	-11.8919
▁hampered	-11.892
500	-11.892
▁unfolding	-11.892
▁disc	-11.8922
▁tooth	-11.8922
ber	-11.8924
▁comparatively	-11.8925
ées	-11.8926
▁applies	-11.8927
▁jejuni	-11.8927
▁bright	-11.8928
▁positioning	-11.8928
▁ob	-11.8932
▁thymic	-11.8937
-22	-11.8938
▁agenda	-11.8939
▁gathering	-11.894
▁fpr	-11.8941
▁hcl	-11.8946
▁ρ	-11.8946
▁dromedaries	-11.8952
▁ru	-11.8952
▁fatalities	-11.8952
▁migrating	-11.8953
yu	-11.8953
▁launched	-11.8953
▁possessing	-11.8954
▁panic	-11.8957
pf	-11.8959
absence	-11.8959
▁nidoviruses	-11.8961
▁shaped	-11.8967
▁circles	-11.8967
mercaptoethanol	-11.8967
▁alimentary	-11.8968
▁convergence	-11.8968
▁sinv	-11.8971
▁neonate	-11.8971
▁blinded	-11.8971
seven	-11.8975
▁gh	-11.8975
‬	-11.8976
▁cgas	-11.8976
▁housekeeping	-11.8977
▁pendant	-11.8977
ls	-11.898
▁biodiversity	-11.8984
▁competencies	-11.8984
cre	-11.8985
▁metronidazole	-11.8986
▁contre	-11.8986
▁ontology	-11.8988
▁proline	-11.8988
▁bonding	-11.8989
16,	-11.8993
▁doubt	-11.8993
▁dicer	-11.8996
▁hfmd	-11.8996
▁philippines	-11.8996
5),	-11.8998
pathogenic	-11.8999
▁turkeys	-11.8999
▁morning	-11.9001
▁mitogen	-11.9002
▁traveler	-11.9003
▁virales	-11.9008
▁[104]	-11.901
▁scaffolds	-11.901
▁plusieurs	-11.901
▁2.5%	-11.901
▁adem	-11.901
localization	-11.9011
size	-11.9012
▁worm	-11.9016
▁willing	-11.9017
▁consequent	-11.9024
▁hippocampus	-11.9025
▁causa	-11.9029
▁lentivirus	-11.9032
▁sie	-11.9033
▁playing	-11.9033
▁occupancy	-11.9034
▁alleviate	-11.9035
▁purchase	-11.9039
▁pcp	-11.9042
▁uganda	-11.9045
-14	-11.9046
▁amplitude	-11.9046
▁revision	-11.9047
89	-11.9048
▁bh	-11.9048
▁opacities	-11.905
▁gli	-11.9052
▁afforded	-11.9052
▁storm	-11.9052
▁3.4	-11.9056
-25	-11.9056
ff	-11.9061
▁hcovs	-11.9061
▁burn	-11.9064
▁waterborne	-11.9064
▁137	-11.9065
▁modalities	-11.9067
▁presencia	-11.9067
▁competence	-11.9067
▁membranous	-11.9068
▁enterotoxin	-11.9071
▁graves	-11.9072
▁israel	-11.9076
without	-11.9076
▁mesenchymal	-11.9077
▁[112	-11.9078
▁goes	-11.9078
▁stems	-11.9083
▁norwalk	-11.9084
▁guangzhou	-11.9084
▁mes	-11.9088
linking	-11.9091
▁mite	-11.9092
▁culturing	-11.9093
▁parte	-11.9093
index	-11.9095
▁dv	-11.9095
▁disturbance	-11.9096
anova	-11.9096
▁trap	-11.9096
▁(16	-11.9098
▁zoster	-11.9105
▁22%	-11.9105
▁cascades	-11.9105
▁mcmv	-11.9106
▁[105]	-11.9108
▁fluoroquinolones	-11.911
▁synaptic	-11.911
▁benefi	-11.9115
220	-11.9117
▁umbilical	-11.9117
▁migratory	-11.9117
▁urgently	-11.9119
63-	-11.9121
▁noninvasive	-11.9123
▁contracted	-11.9127
▁aspergillosis	-11.9133
▁lymphomas	-11.9136
▁186	-11.9142
▁trimethoprim	-11.9142
▁safer	-11.9149
▁tachycardia	-11.915
▁ocean	-11.9151
▁pn	-11.9152
ors	-11.9153
▁prerequisite	-11.9154
▁flying	-11.9155
▁59-	-11.9155
▁behavioural	-11.9157
▁plasticity	-11.9159
▁secure	-11.916
▁otu	-11.9163
▁respiratoria	-11.9163
▁lyme	-11.9164
▁ether	-11.9167
▁vestibular	-11.9167
▁pens	-11.9167
bovine	-11.9167
▁lors	-11.917
▁hematologic	-11.917
▁enfermedades	-11.9171
▁coxsackie	-11.9175
▁122	-11.9175
▁trading	-11.9175
▁acinetobacter	-11.9175
▁rotor	-11.9176
▁syn	-11.9177
▁inducer	-11.9178
▁175	-11.9183
university	-11.9183
▁dispersal	-11.9183
▁nationwide	-11.9184
▁(32)	-11.9188
▁session	-11.9189
▁wasting	-11.9189
▁niche	-11.919
▁om	-11.9191
▁wie	-11.9192
▁immunodominant	-11.9192
bat	-11.9192
▁colorimetric	-11.9192
▁(2000)	-11.9193
83	-11.9193
effects	-11.9199
▁fiebre	-11.9201
▁hip	-11.9202
▁(1999)	-11.9202
150	-11.9203
▁larval	-11.9203
▁declines	-11.9204
except	-11.9205
▁7.4	-11.9208
▁slices	-11.9209
▁scaling	-11.9209
▁deposits	-11.9212
▁pneumocytes	-11.9216
▁perinuclear	-11.9217
▁ensures	-11.9219
▁4-6	-11.9219
phenyl	-11.922
vlps	-11.9221
▁investigator	-11.9222
▁(2.5	-11.9222
▁todo	-11.9225
▁nidovirales	-11.9226
▁multivariable	-11.9226
ifa	-11.9226
▁phospholipids	-11.9231
▁uc	-11.9231
▁serologically	-11.9234
eae	-11.9235
▁appearing	-11.9236
dp	-11.9238
▁oocyst	-11.9238
▁pulmonar	-11.9239
▁tanto	-11.9241
depleted	-11.9242
▁spectrophotometer	-11.9242
▁preclude	-11.9244
▁obese	-11.9245
▁resist	-11.9246
pg	-11.9247
▁suite	-11.9251
-26	-11.9251
▁unbiased	-11.9251
sf	-11.9252
sy	-11.9253
▁39,	-11.9254
▁abuse	-11.9255
▁hepatocyte	-11.9256
▁aminopeptidase	-11.9257
▁theories	-11.9258
▁autosomal	-11.9259
▁ultraviolet	-11.9259
▁glomerular	-11.926
▁russia	-11.9261
▁unmodified	-11.9263
▁shrimp	-11.9264
▁confluence	-11.9268
▁tar	-11.9268
wise	-11.927
▁immunologically	-11.9274
▁mog	-11.9275
11,	-11.9276
▁osteonecrosis	-11.9276
was	-11.928
▁assisted	-11.928
▁lod	-11.9285
▁stationary	-11.9286
▁excel	-11.9287
lymphocytes	-11.9288
bc	-11.9289
▁imaged	-11.9289
▁sludge	-11.9289
cis	-11.9291
▁[107]	-11.9293
hs	-11.9295
▁pestis	-11.9296
dy	-11.9298
rank	-11.9301
▁vicinity	-11.9301
▁immobilization	-11.9302
▁colostral	-11.9302
chip	-11.9302
▁themes	-11.9303
▁incorrect	-11.9306
fip	-11.9306
chronic	-11.9309
84	-11.931
▁virome	-11.9311
▁standardization	-11.9314
▁freedom	-11.9315
▁suicide	-11.9315
-60	-11.9316
▁concordance	-11.9318
▁[108]	-11.9319
▁glandular	-11.9319
▁chang	-11.9319
▁38,	-11.9322
ren	-11.9323
▁thp	-11.9324
ccl	-11.9327
▁gravity	-11.9327
▁inpatients	-11.9328
▁loose	-11.9329
▁tremendous	-11.9334
hla	-11.9334
▁distancing	-11.9335
sheet	-11.9337
▁destroy	-11.9337
▁odn	-11.9338
lasting	-11.9338
▁alv	-11.934
▁principally	-11.9341
▁snap	-11.9345
▁allocated	-11.9347
fda	-11.9348
▁phenyl	-11.9349
ron	-11.935
▁chemiluminescence	-11.9352
▁train	-11.9354
▁mining	-11.9354
▁baby	-11.9355
▁dh	-11.9356
▁trimers	-11.9359
▁[106]	-11.9361
▁polymorphic	-11.9361
▁weapons	-11.9362
▁jaundice	-11.9363
usa	-11.9365
▁terminated	-11.9365
med	-11.9368
▁measurable	-11.937
▁attended	-11.937
▁sox	-11.9371
▁fevers	-11.9371
▁488	-11.9372
▁tipo	-11.9378
▁mimicry	-11.9378
ov	-11.9379
▁exported	-11.9381
▁boosted	-11.9381
▁lifetime	-11.9382
▁communicate	-11.9384
▁alphacoronavirus	-11.9386
▁disrupting	-11.9391
▁21%	-11.9394
▁finland	-11.9395
▁hospitalised	-11.9399
▁sensitized	-11.94
▁attenuate	-11.9402
▁geometry	-11.9403
▁colorectal	-11.9404
▁ireland	-11.9404
▁strips	-11.9404
▁mutual	-11.9405
▁"(1)	-11.9406
▁fpv	-11.9407
▁assign	-11.9407
▁swiss	-11.9408
mal	-11.941
▁(0.2	-11.941
▁filaments	-11.9412
transformed	-11.9418
▁exemplified	-11.9421
▁charges	-11.9424
groups	-11.9426
7.5	-11.9429
▁2007,	-11.9429
ethyl	-11.943
▁pasteur	-11.9431
▁augmentation	-11.9432
compared	-11.9433
▁prostaglandin	-11.9435
tcid	-11.9435
▁soap	-11.9437
▁postnatal	-11.9437
ot	-11.9437
▁eat	-11.9438
▁più	-11.9438
▁observing	-11.9438
▁superoxide	-11.9438
▁prednisone	-11.9439
▁requested	-11.944
▁realtime	-11.9444
particularly	-11.9446
▁meningoencephalitis	-11.9446
▁accumulating	-11.9447
▁rantes	-11.945
▁jump	-11.9451
▁aguda	-11.9452
▁regime	-11.9452
▁contracting	-11.9458
▁annotations	-11.9462
▁overseas	-11.9463
▁ectopic	-11.9464
furthermore	-11.9464
▁globular	-11.9464
ribose	-11.9465
▁claim	-11.9466
md	-11.9468
▁op	-11.9468
▁immunofluorescent	-11.9473
▁unter	-11.9473
▁crowding	-11.9473
▁guided	-11.9473
▁corn	-11.9474
▁signes	-11.9479
▁polyomavirus	-11.9479
▁conceptual	-11.948
reverse	-11.9481
▁bronchoscopy	-11.9481
▁films	-11.9482
74	-11.9483
▁grp	-11.9483
▁synergy	-11.949
▁mismatches	-11.9491
▁dpc	-11.9495
▁allograft	-11.9495
1111111111	-11.9498
▁hydration	-11.9498
▁tryptophan	-11.9499
▁metric	-11.95
ek	-11.9502
▁epigenetic	-11.9504
▁haemolytica	-11.9504
▁[115	-11.9506
▁controversy	-11.9507
▁reconstructed	-11.9507
▁flash	-11.9508
hybrid	-11.9509
▁(33)	-11.9511
▁fragmented	-11.9512
▁nonlinear	-11.9513
▁mas	-11.9514
▁transplanted	-11.9515
▁dysentery	-11.9515
▁frecuencia	-11.9515
▁tachypnea	-11.9515
▁mrc	-11.9521
mos	-11.9524
▁attribute	-11.9524
▁bordetella	-11.9525
▁147	-11.9525
▁emodin	-11.9525
▁55%	-11.9525
▁unavailable	-11.9525
▁+1	-11.9525
▁coil	-11.9528
▁friends	-11.953
transmission	-11.9532
▁recessive	-11.9533
▁acetonitrile	-11.9534
▁moves	-11.9534
▁neo	-11.9538
▁rnp	-11.9539
▁esbl	-11.9539
▁disinfectant	-11.9539
▁donation	-11.954
▁nidovirus	-11.954
▁trachomatis	-11.9541
▁exploratory	-11.9542
▁electroporation	-11.9542
▁exercises	-11.9543
▁encompassing	-11.9543
▁contig	-11.9544
▁favored	-11.9544
4).	-11.9545
▁stata	-11.9547
▁authentic	-11.9549
▁fmd	-11.9549
▁impairs	-11.955
▁flanked	-11.9551
▁2014.	-11.9551
▁inversely	-11.9552
▁sessions	-11.9555
▁instruction	-11.9555
▁1:100	-11.9556
▁168	-11.9557
▁meningococcal	-11.9559
▁anion	-11.9561
mas	-11.9563
▁(1996)	-11.9563
▁statements	-11.9566
▁‫	-11.9568
▁ambulatory	-11.9568
dg	-11.9568
▁aortic	-11.9569
▁suggestion	-11.9569
▁tumours	-11.9569
▁italian	-11.957
▁44]	-11.9573
single	-11.9573
▁reed	-11.9576
exon	-11.9577
▁respiratorias	-11.958
▁keywords	-11.9585
▁47]	-11.9587
▁submucosa	-11.9588
▁civet	-11.959
▁(34)	-11.959
▁11)	-11.9592
▁bold	-11.9593
2.0	-11.9594
tat	-11.9594
▁cdk	-11.9596
▁waters	-11.9596
▁1974)	-11.9598
▁maintains	-11.9603
▁something	-11.9603
▁était	-11.9603
mannose	-11.9604
▁scattering	-11.9604
mlv	-11.9611
▁metaplasia	-11.9611
▁ganciclovir	-11.9611
▁intergenic	-11.9612
73	-11.9612
▁45]	-11.9614
ntd	-11.9617
-28	-11.9618
▁gases	-11.9618
▁undoubtedly	-11.962
▁4.6	-11.962
▁laryngeal	-11.962
▁pao	-11.9622
▁poc	-11.9622
▁hcc	-11.9626
rp	-11.9627
▁unexplained	-11.9628
▁trif	-11.9629
▁pcaggs	-11.9629
▁hidden	-11.9629
▁palate	-11.9629
toxin	-11.9631
ji	-11.9631
▁nls	-11.9632
thr	-11.9635
▁counties	-11.9638
▁vl	-11.964
▁encapsulated	-11.9641
▁supplements	-11.9642
▁présence	-11.9646
▁letters	-11.9647
▁3.8	-11.9648
▁egress	-11.9648
▁disadvantage	-11.9652
▁gu	-11.966
▁pneumonias	-11.9661
df	-11.9663
▁collections	-11.9663
▁antagonism	-11.9664
▁labelling	-11.9665
distance	-11.9668
▁ssc	-11.9668
▁deadly	-11.9669
▁urti	-11.9669
▁elisas	-11.967
▁labels	-11.9671
orfs	-11.9672
▁oedema	-11.9673
▁∈	-11.9673
▁shi	-11.9674
assisted	-11.9679
secreting	-11.9681
▁polymerization	-11.9682
▁chase	-11.9682
tro	-11.9682
▁eps	-11.9682
▁nab	-11.9685
▁restricting	-11.9685
wood	-11.9688
▁zhou	-11.9689
▁[36,	-11.9691
▁97%	-11.9692
multiple	-11.9692
▁retro	-11.9693
nu	-11.9694
▁king	-11.9696
▁partnership	-11.9697
bottom	-11.9698
▁verification	-11.9699
▁evacuation	-11.9699
adv	-11.9701
▁pores	-11.9704
▁strengths	-11.9704
▁synthetase	-11.9706
▁starvation	-11.9708
▁dodecyl	-11.9708
number	-11.971
▁stations	-11.9719
ité	-11.9719
-33	-11.972
administration	-11.9722
joining	-11.9726
▁papn	-11.9733
activation	-11.9734
▁enhancer	-11.9734
▁choosing	-11.9734
▁2006,	-11.9735
▁worst	-11.9735
genomic	-11.974
▁align	-11.9744
▁considers	-11.9744
▁migrants	-11.9745
activity	-11.9749
ω	-11.9752
▁antagonize	-11.9754
▁minimized	-11.9756
▁efflux	-11.9761
significant	-11.9761
▁3'-	-11.9762
▁constrained	-11.9763
▁nef	-11.9763
▁bypass	-11.9764
▁avant	-11.9764
▁latex	-11.9768
7%	-11.9769
vaccine	-11.9774
▁infestation	-11.9777
▁typhoid	-11.9779
▁pad	-11.9782
▁colour	-11.9783
▁methodological	-11.9787
▁[109]	-11.9787
▁exacerbate	-11.9788
▁multivalent	-11.9788
▁vibrio	-11.9788
▁rendered	-11.9789
▁coma	-11.9791
late	-11.9792
▁plexus	-11.9795
▁oligodendrocyte	-11.9795
lipid	-11.9795
▁synovial	-11.9796
▁endoscopic	-11.9797
▁proliferate	-11.9805
isg	-11.9806
ato	-11.9812
▁dubs	-11.9812
▁können	-11.9814
iav	-11.9814
▁enzootic	-11.9814
▁chills	-11.9817
cn	-11.982
▁migrant	-11.9822
▁expectation	-11.9822
336	-11.9823
accession	-11.9823
140	-11.9824
▁anaemia	-11.9824
▁cada	-11.983
▁circovirus	-11.983
▁chimpanzee	-11.9831
▁afterwards	-11.9837
▁hotels	-11.9838
dia	-11.984
▁scanned	-11.9841
▁[110]	-11.9841
▁immunoassays	-11.9843
▁rbcs	-11.9845
▁2008,	-11.9846
▁également	-11.985
▁duodenal	-11.985
▁unexpectedly	-11.9854
▁emcv	-11.9856
▁lay	-11.9857
▁[113]	-11.9859
▁spatially	-11.9861
ido	-11.9862
▁dish	-11.9862
▁1969	-11.9866
▁arose	-11.9868
▁′	-11.9868
▁aspartate	-11.9869
▁incentives	-11.9871
▁stresses	-11.9873
▁covariates	-11.9873
▁economies	-11.9877
▁46]	-11.9878
▁tge	-11.9879
che	-11.9883
activating	-11.9884
▁cytometric	-11.9886
▁dyes	-11.9886
▁gg	-11.9891
▁signed	-11.9893
▁noroviruses	-11.9893
▁earthquake	-11.9893
▁pelvic	-11.9895
▁sterilization	-11.9895
▁neutralising	-11.9896
▁cecal	-11.9897
▁investments	-11.9899
substituted	-11.99
▁dl	-11.9901
▁frecuente	-11.9902
▁lumbar	-11.9904
▁aluminum	-11.9904
were	-11.9904
}	-11.9904
114	-11.9912
▁bones	-11.9916
▁res	-11.9917
▁boosting	-11.9918
▁fair	-11.9922
▁alongside	-11.9923
▁necessitate	-11.9924
107	-11.9925
▁tips	-11.9928
▁169	-11.9929
interferon	-11.9929
minute	-11.9929
▁lifestyle	-11.993
▁nhs	-11.9931
▁formats	-11.9936
▁relatedness	-11.9939
▁societal	-11.994
▁money	-11.994
▁icus	-11.9943
public	-11.9944
-3'	-11.9948
▁anatomical	-11.9949
▁gastritis	-11.9949
▁atherosclerosis	-11.9949
▁congo	-11.9949
thirds	-11.9953
▁client	-11.9957
▁elusive	-11.9958
▁uid	-11.9958
▁schistosomiasis	-11.9958
ya	-11.996
▁herb	-11.996
▁-4	-11.9964
▁25-	-11.9964
▁acyl	-11.9964
▁expenditure	-11.9965
▁albopictus	-11.9967
▁compensatory	-11.9967
▁rneasy	-11.9967
▁immunoreactivity	-11.9968
▁decide	-11.9969
▁uniquely	-11.9971
▁acetic	-11.9972
▁arrangements	-11.9973
appendix	-11.9977
▁brainstem	-11.9977
▁2017,	-11.998
mes	-11.9982
▁ptb	-11.9983
▁bo	-11.9983
▁meant	-11.9983
oid	-11.9984
▁larynx	-11.9985
▁pca	-11.9985
▁ignored	-11.9988
▁hnrnp	-11.999
▁helping	-11.9994
▁pneumonic	-11.9995
lv	-11.9996
▁excision	-12.0002
▁reflection	-12.0003
▁circulatory	-12.0003
▁triad	-12.0005
gg	-12.0009
hy	-12.001
▁(14	-12.001
▁vh	-12.001
▁virally	-12.0011
▁gbs	-12.0011
▁lactis	-12.0012
stimulating	-12.0012
1%	-12.0013
▁extrinsic	-12.0013
▁identifiable	-12.0013
▁chaperones	-12.0013
▁pharmacokinetics	-12.0014
▁poxviruses	-12.0015
▁infrequent	-12.0017
▁carnivores	-12.0018
▁12)	-12.0019
▁eliciting	-12.002
▁leukocytosis	-12.0021
▁(35)	-12.0023
▁overlaps	-12.0025
vac	-12.0026
▁augment	-12.0029
▁anal	-12.003
▁pegfp	-12.0031
plasma	-12.0032
▁unwinding	-12.0032
immuno	-12.0032
ah	-12.0032
▁aki	-12.0035
head	-12.0038
▁ears	-12.0038
▁distension	-12.0039
▁paramyxoviridae	-12.004
▁vapor	-12.0041
▁pos	-12.0041
▁qtl	-12.0045
▁?	-12.0046
tor	-12.0049
▁washington	-12.005
nature	-12.0051
▁preserve	-12.0053
▁23%	-12.0053
▁factores	-12.0053
tra	-12.0055
▁(1985)	-12.0055
▁sud	-12.0055
▁156	-12.0057
▁[111]	-12.0058
ngs	-12.006
▁obligate	-12.006
▁electrolytes	-12.006
▁strip	-12.0062
gas	-12.0064
▁homogenate	-12.0066
▁phenolic	-12.0067
date	-12.0074
hepatitis	-12.0076
▁hyperimmune	-12.0077
▁htnv	-12.0077
pfu	-12.0077
▁convert	-12.0079
▁sparse	-12.0079
▁stalk	-12.008
▁5.2	-12.0082
▁frontal	-12.0083
▁amplifying	-12.0084
▁pollutant	-12.0085
▁amenable	-12.0085
▁oriented	-12.0086
▁gathered	-12.0086
bra	-12.0086
effect	-12.0086
▁tw	-12.0088
▁ter	-12.0091
▁disappeared	-12.0095
▁civets	-12.0097
▁cellulose	-12.0097
▁shortage	-12.0098
▁6-8	-12.0101
▁declining	-12.0103
recombinant	-12.0104
▁avidity	-12.0104
▁ipc	-12.0105
▁thawed	-12.0105
▁manager	-12.0105
▁1500	-12.0106
2-3	-12.011
▁logical	-12.0114
ive	-12.0114
▁hydrophobicity	-12.0114
▁pna	-12.0116
note	-12.0117
▁felis	-12.0117
1-4	-12.0121
made	-12.0124
▁sgrna	-12.0128
▁complexed	-12.0129
▁1968	-12.0129
▁144	-12.0132
glu	-12.0134
▁thinking	-12.0136
ped	-12.0137
▁tbev	-12.0138
▁coast	-12.0139
▁analyte	-12.0141
▁158	-12.0141
▁reversion	-12.0143
▁letter	-12.0143
▁41,	-12.0147
▁aff	-12.0147
/3	-12.0148
auc	-12.015
▁systolic	-12.0151
▁crossing	-12.0151
entry	-12.0151
▁substitute	-12.0151
dos	-12.0153
▁crcov	-12.0154
003	-12.0155
▁granulocytes	-12.0155
▁macromolecules	-12.0156
▁hel	-12.0163
wnv	-12.0165
samples	-12.0165
▁poorer	-12.0167
▁eradicate	-12.017
76	-12.017
glass	-12.0171
iga	-12.0171
▁venom	-12.0176
▁deficit	-12.0177
▁seal	-12.0177
amersham	-12.0178
▁4.3	-12.0178
▁prescribing	-12.0178
▁endoscopy	-12.0178
▁driver	-12.0181
▁146	-12.0183
env	-12.0184
▁apo	-12.0184
▁ems	-12.0185
chapter	-12.0187
▁osmotic	-12.0187
▁compensate	-12.0188
▁parvoviruses	-12.0194
▁1972)	-12.0195
▁ecosystems	-12.0195
▁thousand	-12.0196
▁diaphragm	-12.0196
▁gentle	-12.0197
▁jc	-12.0197
▁cephalosporins	-12.0199
|	-12.02
▁drastically	-12.0205
lai	-12.0205
graphpad	-12.0205
▁pasteurella	-12.0206
▁−80	-12.0207
▁pakistan	-12.0208
aria	-12.0209
act	-12.0209
▁tbs	-12.021
␤	-12.0213
▁overlaid	-12.0214
▁enterococcus	-12.0215
methionine	-12.0215
▁exo	-12.0215
▁2001,	-12.0217
▁pulsed	-12.0221
▁store	-12.0222
▁freund	-12.0223
▁cytometer	-12.0224
▁congestive	-12.0224
▁aunps	-12.0226
▁60°	-12.0227
▁effi	-12.0229
▁ccv	-12.023
▁adoptive	-12.0232
▁chop	-12.0235
▁ganglion	-12.0235
▁bax	-12.0237
▁mountain	-12.0237
1-3	-12.0238
▁smokers	-12.0241
emc	-12.0241
▁neisseria	-12.0243
▁oncogenic	-12.0243
medical	-12.0244
▁tolerate	-12.0244
▁rendering	-12.0245
dpi	-12.0247
▁niveau	-12.0251
▁enterocolitis	-12.0251
▁[27	-12.0252
▁organelle	-12.0252
▁clock	-12.0253
▁infrared	-12.0253
▁gestational	-12.0254
▁quasi	-12.0255
▁president	-12.0255
▁7.4)	-12.0256
▁enforcement	-12.0261
▁alopecia	-12.0261
▁implication	-12.0261
▁hypothermia	-12.0261
ise	-12.0261
▁coccidiosis	-12.0261
▁prefer	-12.0263
▁coping	-12.0264
▁florida	-12.0265
▁bvd	-12.0266
▁bay	-12.0267
▁equity	-12.027
▁shortened	-12.0271
lb	-12.0274
▁nearest	-12.0274
endemic	-12.0274
▁eds	-12.0276
▁releases	-12.0278
▁ensemble	-12.0279
mr	-12.0284
▁accidents	-12.0285
▁arbitrary	-12.0289
▁suele	-12.0289
▁tetramer	-12.0291
dried	-12.0293
▁passively	-12.0297
▁baumannii	-12.0298
▁situated	-12.0298
▁hinder	-12.0302
▁hf	-12.0305
15-	-12.0306
▁multifactorial	-12.0307
▁respiratorio	-12.0307
▁xu	-12.0313
▁expense	-12.0317
▁infrequently	-12.0317
▁cam	-12.0318
▁longest	-12.0319
▁spearman	-12.0319
▁guanine	-12.0319
▁2010.	-12.0323
ium	-12.0323
▁countermeasures	-12.0325
▁cigarette	-12.0326
▁viscosity	-12.0327
▁posttranslational	-12.0329
▁familial	-12.0332
▁2.9	-12.0333
2%	-12.0335
oriented	-12.0336
rpa	-12.0337
▁underway	-12.0343
inflammation	-12.0346
▁subtilis	-12.0347
sw	-12.0348
fam	-12.035
▁liberia	-12.0352
general	-12.0353
▁presumptive	-12.0353
▁grows	-12.0354
▁keratinocytes	-12.0356
▁(2015)	-12.0361
▁edad	-12.0368
▁occlusion	-12.0374
▁granule	-12.0374
-293	-12.0374
▁partnerships	-12.0376
hong	-12.0376
▁dextran	-12.0377
▁leptospira	-12.0378
▁36%	-12.0379
▁bridges	-12.038
▁exciting	-12.0383
▁glaucoma	-12.0383
▁needles	-12.0384
▁heptad	-12.0385
▁grouping	-12.0386
▁peu	-12.0391
▁mev	-12.0394
▁cea	-12.0395
▁manipulate	-12.0395
▁promptly	-12.0395
▁tca	-12.0395
▁diminish	-12.0396
▁prolong	-12.0399
▁glycyrrhizin	-12.0402
▁mediterranean	-12.0402
▁reductase	-12.0402
▁combines	-12.0403
▁sftsv	-12.0404
▁bystander	-12.0404
▁lasted	-12.0406
▁volunteer	-12.0408
ile	-12.0409
▁rhinosinusitis	-12.0411
▁progesterone	-12.0412
▁sold	-12.0413
ino	-12.0415
▁paths	-12.0415
▁formally	-12.0416
▁);	-12.0416
iso	-12.0417
molecule	-12.0417
▁walk	-12.0418
▁filmarray	-12.0421
▁projected	-12.0421
▁crowded	-12.0421
▁spliced	-12.0422
▁(13	-12.0424
▁administering	-12.0425
▁tank	-12.0426
▁isolating	-12.043
▁breadth	-12.043
tre	-12.0431
▁prise	-12.0431
▁serous	-12.0432
3+	-12.0433
2.1	-12.0436
▁addresses	-12.0437
sia	-12.0439
12-	-12.044
cross	-12.044
forward	-12.0441
▁tras	-12.0442
ib	-12.0447
▁graphical	-12.0449
▁wilcoxon	-12.0451
91	-12.0453
▁165	-12.0454
effectiveness	-12.0461
dx	-12.0463
▁producer	-12.0466
mortem	-12.0466
study	-12.0467
fatality	-12.0469
▁sickness	-12.0469
macrophage	-12.0469
▁contacted	-12.0469
▁brv	-12.0471
ella	-12.0472
▁19%	-12.0473
▁[39,	-12.0473
▁[35	-12.0476
▁erosion	-12.0479
▁touch	-12.0481
▁title	-12.0482
▁chloroform	-12.0482
▁lowering	-12.0483
▁microbe	-12.0483
2;	-12.0483
described	-12.0486
▁155	-12.0489
19,	-12.0491
▁adds	-12.0497
▁impede	-12.0499
▁42,	-12.05
▁cantly	-12.05
▁tn	-12.0502
▁gt	-12.0507
1.5	-12.0508
▁scheduled	-12.0509
▁4.1	-12.0511
tree	-12.0511
▁(36)	-12.0512
▁assurance	-12.0516
rev	-12.0517
▁ethidium	-12.0526
▁staphylococcal	-12.0526
▁glucocorticoid	-12.0526
sec	-12.0527
▁proxy	-12.0527
▁distantly	-12.0528
▁[41,	-12.0529
laboratory	-12.0529
▁operators	-12.0532
amide	-12.0534
▁rimantadine	-12.0535
face	-12.0536
▁fan	-12.0537
▁homologues	-12.0537
▁diese	-12.054
▁vrs	-12.0541
▁caregivers	-12.0542
▁hill	-12.0543
▁[38,	-12.0543
▁coomassie	-12.0545
▁2013.	-12.0549
▁compute	-12.0553
▁recumbency	-12.0554
▁constituent	-12.0555
▁cope	-12.0558
▁salmon	-12.0562
▁spore	-12.0563
▁tailored	-12.0565
▁ask	-12.0565
electron	-12.0566
▁fret	-12.0567
▁rlr	-12.0567
▁210	-12.0567
5).	-12.057
▁agilent	-12.0571
▁detachment	-12.0573
▁proposal	-12.0574
▁(11	-12.0578
▁ecori	-12.0579
▁mechanically	-12.0583
▁comorbidity	-12.0584
▁blank	-12.0584
▁mimicking	-12.0584
5/	-12.0588
▁nucleoli	-12.0588
▁compensation	-12.0593
▁ordinary	-12.0593
▁consortium	-12.0593
▁ablation	-12.0593
▁lip	-12.0594
nasal	-12.0595
je	-12.06
▁paucity	-12.0602
▁save	-12.0603
defective	-12.0603
▁wanted	-12.0604
wild	-12.0604
either	-12.0605
▁14)	-12.0609
▁1.5%	-12.0611
▁bk	-12.0613
▁hall	-12.0615
functional	-12.0616
▁drives	-12.0616
eq	-12.0617
▁eids	-12.062
▁multicenter	-12.0621
▁blindness	-12.0622
▁clotting	-12.0622
▁nmol	-12.0622
▁sporadically	-12.0622
▁axon	-12.0622
▁nei	-12.0623
▁(%)	-12.0625
▁154	-12.063
▁rpe	-12.0631
▁privacy	-12.0631
▁wrote	-12.0631
▁transmitting	-12.0632
▁repression	-12.0632
autres	-12.0638
ula	-12.0639
eau	-12.0643
▁centered	-12.0643
▁scid	-12.0644
▁smart	-12.0645
▁mortalidad	-12.065
▁[114]	-12.0651
▁dermis	-12.0652
▁gait	-12.0652
▁[23	-12.0654
▁nhp	-12.0655
lan	-12.0655
origine	-12.0664
▁ade	-12.0664
▁shifting	-12.0668
▁enteropathy	-12.067
▁vasculature	-12.067
▁deceased	-12.067
▁submission	-12.0672
▁slc	-12.0672
residue	-12.0672
▁mat	-12.0673
▁vt	-12.0674
▁interacted	-12.0674
inh	-12.0677
app	-12.0677
▁monotherapy	-12.068
▁fruits	-12.068
▁fertility	-12.068
▁fortunately	-12.0681
▁emphasizes	-12.0681
▁estas	-12.0681
▁enterica	-12.0686
▁leg	-12.0687
▁wealth	-12.0688
▁199	-12.0688
▁adipose	-12.0689
▁monte	-12.0695
dpp	-12.0697
alt	-12.0697
▁immunogen	-12.0699
▁crops	-12.0699
▁trois	-12.0701
tem	-12.0704
genetic	-12.0705
▁trip	-12.0705
▁pip	-12.0706
▁transparent	-12.0708
boost	-12.0709
▁(37)	-12.071
▁mtase	-12.0711
▁48]	-12.0712
▁chambers	-12.0716
cox	-12.0717
▁overwhelming	-12.0718
▁anaphylaxis	-12.0719
▁forecasts	-12.0719
10-	-12.072
mel	-12.0723
▁1967	-12.0723
panel	-12.0724
▁bloody	-12.0728
▁reconstitution	-12.0728
▁hypoglycemia	-12.0729
▁subpopulation	-12.0731
▁96%	-12.0732
▁labs	-12.0732
▁vrc	-12.074
▁hpev	-12.0742
▁accumulates	-12.0743
▁compositions	-12.0745
▁beclin	-12.0748
transcription	-12.0748
▁relapsing	-12.0748
▁seoul	-12.0749
▁packing	-12.075
▁zhao	-12.0753
▁conditioned	-12.0754
123	-12.0756
▁implied	-12.0758
▁polyadenylation	-12.0758
▁dutch	-12.0758
▁officers	-12.0759
▁luminex	-12.076
0/	-12.076
▁liposome	-12.0761
▁thymidine	-12.0761
years	-12.0768
▁1971	-12.0768
▁xrn	-12.0768
▁uti	-12.077
▁donc	-12.0771
▁exponentially	-12.0771
▁0.04	-12.0776
hk	-12.0777
▁27%	-12.0779
▁interviewed	-12.078
▁accessed	-12.078
▁alive	-12.0781
▁28%	-12.0783
▁26%	-12.0783
▁≈	-12.0785
▁dispensable	-12.0787
▁pams	-12.079
▁(500	-12.0791
▁muc	-12.0792
▁guarantee	-12.0792
▁kv	-12.0792
▁pma	-12.0794
▁packages	-12.0796
loaded	-12.0796
▁chloramphenicol	-12.0797
▁offices	-12.0798
▁mounting	-12.08
▁npa	-12.0802
▁adopting	-12.0802
feeding	-12.0803
117]	-12.0804
glycans	-12.0806
▁conjunctiva	-12.0807
▁compiled	-12.0809
▁denaturing	-12.0809
▁hmgb	-12.081
2000	-12.0811
▁myeloma	-12.0812
209	-12.0816
▁arboviruses	-12.0819
very	-12.0826
▁irrelevant	-12.0827
▁nephritis	-12.0827
▁heightened	-12.0827
▁margin	-12.0828
▁bdv	-12.083
▁hantaviruses	-12.083
▁choroid	-12.0832
▁230	-12.0832
▁participates	-12.0833
▁elucidation	-12.0836
▁pharmacy	-12.0837
▁sis	-12.0841
mon	-12.0841
▁underlined	-12.0841
▁tidal	-12.0842
▁~1	-12.0843
adp	-12.0844
▁tk	-12.0844
▁gran	-12.0845
▁bilayers	-12.0845
▁outputs	-12.0846
▁poliomyelitis	-12.0847
embedded	-12.0847
▁continents	-12.0848
▁mad	-12.0851
▁139	-12.0851
lf	-12.0853
▁136	-12.0854
▁biolabs	-12.0856
▁beaudette	-12.0857
▁vc	-12.0858
▁births	-12.0858
▁solvents	-12.0861
▁readers	-12.0862
▁staphylococci	-12.0864
▁containers	-12.0864
▁nucleocapsids	-12.0865
▁hilden	-12.0866
▁heterozygous	-12.0866
▁downregulate	-12.0866
▁subdivided	-12.0867
▁cytolytic	-12.0867
\").	-12.0867
▁brazilian	-12.0867
▁undetected	-12.0867
emia	-12.0868
col	-12.0873
ligand	-12.0874
▁ecg	-12.0875
▁4.4	-12.0876
▁got	-12.0877
▁estrus	-12.0878
␣	-12.0878
position	-12.0883
ano	-12.0884
▁plateau	-12.0886
▁omitted	-12.0886
▁rapamycin	-12.0886
▁jordan	-12.0887
▁49]	-12.0888
▁tails	-12.0888
▁irradiated	-12.089
▁198	-12.089
▁circumvent	-12.0892
▁aseptic	-12.0892
ita	-12.0899
▁otras	-12.0903
▁142	-12.0903
▁143	-12.0904
▁chances	-12.0904
▁cloud	-12.0905
▁separating	-12.0906
▁interactive	-12.0907
▁dickinson	-12.0907
vir	-12.0909
▁answered	-12.0909
mtase	-12.091
▁adversely	-12.0911
tissue	-12.0913
▁2012.	-12.0913
nr	-12.0913
-6-	-12.0914
▁levofloxacin	-12.0914
▁1973)	-12.0915
▁(1990)	-12.0915
▁cardiopulmonary	-12.0916
▁volatile	-12.0916
▁hydrochloride	-12.0916
ige	-12.0917
causing	-12.0918
▁perturbation	-12.0918
6),	-12.0922
▁egf	-12.0924
▁3.7	-12.0925
▁electrophoretic	-12.0926
tif	-12.0926
▁2020.	-12.0926
▁manure	-12.0928
▁94°	-12.0928
▁hybrids	-12.0929
▁committees	-12.093
▁martin	-12.0931
glucose	-12.0931
bei	-12.0932
▁4.8	-12.0934
▁feral	-12.0937
▁oligomeric	-12.0937
▁0.001),	-12.0939
ance	-12.0939
santa	-12.0943
▁rehabilitation	-12.0946
▁dopamine	-12.0946
▁announced	-12.0947
natural	-12.0948
▁studio	-12.095
aux	-12.0951
▁hens	-12.0956
ens	-12.0956
▁sein	-12.0956
▁industrialized	-12.0956
▁4-5	-12.0956
▁bip	-12.0957
tyr	-12.096
syn	-12.0962
pulmonary	-12.0964
▁dp	-12.0964
▁sod	-12.0965
▁perinatal	-12.0965
▁ksa	-12.0965
▁noticeable	-12.0966
▁catalysis	-12.0966
▁arb	-12.0966
▁phev	-12.097
▁appreciated	-12.097
▁recruiting	-12.097
▁185	-12.0971
▁pcd	-12.0973
para	-12.0974
mf	-12.0975
mus	-12.0975
▁richness	-12.0976
▁multiplexed	-12.0977
▁exp	-12.0977
dsrna	-12.0981
▁chimeras	-12.0985
▁caribbean	-12.0986
▁zoonosis	-12.0986
▁underscore	-12.0987
ð	-12.0988
▁lai	-12.0988
▁trying	-12.0989
▁erad	-12.0989
▁tunnel	-12.0989
▁pdi	-12.0995
▁pockets	-12.0995
▁rapport	-12.0996
▁revenue	-12.0998
▁polymeric	-12.0999
▁24%	-12.1002
157:	-12.1003
zhou	-12.1004
▁tau	-12.1004
▁apmv	-12.1005
▁ow	-12.1005
▁149	-12.1006
tar	-12.1006
▁deployed	-12.1006
▁epidemiologists	-12.1007
▁confused	-12.1008
ura	-12.101
▁acknowledged	-12.1011
50)	-12.1012
plus	-12.1013
ants	-12.1014
▁iterative	-12.1015
▁stressors	-12.1017
▁allelic	-12.1017
▁[20	-12.1019
▁bacteriophages	-12.1023
▁dimethyl	-12.1023
▁mediastinal	-12.1026
▁(1995)	-12.1027
▁así	-12.1028
▁nhps	-12.1029
▁+/+	-12.1029
▁flask	-12.1029
1.3	-12.103
ida	-12.1032
antibodies	-12.1033
▁prescriptions	-12.1033
▁ox	-12.1034
▁trajectory	-12.1036
population	-12.1036
800	-12.1037
▁acc	-12.1038
▁entrance	-12.1039
▁constraint	-12.104
▁superinfection	-12.1042
▁suitability	-12.1046
▁immunodeficient	-12.1047
▁fits	-12.1047
82	-12.1048
▁inspired	-12.1048
▁readings	-12.1053
3%	-12.1053
▁nanomaterials	-12.1054
172	-12.1055
▁bonferroni	-12.1056
ell	-12.1057
gram	-12.1058
bb	-12.1061
▁nematodes	-12.1061
▁queen	-12.1062
▁mer	-12.1062
í	-12.1062
▁habits	-12.1063
▁buried	-12.1066
▁moisture	-12.1066
▁analytes	-12.1067
▁vacuole	-12.107
▁auscultation	-12.1077
▁probing	-12.1078
any	-12.108
▁141	-12.108
▁plos	-12.1081
▁abrogated	-12.1081
▁evolutionarily	-12.1086
kar	-12.1087
(+)	-12.1087
prevention	-12.1088
▁zeiss	-12.1089
previously	-12.109
▁muestras	-12.1093
▁pyrimidine	-12.1093
▁blunt	-12.1095
▁mayoría	-12.1097
▁bioaerosol	-12.11
sel	-12.1101
association	-12.1101
▁ban	-12.1101
▁mating	-12.1105
▁nat	-12.1106
▁unpredictable	-12.1107
▁hearing	-12.1107
▁ecm	-12.1108
▁coastal	-12.111
▁chronique	-12.111
▁π	-12.1111
acc	-12.1111
▁modelled	-12.1116
▁[119]	-12.1117
▁proteasomal	-12.1117
▁please	-12.1119
▁1970)	-12.1119
▁solving	-12.112
▁walking	-12.112
▁minimally	-12.112
▁satellite	-12.1121
▁constituted	-12.1122
zo	-12.1124
▁15-	-12.1125
▁immunogens	-12.1126
▁topological	-12.1126
▁dosis	-12.1126
▁dbt	-12.1127
polyacrylamide	-12.1128
lm	-12.1128
▁projection	-12.1133
▁43,	-12.1134
neo	-12.1137
▁93%	-12.114
wi	-12.1142
▁shall	-12.1146
▁grna	-12.1147
▁steel	-12.1147
sum	-12.1147
▁†	-12.1147
▁rho	-12.1148
▁chimpanzees	-12.1149
▁sort	-12.1152
▁visually	-12.1153
▁glcnac	-12.1154
▁lésions	-12.1155
ndo	-12.1155
▁territory	-12.1158
▁ent	-12.1159
▁[40,	-12.116
▁feedlot	-12.1161
▁spla	-12.1164
▁performs	-12.1167
▁dystrophin	-12.1168
▁referring	-12.1169
▁incidental	-12.1169
▁(38)	-12.117
▁mk	-12.1171
▁disrupts	-12.1172
back	-12.1172
▁bringing	-12.1174
▁elles	-12.118
▁electro	-12.1181
▁infiltrated	-12.1187
▁fibrinous	-12.1189
▁distended	-12.1189
▁tympanic	-12.119
sas	-12.119
avian	-12.119
▁cambridge	-12.119
oxy	-12.1194
[...]
